<unk>	0
<s>	0
</s>	0
▁SPACE	-0.825045
▁NEWLINE	-2.53304
_	-3.14171
(	-3.57707
.	-3.60993
self	-3.7857
,	-4.06002
):	-4.24078
=	-4.30559
)	-4.56652
▁SPACEdef	-4.69342
▁SPACEreturn	-4.83703
:	-5.37153
s	-5.46024
'	-5.57596
get	-5.69486
()	-5.75723
▁def	-5.85346
._	-5.94731
E	-5.9481
name	-5.97283
▁SPACEif	-5.98719
▁TAB	-6.07035
"	-6.08417
None	-6.17733
▁SPACEin	-6.3697
[	-6.3899
id	-6.43117
data	-6.54693
('	-6.56893
x	-6.57087
path	-6.58619
',	-6.60874
value	-6.63282
#	-6.64782
▁SPACEfor	-6.66285
__(	-6.67392
')	-6.75185
-	-6.78955
%	-6.80953
init	-6.86778
set	-6.87506
*	-6.8764
▁class	-6.87701
args	-6.88594
]	-6.89281
d	-6.91572
n	-6.91956
▁SPACEnot	-6.92024
a	-6.93736
+	-6.94104
key	-6.95938
("	-6.96432
))	-6.97033
▁SPACEtest	-6.98789
to	-6.99713
p	-7.00334
type	-7.02348
i	-7.0685
file	-7.08923
list	-7.09149
/	-7.09362
is	-7.09836
True	-7.10527
**	-7.14168
1	-7.14237
r	-7.1446
kwargs	-7.17878
['	-7.18797
False	-7.2073
f	-7.21098
Error	-7.2172
")	-7.22079
▁NEWLINEclass	-7.22084
▁SPACEis	-7.23377
str	-7.28141
2	-7.28652
▁SPACEraise	-7.29476
0	-7.31425
==	-7.32427
c	-7.32568
test	-7.34782
b	-7.35082
",	-7.36059
t	-7.36313
▁SPACEelse	-7.40095
v	-7.40951
user	-7.41169
y	-7.41883
request	-7.42515
url	-7.46015
▁SPACEpass	-7.4756
.__	-7.48948
text	-7.53381
add	-7.55626
():	-7.58631
cls	-7.59231
config	-7.59881
':	-7.60615
e	-7.61321
@	-7.62523
S	-7.62625
dict	-7.6335
Exception	-7.63633
']	-7.63995
from	-7.64161
format	-7.64633
node	-7.66414
m	-7.68698
obj	-7.68831
in	-7.708
object	-7.75791
size	-7.77938
index	-7.7935
context	-7.79611
time	-7.8162
class	-7.81831
k	-7.81889
string	-7.84924
▁SPACEassert	-7.85164
state	-7.85381
model	-7.87218
new	-7.88183
message	-7.8835
info	-7.88722
int	-7.89242
ed	-7.89245
code	-7.90037
update	-7.90707
u	-7.91246
log	-7.93552
create	-7.94363
response	-7.94454
on	-7.94798
len	-7.95427
\	-7.95738
line	-7.97178
ing	-7.97678
all	-7.98034
())	-7.99871
status	-8.0029
client	-8.00478
append	-8.01625
msg	-8.01795
item	-8.02119
▁SPACEtry	-8.02446
assertEqual	-8.03169
join	-8.04124
▁SPACEthe	-8.04447
run	-8.05793
json	-8.05954
start	-8.06408
filename	-8.06686
val	-8.06791
l	-8.06836
check	-8.07567
os	-8.08534
h	-8.08551
▁SPACEsuper	-8.09263
▁SPACEexcept	-8.1043
db	-8.10463
event	-8.10836
version	-8.11658
),	-8.12425
error	-8.12937
read	-8.12968
default	-8.1312
for	-8.13233
='	-8.13562
[]	-8.13565
w	-8.14084
params	-8.14325
output	-8.14629
or	-8.14725
write	-8.15206
re	-8.16199
A	-8.1778
▁SPACEand	-8.17932
dir	-8.18694
}	-8.18853
{	-8.18971
g	-8.19711
max	-8.20134
result	-8.203
group	-8.23003
C	-8.25049
out	-8.25302
T	-8.25496
num	-8.25602
X	-8.25706
open	-8.26143
values	-8.26193
count	-8.2736
api	-8.28115
])	-8.2839
[0]	-8.28879
base	-8.29617
▁SPACEwith	-8.30073
▁	-8.30246
delete	-8.30551
as	-8.31387
instance	-8.31786
of	-8.32009
with	-8.32374
app	-8.32379
command	-8.32638
er	-8.32673
query	-8.33007
▁TABdef	-8.33012
z	-8.33014
session	-8.34069
no	-8.34341
field	-8.34599
▁SPACEisinstance	-8.34881
func	-8.35572
filter	-8.36138
Get	-8.37261
▁SPACEos	-8.38014
q	-8.38418
load	-8.38548
by	-8.38699
3	-8.39287
(*	-8.39324
tag	-8.39696
D	-8.39879
input	-8.40345
cmd	-8.4063
remove	-8.41037
map	-8.4125
L	-8.41629
▁TABreturn	-8.41844
call	-8.42406
["	-8.43098
Type	-8.43207
parse	-8.44121
np	-8.4521
":	-8.4546
>	-8.45551
target	-8.45578
M	-8.46678
items	-8.47236
{}	-8.47471
▁SPACEresult	-8.47536
image	-8.48764
split	-8.49442
current	-8.49689
o	-8.49822
1,	-8.50632
token	-8.51775
NotImplemented	-8.51939
method	-8.52359
content	-8.52557
close	-8.53119
source	-8.53495
Test	-8.53526
G	-8.54327
I	-8.54368
has	-8.54598
end	-8.54976
host	-8.54978
P	-8.55224
parent	-8.55271
send	-8.55381
->	-8.55486
root	-8.5611
List	-8.56122
date	-8.57138
table	-8.57378
F	-8.57632
▁SPACEprint	-8.57718
port	-8.57721
not	-8.57814
Name	-8.57964
().	-8.58082
B	-8.58214
▁SPACEnp	-8.58468
py	-8.59612
R	-8.60193
▁SPACElen	-8.60325
keys	-8.60763
array	-8.6127
mode	-8.61602
V	-8.61852
shape	-8.62188
sub	-8.62569
File	-8.6265
number	-8.62663
find	-8.63746
un	-8.63872
options	-8.64045
Base	-8.64122
module	-8.64865
task	-8.65107
assert	-8.65197
cache	-8.65701
do	-8.66662
+=	-8.6778
min	-8.68841
N	-8.69128
H	-8.69375
and	-8.69403
device	-8.69873
action	-8.70249
).__	-8.71069
page	-8.71608
<	-8.72977
view	-8.73533
if	-8.7379
label	-8.73883
ip	-8.74072
handle	-8.74744
W	-8.74749
Data	-8.74755
save	-8.74761
make	-8.7494
Id	-8.75538
arg	-8.7588
server	-8.76729
----------------	-8.77436
="	-8.78107
env	-8.78175
row	-8.78652
j	-8.79021
float	-8.79299
length	-8.79512
"""	-8.79727
debug	-8.80242
title	-8.80659
▁SPACEyield	-8.80819
service	-8.80942
build	-8.81115
names	-8.81779
copy	-8.81902
(),	-8.8304
([	-8.83232
{'	-8.83397
other	-8.8412
post	-8.84255
4	-8.84623
1)	-8.84717
fields	-8.84763
"]	-8.85075
objects	-8.85247
ID	-8.85346
match	-8.8554
▁SPACEor	-8.85581
stop	-8.85878
attr	-8.85931
next	-8.86236
address	-8.86595
settings	-8.86811
project	-8.87055
op	-8.87793
Set	-8.88634
logger	-8.88698
timeout	-8.89029
▁SPACEas	-8.89105
last	-8.89283
'])	-8.89295
iter	-8.89297
template	-8.90978
function	-8.91069
K	-8.91107
doc	-8.91883
element	-8.92214
var	-8.92419
files	-8.9339
color	-8.93478
register	-8.94792
resource	-8.95078
pos	-8.95271
replace	-8.95586
prefix	-8.96438
process	-8.96478
html	-8.97198
datetime	-8.97433
clear	-8.97625
connection	-8.98093
0,	-8.98416
▁SPACEimport	-8.98529
range	-8.99214
Y	-8.99513
bytes	-9.00036
▁SPACEret	-9.00095
xml	-9.0081
at	-9.01151
block	-9.01493
Model	-9.01531
callback	-9.01621
lib	-9.01664
level	-9.01921
search	-9.02099
parser	-9.02262
random	-9.02304
show	-9.02361
sys	-9.02772
it	-9.03091
lambda	-9.04252
5	-9.04458
body	-9.05134
hash	-9.05527
coin	-9.06382
Node	-9.06423
Event	-9.06652
stream	-9.06687
types	-9.06729
link	-9.06803
▁SPACEbe	-9.07073
handler	-9.07082
ids	-9.07201
return	-9.07225
param	-9.07581
order	-9.07661
print	-9.07993
tree	-9.08923
0:	-9.08965
execute	-9.09079
sum	-9.09247
[1]	-9.09969
password	-9.10078
ref	-9.10106
encode	-9.10137
mock	-9.10139
User	-9.10401
▁TABself	-9.10551
raw	-9.1056
frame	-9.10563
To	-9.11307
ImplementedError	-9.11765
8	-9.11872
username	-9.12
res	-9.12033
width	-9.12334
child	-9.12411
uri	-9.12444
job	-9.12814
use	-9.13775
offset	-9.1455
exists	-9.15126
strip	-9.15379
first	-9.16453
entry	-9.16717
es	-9.16907
Field	-9.17059
header	-9.17234
utils	-9.1735
able	-9.17451
▁SPACEother	-9.17603
0)	-9.17606
idx	-9.17853
valid	-9.18274
pytest	-9.18361
▁SPACENot	-9.18402
async	-9.18515
models	-9.18575
fn	-9.18735
validate	-9.18954
al	-9.19288
})	-9.19358
queue	-9.19425
Object	-9.19559
repr	-9.19811
one	-9.20144
http	-9.20248
headers	-9.20889
▁TABif	-9.20947
record	-9.21534
metadata	-9.21588
form	-9.21883
lines	-9.22979
description	-9.23061
word	-9.23499
point	-9.24559
main	-9.246
local	-9.24854
conf	-9.24889
reset	-9.25065
results	-9.25255
render	-9.25492
store	-9.25513
nodes	-9.26128
)]	-9.26153
err	-9.26574
auth	-9.26684
Value	-9.26698
'))	-9.26981
uuid	-9.27119
Invalid	-9.27477
conn	-9.27759
channel	-9.27905
assertRaises	-9.28055
2)	-9.28212
email	-9.28493
Action	-9.2871
active	-9.28794
exception	-9.28837
So	-9.28997
],	-9.29157
this	-9.29774
No	-9.30851
dtype	-9.30984
2,	-9.31046
pop	-9.31358
lower	-9.31561
old	-9.3169
String	-9.31736
stack	-9.31784
(0,	-9.32244
decode	-9.3234
domain	-9.32444
Key	-9.32514
step	-9.32559
Path	-9.33031
change	-9.33328
up	-9.33367
graph	-9.33548
tuple	-9.33576
setup	-9.33749
manager	-9.33781
axis	-9.33928
foo	-9.34219
location	-9.34284
col	-9.34333
▁SPACEres	-9.34888
df	-9.35607
schema	-9.35698
lock	-9.35735
'%	-9.36136
position	-9.36276
'],	-9.36675
total	-9.37103
src	-9.37218
implemented	-9.37226
option	-9.37346
spec	-9.37575
course	-9.37594
meta	-9.37632
Text	-9.37908
top	-9.38559
access	-9.3867
▁SPACErange	-9.38956
widget	-9.39028
unit	-9.39155
empty	-9.39543
'):	-9.39556
addr	-9.40044
directory	-9.40323
unicode	-9.41034
mod	-9.41524
system	-9.42099
Request	-9.42439
Message	-9.42597
wait	-9.42706
Command	-9.42784
select	-9.42863
def	-9.43098
)))	-9.43354
Not	-9.43534
assertTrue	-9.43895
exit	-9.43972
Element	-9.44112
fs	-9.44222
In	-9.44373
buffer	-9.4455
batch	-9.44619
io	-9.44676
tags	-9.44876
utf	-9.44982
bar	-9.4528
exc	-9.45313
socket	-9.45804
column	-9.45807
▁SPACEValueError	-9.46078
my	-9.46219
sample	-9.46281
plugin	-9.46327
"%	-9.4641
mask	-9.46812
convert	-9.47091
Config	-9.47958
pattern	-9.48221
▁SPACEwhile	-9.48279
details	-9.48299
2.	-9.48374
sort	-9.48456
layer	-9.4855
package	-9.48787
core	-9.4908
connect	-9.4965
scale	-9.49711
uid	-9.49828
''	-9.50102
6	-9.50393
import	-9.50514
generate	-9.50554
st	-9.50788
cursor	-9.50879
kw	-9.51019
encoding	-9.51201
ValueError	-9.5131
admin	-9.51373
tf	-9.51411
volume	-9.51565
thread	-9.51805
▁SPACEelif	-9.51812
now	-9.51827
profile	-9.51886
errors	-9.51965
net	-9.52063
attribute	-9.52367
ctx	-9.52498
ret	-9.52802
TypeError	-9.52841
View	-9.52897
State	-9.53039
limit	-9.53117
img	-9.53134
required	-9.53355
O	-9.53365
window	-9.53369
network	-9.54222
'\	-9.54462
can	-9.54789
dt	-9.5522
full	-9.55272
Re	-9.55754
stdout	-9.56101
account	-9.56157
seq	-9.56272
Time	-9.56402
req	-9.56636
Dict	-9.572
pool	-9.57224
attributes	-9.57654
1.	-9.57757
Info	-9.57772
properties	-9.58234
com	-9.58545
ch	-9.58603
global	-9.58712
repo	-9.58943
eq	-9.59081
section	-9.59456
rule	-9.59882
attrs	-9.60011
ly	-9.60114
invalid	-9.60239
only	-9.60452
property	-9.60688
timestamp	-9.61035
parameters	-9.61132
dev	-9.61221
rate	-9.61584
1:	-9.61796
put	-9.61969
auto	-9.62033
children	-9.62117
clean	-9.62117
mark	-9.6225
://	-9.62457
im	-9.6256
height	-9.62761
AttributeError	-9.62814
scope	-9.62962
Client	-9.63086
▁NEWLINEdef	-9.63216
payload	-9.63273
10	-9.6342
box	-9.63457
ar	-9.63674
role	-9.63677
gen	-9.63733
argument	-9.63978
groups	-9.63994
flags	-9.64018
script	-9.64115
en	-9.64494
32	-9.64544
display	-9.64724
exp	-9.64847
U	-9.64926
enabled	-9.64931
site	-9.65062
Group	-9.65124
Class	-9.65128
(**	-9.65184
login	-9.6572
ns	-9.66216
namespace	-9.66366
remote	-9.66664
('/	-9.66698
signal	-9.67032
Item	-9.67264
de	-9.67334
(1,	-9.67505
el	-9.68507
math	-9.6871
Method	-9.69252
an	-9.69395
pid	-9.69583
left	-9.69725
fd	-9.70161
proxy	-9.70181
backend	-9.70218
64	-9.70458
char	-9.70611
▁SPACEthis	-9.7064
six	-9.7064
vm	-9.70693
matrix	-9.70776
ts	-9.71001
bool	-9.71081
Response	-9.7115
<=	-9.71201
mean	-9.71832
URL	-9.72228
expr	-9.72481
Image	-9.72654
entity	-9.72755
commit	-9.72808
md	-9.72863
ext	-9.73288
force	-9.73434
report	-9.73484
sid	-9.73731
collection	-9.73903
space	-9.74286
loop	-9.7443
Mixin	-9.74977
▁SPACEhasattr	-9.75054
-1	-9.75066
member	-9.75369
dataset	-9.75439
comment	-9.75478
reverse	-9.75558
expected	-9.75603
▁SPACEmust	-9.75791
extra	-9.75852
cluster	-9.75867
GET	-9.76256
right	-9.76287
pre	-9.7642
ob	-9.76498
factory	-9.76515
database	-9.76723
stats	-9.76791
labels	-9.76864
TestCase	-9.77271
numpy	-9.77548
policy	-9.77591
storage	-9.77609
cur	-9.77641
Handler	-9.77861
>=	-9.77902
ation	-9.78413
startswith	-9.7849
Task	-9.78526
python	-9.78549
].	-9.788
[0])	-9.79284
ex	-9.79479
container	-9.79765
non	-9.79794
fetch	-9.79889
pk	-9.79918
release	-9.80014
RE	-9.80141
folder	-9.80314
agent	-9.80422
ui	-9.80646
dump	-9.80742
interface	-9.80801
'),	-9.80849
The	-9.80851
Service	-9.81011
Size	-9.81107
parameter	-9.81223
Status	-9.81226
temp	-9.8137
del	-9.81528
Manager	-9.81583
driver	-9.8166
media	-9.81708
tmp	-9.81826
plot	-9.8196
Filter	-9.82151
util	-9.82231
[0],	-9.82312
style	-9.82436
insert	-9.8265
cell	-9.8292
Index	-9.83056
flag	-9.83235
ops	-9.83263
case	-9.83464
struct	-9.83531
arr	-9.83677
Form	-9.83677
route	-9.83724
opt	-9.83871
buf	-9.84055
'/	-9.84132
▁SPACEexpected	-9.84229
▁SPACEgetattr	-9.84478
bin	-9.84544
abs	-9.8467
patch	-9.84765
txt	-9.84832
zip	-9.84927
users	-9.85103
success	-9.8524
""	-9.85839
per	-9.85854
events	-9.85938
equal	-9.86022
▁SPACEdisable	-9.86051
opts	-9.86265
me	-9.8629
Context	-9.8662
dim	-9.86862
feature	-9.86909
part	-9.8692
points	-9.86938
be	-9.86945
sp	-9.87136
inputs	-9.87278
Factory	-9.87388
paths	-9.87831
▁SPACEsys	-9.88407
logging	-9.8844
verbose	-9.88445
document	-9.88656
dumps	-9.88685
(1)	-9.88987
sql	-9.89142
transform	-9.89249
prop	-9.89259
sequence	-9.8936
help	-9.89417
▁SPACEdel	-9.89852
▁SPACEpylint	-9.90046
alpha	-9.90054
engine	-9.90129
diff	-9.90315
pack	-9.90398
mat	-9.90576
the	-9.90738
/%	-9.90772
NAME	-9.91044
API	-9.91076
category	-9.91421
score	-9.91523
fp	-9.91677
Log	-9.91771
cfg	-9.91818
year	-9.91837
apply	-9.91917
tokens	-9.92034
getattr	-9.92269
ignore	-9.92411
environ	-9.92495
any	-9.92626
example	-9.93769
From	-9.93803
raises	-9.93888
safe	-9.94242
Page	-9.94439
protocol	-9.94582
tensor	-9.94742
messages	-9.94747
edge	-9.94759
compute	-9.94865
rows	-9.94936
enable	-9.95016
train	-9.95207
verify	-9.95273
missing	-9.95404
ok	-9.95429
button	-9.95444
Line	-9.95446
long	-9.95855
hex	-9.95874
dist	-9.95876
[-1]	-9.95961
pass	-9.96134
0.0	-9.96258
changed	-9.96278
grid	-9.96342
language	-9.96414
sync	-9.96475
pi	-9.96549
move	-9.96554
Version	-9.96654
bit	-9.96782
Resource	-9.96793
head	-9.97291
stat	-9.97318
Expression	-9.97453
Create	-9.97584
available	-9.97766
Check	-9.97898
dot	-9.9813
cr	-9.98456
variable	-9.98498
extend	-9.98572
=0):	-9.98668
"))	-9.98745
DB	-9.988
fit	-9.98899
multi	-9.99142
classes	-9.99174
stderr	-9.99207
Code	-9.99279
[0].	-9.99347
ent	-9.99481
Server	-9.99523
{"	-9.99718
install	-9.99732
16	-9.99826
flush	-10.0005
pkg	-10.0017
'<	-10.0021
fname	-10.0025
git	-10.0056
columns	-10.006
loc	-10.0074
day	-10.0083
click	-10.0086
"])	-10.0087
vector	-10.0092
seconds	-10.0102
unique	-10.0111
"\	-10.0114
region	-10.013
delta	-10.0138
Un	-10.0163
(0)	-10.0188
Is	-10.0229
▁SPACEbool	-10.0239
ds	-10.0265
cb	-10.0268
simple	-10.0269
argv	-10.0277
fill	-10.0286
fail	-10.0303
reason	-10.0307
dest	-10.0328
Color	-10.0336
]:	-10.0346
component	-10.036
dirname	-10.0372
byte	-10.0381
sh	-10.0384
draw	-10.0385
win	-10.0396
configuration	-10.0411
Add	-10.0413
hass	-10.047
single	-10.0478
Module	-10.0483
▁SPACEtf	-10.0516
Input	-10.053
go	-10.0533
ic	-10.0551
desc	-10.0585
le	-10.0602
running	-10.0603
download	-10.0613
TYPE	-10.0621
web	-10.0628
lo	-10.0671
compile	-10.0676
For	-10.0685
indent	-10.0688
Token	-10.0693
resp	-10.0711
Connection	-10.0712
ms	-10.0718
=1)	-10.073
endpoint	-10.0742
contents	-10.0749
cli	-10.0751
norm	-10.0761
pt	-10.0764
Update	-10.0773
ED	-10.0782
normalize	-10.0787
HTTP	-10.0794
sha	-10.0799
ion	-10.0812
With	-10.0819
1.0	-10.0825
__()	-10.0841
trace	-10.0849
off	-10.085
features	-10.0854
history	-10.0862
selected	-10.0874
true	-10.0892
lookup	-10.0899
Table	-10.0907
application	-10.0927
cl	-10.093
proc	-10.0933
topic	-10.0964
control	-10.097
fixture	-10.0976
binary	-10.1007
lang	-10.1012
platform	-10.1017
queryset	-10.1041
Widget	-10.1049
All	-10.107
export	-10.1071
Map	-10.108
sc	-10.1098
edit	-10.1098
loads	-10.1115
wrapper	-10.1125
public	-10.1139
menu	-10.1153
co	-10.116
variables	-10.1171
parts	-10.1201
identifier	-10.1235
uery	-10.1252
reg	-10.1257
tests	-10.1283
Py	-10.1292
('%	-10.1292
ro	-10.1297
skip	-10.1314
extract	-10.134
reader	-10.1343
mapping	-10.1359
tab	-10.1375
Device	-10.1375
owner	-10.1385
raise	-10.1389
chunk	-10.1407
12	-10.1431
Output	-10.1439
seed	-10.1442
eval	-10.1449
Sub	-10.1512
Instance	-10.153
▁SPACEKeyError	-10.1531
methods	-10.1532
icon	-10.1534
zone	-10.1539
filters	-10.1556
▁SPACEawait	-10.1565
push	-10.1566
css	-10.1572
bucket	-10.1575
initial	-10.1585
words	-10.1603
common	-10.1653
50	-10.1656
wrap	-10.1657
down	-10.1658
term	-10.166
real	-10.1665
shell	-10.1673
secret	-10.1695
Number	-10.1709
player	-10.1734
Call	-10.1745
reference	-10.1745
upper	-10.1746
:%	-10.1761
elem	-10.1771
created	-10.1772
slug	-10.1777
Thread	-10.1801
operation	-10.1806
Count	-10.1812
short	-10.1846
recv	-10.1847
tr	-10.1858
=0,	-10.1859
[1])	-10.1862
100	-10.1867
track	-10.1883
salt	-10.189
scan	-10.1893
2:	-10.1894
IP	-10.1911
back	-10.1923
images	-10.1932
sock	-10.1934
IN	-10.1934
Template	-10.1942
Property	-10.1945
[2]	-10.1961
drop	-10.1963
filepath	-10.1976
actions	-10.1981
mo	-10.2018
us	-10.2028
weight	-10.2031
provider	-10.2033
bits	-10.2042
Plugin	-10.2049
Run	-10.2063
con	-10.2067
Int	-10.2072
Block	-10.2076
sleep	-10.2087
lst	-10.21
2(	-10.2104
Session	-10.2104
Tag	-10.2108
3,	-10.2109
mp	-10.2114
On	-10.2116
after	-10.2121
team	-10.2206
refresh	-10.2224
kind	-10.2226
▁SPACETODO	-10.2226
home	-10.224
symbol	-10.2241
▁TABfor	-10.2254
vec	-10.2283
iterable	-10.2288
Attribute	-10.2296
Function	-10.2297
bind	-10.2302
fmt	-10.2317
Stream	-10.2318
sig	-10.2322
sim	-10.2324
regex	-10.2326
yaml	-10.2353
alias	-10.2356
mac	-10.2368
[:,	-10.2378
assertFalse	-10.2389
entries	-10.2391
cc	-10.2394
indices	-10.2414
flow	-10.2416
feed	-10.2433
vars	-10.244
Result	-10.2442
ax	-10.2442
org	-10.2449
product	-10.2483
extension	-10.2486
contains	-10.2488
arguments	-10.249
warning	-10.2495
units	-10.2506
angle	-10.2521
KEY	-10.2522
se	-10.2534
ea	-10.2534
summary	-10.2537
present	-10.254
defaults	-10.2542
power	-10.2544
='',	-10.2546
failed	-10.2553
{}'.	-10.2559
depth	-10.2566
--	-10.2575
note	-10.2581
interval	-10.2588
ir	-10.259
beta	-10.2595
tasks	-10.2608
Point	-10.2626
'].	-10.2632
"/	-10.2643
duration	-10.2643
Interface	-10.265
>>	-10.2664
metric	-10.2665
csv	-10.2667
chain	-10.2673
custom	-10.2683
cancel	-10.2686
predict	-10.2689
cert	-10.2696
By	-10.2699
font	-10.2719
tool	-10.2732
master	-10.2733
counter	-10.2736
This	-10.2741
exec	-10.2742
allow	-10.2744
called	-10.2766
writer	-10.2766
registry	-10.2778
packet	-10.2779
Open	-10.2784
Address	-10.2799
month	-10.2812
ne	-10.2822
modules	-10.284
Process	-10.2841
PATH	-10.2851
LOG	-10.2863
am	-10.2871
sqrt	-10.2872
supported	-10.2873
include	-10.2882
DEFAULT	-10.2894
2):	-10.2906
weights	-10.2918
Mode	-10.2918
elements	-10.2937
emit	-10.2938
hostname	-10.2942
progress	-10.2952
Mock	-10.2964
▁SPACEshould	-10.2978
Array	-10.2995
video	-10.3001
age	-10.3006
Read	-10.3018
App	-10.3031
__.__	-10.3073
)])	-10.3076
-%	-10.3077
transaction	-10.3094
Vector	-10.3113
before	-10.3119
environment	-10.3119
suffix	-10.3138
▁SPACEenumerate	-10.3142
getitem	-10.3144
disable	-10.3153
('\	-10.3174
Parser	-10.3188
merge	-10.3198
dst	-10.3217
▁SPACEglobal	-10.3217
round	-10.3217
ap	-10.3221
none	-10.3223
},	-10.3227
01	-10.3237
requests	-10.3245
commands	-10.3254
bot	-10.3261
'')	-10.3266
atom	-10.3275
ify	-10.3283
ra	-10.3284
complete	-10.3304
Serializer	-10.3309
()]	-10.3316
Format	-10.3319
']['	-10.332
[:	-10.3324
sep	-10.3329
redirect	-10.3337
done	-10.3357
initialize	-10.337
memory	-10.3375
Source	-10.3387
th	-10.3401
bad	-10.341
warn	-10.3423
ER	-10.3426
original	-10.3437
Cache	-10.3439
distance	-10.3443
Record	-10.3446
ma	-10.3447
200	-10.3454
hook	-10.3458
closed	-10.35
{}".	-10.3516
ac	-10.3518
OK	-10.3536
▁SPACEresp	-10.3537
ptr	-10.3545
shared	-10.3545
[])	-10.3546
switch	-10.3558
rec	-10.3566
ec	-10.359
Warning	-10.3591
selection	-10.3601
[1],	-10.3615
locale	-10.3631
.")	-10.3642
▁SPACElogging	-10.3642
rc	-10.365
unpack	-10.3657
cat	-10.3662
rules	-10.3682
destroy	-10.3704
Tree	-10.3707
Dir	-10.3713
Default	-10.3715
used	-10.3717
factor	-10.372
delay	-10.373
po	-10.3736
pickle	-10.3746
builder	-10.3751
proto	-10.3753
sender	-10.3776
notify	-10.3781
rb	-10.3784
controller	-10.3791
where	-10.3804
DATA	-10.3804
][	-10.3805
links	-10.3808
https	-10.3832
setting	-10.384
permission	-10.3856
Content	-10.3876
ensure	-10.3884
DIR	-10.3892
zeros	-10.3894
▁SPACEfinally	-10.3895
layout	-10.3904
Write	-10.3912
RuntimeError	-10.3919
condition	-10.3965
Entry	-10.397
-8')	-10.3973
()))	-10.398
quote	-10.3994
allowed	-10.3997
resources	-10.4006
forward	-10.4041
editor	-10.4055
11	-10.4061
)[0]	-10.4071
ps	-10.4078
mu	-10.4079
disk	-10.4082
().__	-10.4091
']:	-10.4094
branch	-10.4098
expression	-10.4106
▁SPACEthat	-10.4116
solution	-10.4116
area	-10.4123
Parameter	-10.4126
Meta	-10.4134
kernel	-10.4137
▁SPACEsorted	-10.4139
TEST	-10.4143
reduce	-10.4147
ping	-10.4154
ls	-10.4158
Enum	-10.416
when	-10.4172
snapshot	-10.4196
New	-10.4207
screen	-10.422
browser	-10.423
3.	-10.4238
static	-10.4254
assertEquals	-10.4262
serializer	-10.4283
20	-10.4291
sorted	-10.4299
found	-10.4302
il	-10.4308
transport	-10.431
generator	-10.4312
cpu	-10.4365
POST	-10.4369
''):	-10.4371
Unknown	-10.4372
ur	-10.4373
SI	-10.4374
mi	-10.4376
schedule	-10.4379
mesh	-10.4387
prepare	-10.4397
locator	-10.44
cleanup	-10.4409
series	-10.4418
=1,	-10.4419
samples	-10.4431
sign	-10.4436
suite	-10.4446
pad	-10.4457
ING	-10.4468
serialize	-10.447
internal	-10.4471
>'	-10.4471
pd	-10.4474
("%	-10.4484
ad	-10.4491
person	-10.4505
iteritems	-10.4506
zero	-10.4508
ord	-10.4515
js	-10.4515
lat	-10.4517
timer	-10.4517
Header	-10.452
'}	-10.4523
visit	-10.4526
plugins	-10.4536
visible	-10.4543
ascii	-10.4546
comp	-10.4548
unittest	-10.4562
center	-10.4567
pair	-10.4568
worker	-10.459
Of	-10.4596
▁SPACEwe	-10.4611
integer	-10.4611
ast	-10.4622
escape	-10.4626
div	-10.4627
Layer	-10.463
clone	-10.4637
Frame	-10.4642
partition	-10.4661
ul	-10.4679
helper	-10.4692
revision	-10.4702
vals	-10.4709
Port	-10.471
choice	-10.4716
NotFound	-10.4716
services	-10.4716
gl	-10.4724
Schema	-10.4732
1]	-10.4738
low	-10.4743
loss	-10.4755
over	-10.4755
isinstance	-10.479
================	-10.4792
selector	-10.4795
usage	-10.4799
5)	-10.4809
previous	-10.4809
Op	-10.4829
work	-10.4831
Box	-10.4846
AR	-10.4854
rel	-10.4871
Proxy	-10.4887
li	-10.4889
amount	-10.4895
rpc	-10.4909
support	-10.4917
game	-10.494
family	-10.4947
cast	-10.4951
ST	-10.4951
archive	-10.4955
SON	-10.4956
et	-10.4964
parsed	-10.4978
tools	-10.4993
members	-10.5026
fake	-10.5026
''.	-10.5034
Channel	-10.5045
Column	-10.5049
Admin	-10.5051
slice	-10.5053
AT	-10.5062
prev	-10.5076
rm	-10.5087
3)	-10.5089
XML	-10.5092
subject	-10.5098
private	-10.5125
rest	-10.5134
runner	-10.5136
channels	-10.5138
cp	-10.5143
<<	-10.5144
4,	-10.5154
te	-10.5156
states	-10.5161
ind	-10.5173
Range	-10.5178
signature	-10.5178
null	-10.5181
like	-10.5182
rt	-10.5189
Start	-10.5199
Delete	-10.5214
calc	-10.5261
machine	-10.5275
kill	-10.528
identity	-10.5288
Multi	-10.5292
std	-10.5293
cookie	-10.5295
//	-10.532
{})	-10.5323
should	-10.5335
rank	-10.5346
02	-10.5351
cv	-10.5366
impl	-10.5369
sec	-10.537
son	-10.5374
serial	-10.5375
na	-10.5382
Link	-10.5389
accept	-10.5403
free	-10.5404
lt	-10.5405
configure	-10.5406
inst	-10.5408
Failed	-10.542
Options	-10.5424
ver	-10.5436
'''	-10.5445
fix	-10.5446
Host	-10.5458
board	-10.5467
days	-10.5472
high	-10.5484
shift	-10.5494
ERROR	-10.5494
cm	-10.5505
enum	-10.5507
grad	-10.5514
red	-10.5514
unused	-10.552
Project	-10.5521
ueue	-10.5522
rs	-10.5525
Search	-10.5526
Window	-10.5535
instances	-10.554
obs	-10.5545
pred	-10.5546
dictionary	-10.5549
begin	-10.5556
'-	-10.5562
est	-10.5573
Configuration	-10.5577
functions	-10.5587
period	-10.5629
hosts	-10.5639
freq	-10.5646
Matrix	-10.5649
shutdown	-10.5658
program	-10.5664
cloud	-10.5666
upload	-10.5682
Container	-10.5702
Network	-10.5708
nt	-10.5708
Return	-10.5709
5,	-10.571
setUp	-10.5717
Api	-10.5737
geo	-10.5749
devices	-10.575
initClass	-10.5772
AL	-10.578
super	-10.5783
Str	-10.5784
digest	-10.5791
endswith	-10.5795
inner	-10.5802
▁SPACEsetUp	-10.5806
Operation	-10.5812
cos	-10.5814
tx	-10.5824
glob	-10.5825
tk	-10.5839
let	-10.5842
mem	-10.5857
Abstract	-10.5873
keep	-10.5878
15	-10.588
getClassType	-10.5908
basic	-10.5938
dummy	-10.5947
second	-10.5948
Sequence	-10.596
[0,	-10.5961
forms	-10.5967
matches	-10.5979
Document	-10.5981
expand	-10.5984
exclude	-10.5992
side	-10.6008
','	-10.6019
Storage	-10.6031
slots	-10.6031
book	-10.6038
try	-10.6039
price	-10.6044
threshold	-10.6052
dialog	-10.6057
gt	-10.606
Build	-10.6087
ter	-10.6105
tz	-10.6111
direction	-10.6112
layers	-10.6123
Button	-10.6136
ator	-10.6142
rev	-10.6146
ant	-10.615
span	-10.6151
Profile	-10.6154
rgb	-10.6156
ity	-10.6161
14	-10.6169
exceptions	-10.6175
nd	-10.6188
[1:]	-10.6188
components	-10.6189
expect	-10.6195
Local	-10.6214
]))	-10.6231
scheme	-10.6238
trans	-10.624
scalar	-10.6251
And	-10.6255
unknown	-10.6256
normal	-10.6259
ca	-10.6286
{0}	-10.6292
NO	-10.6294
cached	-10.6295
FILE	-10.6299
basename	-10.63
ive	-10.6304
flatten	-10.631
steps	-10.6311
br	-10.6325
'--	-10.6338
rect	-10.6338
so	-10.6339
operator	-10.6342
▁SPACEfound	-10.6344
("/	-10.6354
jobs	-10.6357
ml	-10.6359
loader	-10.6361
=1	-10.6366
ri	-10.6376
Bad	-10.6393
cs	-10.6397
Python	-10.6406
Settings	-10.6408
Store	-10.641
records	-10.6434
"],	-10.6445
ment	-10.6454
."""	-10.6477
dl	-10.6485
tc	-10.6495
OS	-10.6497
24	-10.6499
ports	-10.6502
00	-10.6506
failure	-10.6508
construct	-10.6511
listener	-10.6513
pb	-10.6521
metrics	-10.6526
pin	-10.6526
Component	-10.6527
End	-10.6544
Label	-10.6556
backup	-10.656
edges	-10.6568
▁SPACEare	-10.6576
override	-10.6578
pf	-10.6581
Date	-10.6584
IO	-10.6592
ws	-10.6622
={'	-10.6629
resolve	-10.6643
[:]	-10.6644
connected	-10.6657
sent	-10.6675
targets	-10.6676
library	-10.6682
De	-10.6687
rand	-10.6692
disconnect	-10.6695
1))	-10.6696
some	-10.6699
</	-10.6699
scene	-10.6718
▁SPACEhave	-10.6719
issue	-10.6729
outputs	-10.6751
ize	-10.6768
act	-10.677
hide	-10.6773
80	-10.6783
▁TABelse	-10.6794
virtual	-10.6816
:]	-10.6816
({'	-10.6823
Var	-10.6827
Collection	-10.6831
Option	-10.6842
Select	-10.6846
detail	-10.6854
ident	-10.6855
Url	-10.6863
blocks	-10.6867
blob	-10.6867
dns	-10.687
world	-10.6881
8)	-10.6885
ct	-10.6892
enter	-10.6898
lineno	-10.6903
sa	-10.6911
IS	-10.6916
repository	-10.6917
using	-10.6921
1):	-10.693
times	-10.6947
chars	-10.6957
Auth	-10.6958
"),	-10.699
are	-10.701
OR	-10.702
60	-10.703
origin	-10.7039
pipeline	-10.7045
definition	-10.7046
ers	-10.7066
ut	-10.7068
System	-10.7075
generic	-10.7078
Or	-10.7082
Simple	-10.7087
nn	-10.7091
speed	-10.7097
theta	-10.71
Protocol	-10.7104
cols	-10.711
Out	-10.7116
ci	-10.7128
ValidationError	-10.7131
trigger	-10.714
▁SPACEdoes	-10.7143
03	-10.7145
segment	-10.7149
Location	-10.7157
handlers	-10.716
translate	-10.7162
credentials	-10.7171
bounds	-10.7174
primary	-10.7176
less	-10.7177
man	-10.7179
Missing	-10.7181
Target	-10.719
timedelta	-10.7208
STATE	-10.7216
dr	-10.7217
permissions	-10.7225
tion	-10.7235
Control	-10.7242
calculate	-10.7251
30	-10.7254
ON	-10.7267
entities	-10.7285
Spec	-10.7289
tb	-10.7293
play	-10.7297
cd	-10.7298
Child	-10.7308
props	-10.731
▁SPACEan	-10.7315
external	-10.7318
reload	-10.7324
coord	-10.7325
Handle	-10.7331
Empty	-10.7337
urls	-10.7337
ib	-10.7338
updated	-10.7339
arch	-10.734
4)	-10.7343
author	-10.7345
prompt	-10.7356
axes	-10.7358
abspath	-10.7366
href	-10.7374
timezone	-10.7375
tables	-10.7393
processor	-10.7397
As	-10.7403
"<	-10.7406
mount	-10.7408
fun	-10.741
dirs	-10.7417
13	-10.7443
priority	-10.7452
router	-10.7453
la	-10.7459
Condition	-10.7461
sigma	-10.7482
uint	-10.7485
libvlc	-10.749
pl	-10.7501
ta	-10.7502
40	-10.7507
Position	-10.7524
Lock	-10.7531
deleted	-10.7541
java	-10.7543
pc	-10.7554
coords	-10.7561
UN	-10.7579
card	-10.7579
packages	-10.758
=0)	-10.7583
monitor	-10.7584
ance	-10.7605
security	-10.7607
tile	-10.7619
loaded	-10.7621
marker	-10.7637
sensor	-10.7639
subprocess	-10.7663
tm	-10.7665
Msg	-10.7667
Max	-10.7678
inv	-10.7678
Prop	-10.7682
US	-10.7714
18	-10.7721
Account	-10.7725
DEBUG	-10.7725
##	-10.7734
structure	-10.7735
25	-10.774
two	-10.7741
mail	-10.7783
perm	-10.7786
vs	-10.7792
Shape	-10.7795
radius	-10.7799
Reader	-10.7801
Failure	-10.7809
cost	-10.7818
constants	-10.7819
iface	-10.7823
activate	-10.7834
ha	-10.7862
compare	-10.7865
conv	-10.7875
ba	-10.7879
2))	-10.7894
modified	-10.7905
Graph	-10.7914
1/	-10.7923
future	-10.7939
hidden	-10.7945
SET	-10.7953
[1,	-10.7958
callable	-10.7981
Ref	-10.7984
iso	-10.7996
IOError	-10.8024
lon	-10.8028
partial	-10.8032
Tests	-10.804
correct	-10.8044
("\	-10.8045
cap	-10.8049
problem	-10.8052
slot	-10.8053
phi	-10.8066
amp	-10.8067
poll	-10.8073
evaluate	-10.8077
mt	-10.8086
absolute	-10.8098
▁SPACExrange	-10.81
vol	-10.8109
nb	-10.8125
Fake	-10.813
const	-10.8131
linear	-10.8133
phase	-10.8135
dom	-10.8154
0.5	-10.819
traceback	-10.8202
ge	-10.8217
dn	-10.8233
adapter	-10.8235
]]	-10.8258
Role	-10.8259
Wrapper	-10.8264
iterator	-10.8265
simulation	-10.8269
Order	-10.8286
tp	-10.8296
audio	-10.83
__(*	-10.8303
asset	-10.8327
orig	-10.8338
room	-10.8338
ies	-10.8342
Change	-10.8343
destination	-10.8358
restore	-10.8361
'',	-10.8362
Callback	-10.8365
Pre	-10.8366
related	-10.8369
break	-10.8376
Unit	-10.838
Root	-10.8395
codes	-10.8395
ssl	-10.8401
exist	-10.8423
Remove	-10.8424
inspect	-10.8429
Dialog	-10.8432
pm	-10.8435
ratio	-10.8438
epoch	-10.8439
setattr	-10.8444
peer	-10.8451
native	-10.8461
Level	-10.8464
Structure	-10.8464
Parse	-10.8476
NS	-10.848
maps	-10.8486
answer	-10.8487
Packet	-10.8491
decorator	-10.8503
sources	-10.8514
Hash	-10.8515
Length	-10.8528
ll	-10.853
ssh	-10.8539
errno	-10.854
3:	-10.8548
validator	-10.8556
require	-10.8557
Post	-10.8561
"")	-10.8562
descriptor	-10.8566
dispatch	-10.8567
qs	-10.8569
TO	-10.8569
Rule	-10.8584
Application	-10.8587
bound	-10.8588
VERSION	-10.8593
notification	-10.8597
acl	-10.8601
256	-10.8608
Make	-10.8629
ctypes	-10.8629
Obj	-10.8635
dep	-10.8636
ep	-10.8639
seek	-10.8639
pending	-10.864
bundle	-10.8647
relative	-10.8647
pointer	-10.865
dec	-10.8665
Reference	-10.8669
END	-10.867
pause	-10.8671
actual	-10.8673
0.1	-10.8687
same	-10.8688
32)	-10.8688
Auto	-10.8691
reshape	-10.8692
prob	-10.8694
pp	-10.8699
ag	-10.8709
bb	-10.8714
'/'	-10.8714
▁SPACEsetattr	-10.8722
My	-10.8723
SE	-10.8724
roles	-10.8724
pr	-10.8725
NOT	-10.8748
Directory	-10.8767
typ	-10.877
reply	-10.8775
wrapped	-10.8779
-1)	-10.878
mc	-10.8781
locals	-10.8782
abc	-10.8797
sw	-10.8802
restart	-10.8812
disabled	-10.8813
Volume	-10.8839
quit	-10.8848
sin	-10.8854
hi	-10.8865
without	-10.8873
StringIO	-10.889
ready	-10.8893
gr	-10.8901
projects	-10.8901
0.0,	-10.8905
choices	-10.8908
strings	-10.8909
ES	-10.8916
cross	-10.8917
plan	-10.8933
light	-10.8939
bus	-10.894
echo	-10.8943
existing	-10.8944
pages	-10.8956
clip	-10.896
Dummy	-10.8961
Agent	-10.8967
ab	-10.897
changes	-10.8978
redis	-10.8982
deprecated	-10.8984
MAX	-10.8997
fh	-10.9006
fl	-10.9006
focus	-10.9012
rename	-10.9025
best	-10.9031
cycle	-10.904
inc	-10.9045
EX	-10.9045
klass	-10.9046
Variable	-10.9049
collect	-10.9054
rp	-10.9054
sm	-10.9061
star	-10.9062
xy	-10.907
Package	-10.9072
ness	-10.9074
rf	-10.9085
enc	-10.9088
strftime	-10.9091
many	-10.9096
acc	-10.9098
keyword	-10.91
django	-10.9108
each	-10.9117
strict	-10.9122
inf	-10.9126
▁SPACEyet	-10.9129
KeyError	-10.913
resize	-10.9142
padding	-10.9142
cmp	-10.9144
StatusCode	-10.9155
One	-10.9155
If	-10.9156
png	-10.9163
assertIn	-10.9179
abstract	-10.918
Buffer	-10.9183
Float	-10.9193
0]	-10.9196
INFO	-10.9205
om	-10.9214
04	-10.9216
DELETE	-10.9217
generation	-10.9229
publish	-10.9229
sym	-10.923
isdir	-10.9233
retrieve	-10.9234
chr	-10.9236
Style	-10.924
dx	-10.924
▁SPACEpragma	-10.9256
distribution	-10.9257
dis	-10.9268
torch	-10.9269
Load	-10.927
pipe	-10.9278
'})	-10.9285
walk	-10.9288
activity	-10.9291
collections	-10.9296
ck	-10.9297
deepcopy	-10.9304
need	-10.9307
Integer	-10.9314
statement	-10.9319
('/')	-10.9329
acquire	-10.9332
ali	-10.9332
started	-10.9333
Register	-10.9334
dims	-10.9341
Web	-10.9342
ee	-10.9345
false	-10.935
share	-10.9351
USER	-10.9361
colors	-10.9362
frames	-10.9376
gui	-10.9405
etools	-10.9412
Changed	-10.9413
isfile	-10.9424
=2)	-10.9438
turn	-10.9442
Values	-10.9449
reactor	-10.9457
CONFIG	-10.9479
di	-10.9504
AN	-10.9521
extensions	-10.9551
named	-10.9554
Logger	-10.957
finish	-10.957
>"	-10.9574
lu	-10.9579
Script	-10.9603
Any	-10.9604
ub	-10.962
'{	-10.962
Cell	-10.9631
latest	-10.9634
tmpdir	-10.9643
pub	-10.9645
Current	-10.9647
(2,	-10.9648
em	-10.9651
Signal	-10.9676
constant	-10.9688
1),	-10.9697
Names	-10.9701
more	-10.9724
gamma	-10.973
interfaces	-10.973
ng	-10.9736
Step	-10.9738
utc	-10.9739
pe	-10.9749
abort	-10.9768
finished	-10.9769
Close	-10.9772
Report	-10.9775
console	-10.9778
encoded	-10.9792
hexdigest	-10.9797
ones	-10.9811
Access	-10.9811
Co	-10.9813
PY	-10.9817
Use	-10.9821
CH	-10.9824
nl	-10.9827
comments	-10.9828
Cmd	-10.9839
requires	-10.9843
SB	-10.9868
fr	-10.9882
lldb	-10.9885
ring	-10.989
urllib	-10.9893
▁SPACEsubprocess	-10.9901
received	-10.9921
kwds	-10.9928
Generator	-10.9937
6,	-10.9942
oid	-10.9943
finalize	-10.995
▁SPACEwill	-10.9955
flat	-10.996
Helper	-10.9977
An	-10.9989
once	-10.9996
until	-11.0013
consumer	-11.0015
SELECT	-11.0017
hello	-11.0018
bi	-11.0023
define	-11.0028
fixed	-11.0034
uc	-11.004
lr	-11.0049
stmt	-11.005
nr	-11.0059
▁SPACEbreak	-11.0059
cwd	-11.006
LE	-11.0061
final	-11.0065
dc	-11.0069
Equal	-11.0071
xs	-11.0078
({	-11.0079
instrument	-11.008
threads	-11.009
OP	-11.0096
mk	-11.0099
Stop	-11.0109
formatter	-11.0119
multiple	-11.0129
assign	-11.0142
counts	-11.0143
warnings	-11.0154
cond	-11.0155
=['	-11.0157
stage	-11.0168
nx	-11.0183
docs	-11.0192
robot	-11.0196
vocab	-11.0196
versions	-11.0208
'__	-11.0211
Tab	-11.0215
cover	-11.0218
Pool	-11.0219
setdefault	-11.0219
ld	-11.0223
gp	-11.0225
gs	-11.0227
IT	-11.0228
mgr	-11.0229
gc	-11.0231
tic	-11.0233
ev	-11.0233
Attr	-11.0234
contact	-11.0241
tail	-11.0243
Bar	-11.0247
▁SPACEshutil	-11.0251
ti	-11.0258
apps	-11.0264
phone	-11.0267
mass	-11.0268
sess	-11.0272
review	-11.0281
pa	-11.0293
Generic	-11.0295
1000	-11.0296
Global	-11.0296
UI	-11.0297
pdf	-11.03
catalog	-11.0302
rstrip	-11.0307
nc	-11.0308
2]	-11.0324
country	-11.0355
Writer	-11.0358
▁SPACEwant	-11.036
16)	-11.0363
alt	-11.0367
defined	-11.037
tor	-11.0372
ALL	-11.038
3_	-11.038
dependencies	-11.0392
inter	-11.0398
ce	-11.0406
tenant	-11.0412
Init	-11.0416
Policy	-11.0418
retry	-11.0424
()[0]	-11.0429
Do	-11.0435
BASE	-11.0438
Entity	-11.0444
pairs	-11.0447
camera	-11.0457
templates	-11.0462
installed	-11.0476
callbacks	-11.048
got	-11.0486
ack	-11.0487
just	-11.049
ty	-11.0499
ay	-11.0507
Engine	-11.0509
Pattern	-11.0515
boolean	-11.0515
pg	-11.0538
Import	-11.0541
Binary	-11.0542
Timeout	-11.0553
place	-11.0554
Product	-11.0555
3(	-11.0559
UNIMPLEMENTED	-11.0568
Edit	-11.0569
curr	-11.058
Http	-11.0587
iv	-11.0589
Types	-11.0591
▁TABraise	-11.0591
canvas	-11.0594
bl	-11.0605
makedirs	-11.0616
Param	-11.0625
double	-11.0634
direct	-11.0637
Pos	-11.0643
bridge	-11.0654
Sample	-11.0654
###	-11.0657
mm	-11.0657
Tuple	-11.066
rep	-11.0667
Provider	-11.0669
td	-11.0672
rv	-11.0677
locked	-11.0678
NotFoundError	-11.068
Comment	-11.0685
SP	-11.0687
Site	-11.0687
Show	-11.0698
Optional	-11.0701
Save	-11.0707
Password	-11.0709
threading	-11.071
working	-11.0715
Domain	-11.0721
Feature	-11.0739
Files	-11.0742
Has	-11.0746
Rate	-11.0753
CONF	-11.076
pretty	-11.0761
he	-11.0777
theme	-11.0777
tri	-11.0778
▁SPACEFIXME	-11.0784
Extension	-11.0786
Cursor	-11.0787
face	-11.079
Col	-11.079
bbox	-11.0799
ization	-11.08
gid	-11.0803
submit	-11.0808
▁TABpass	-11.0811
pick	-11.0816
ie	-11.0819
si	-11.0819
-1,	-11.0823
ix	-11.0825
ig	-11.0829
wb	-11.0838
docker	-11.0842
Email	-11.0843
23	-11.0847
dp	-11.0849
encoder	-11.0855
toggle	-11.0858
randint	-11.086
lex	-11.088
6)	-11.0889
logout	-11.0889
IC	-11.0896
seg	-11.0913
metaclass	-11.0915
sentence	-11.0915
added	-11.0924
Num	-11.0925
▁SPACEimplement	-11.0925
renderer	-11.0928
Random	-11.0929
par	-11.0932
ence	-11.0933
################	-11.0951
windows	-11.0958
standard	-11.097
2.0	-11.0972
Metadata	-11.0976
mul	-11.0985
1',	-11.0993
too	-11.1004
▁SPACEctypes	-11.1005
terms	-11.1005
▁SPACEretval	-11.1005
cy	-11.1013
tick	-11.1018
ATION	-11.1019
um	-11.1024
temperature	-11.1025
caller	-11.1028
Args	-11.1029
lab	-11.1042
(2)	-11.1044
fc	-11.1049
▁SPACEwas	-11.1052
workflow	-11.1054
}'.	-11.1066
validation	-11.1067
av	-11.1071
serializers	-11.1072
thing	-11.1082
mb	-11.1083
lc	-11.1087
CODE	-11.1088
training	-11.1097
At	-11.1098
Send	-11.11
numbers	-11.1106
needs	-11.1109
resolver	-11.1112
good	-11.1123
see	-11.1123
Database	-11.1126
poly	-11.1126
ke	-11.1127
Pro	-11.1133
fast	-11.1158
{1}	-11.116
500	-11.1161
predicate	-11.1164
Enabled	-11.1165
mx	-11.1168
effect	-11.1171
0))	-11.1174
ero	-11.1176
LIST	-11.1192
testing	-11.1199
fig	-11.12
ECT	-11.1201
ff	-11.1201
Coordinate	-11.1206
...")	-11.1216
manage	-11.1221
mouse	-11.123
since	-11.1234
ga	-11.1247
chat	-11.1248
symbols	-11.125
ate	-11.1251
0),	-11.1263
daemon	-11.1269
/'	-11.1277
PRO	-11.1281
watch	-11.1284
Custom	-11.1287
Parameters	-11.1298
=""	-11.1298
ial	-11.1306
calls	-11.1323
404	-11.1325
(3,	-11.1347
maximum	-11.1347
10)	-11.1359
Controller	-11.1369
FS	-11.137
ticket	-11.1376
Dataset	-11.1386
mkdir	-11.1396
initialized	-11.1399
cannot	-11.1401
('.')	-11.1402
Space	-11.1404
recipe	-11.1411
globals	-11.1412
background	-11.1419
Backend	-11.142
Tool	-11.1423
AP	-11.1428
bottom	-11.1433
CS	-11.1435
[2])	-11.1439
Match	-11.144
dm	-11.1446
bs	-11.1456
scroll	-11.1456
patterns	-11.1459
average	-11.1476
logs	-11.1478
ndim	-11.1479
than	-11.1495
grpc	-11.1498
atoms	-11.1505
ipv	-11.1518
Course	-11.1519
rad	-11.1521
prog	-11.1523
align	-11.1523
scores	-11.1524
syntax	-11.1527
categories	-11.1534
OrderedDict	-11.1548
"--	-11.1553
boot	-11.1559
Transform	-11.1574
Params	-11.1598
sk	-11.1612
5(	-11.1615
mol	-11.1636
ical	-11.1637
cells	-11.1642
we	-11.1645
executable	-11.165
▁SPACEnoqa	-11.165
variant	-11.1653
▁SPACEcover	-11.1656
MS	-11.1659
APP	-11.1667
mag	-11.1676
nick	-11.1685
Geo	-11.1686
8,	-11.1692
dust	-11.1692
▁SPACEplt	-11.1692
chan	-11.1693
▁SPACEMeta	-11.1694
staff	-11.1695
Doc	-11.1698
ni	-11.1701
ai	-11.1704
perform	-11.1723
Parent	-11.1726
Byte	-11.1727
Non	-11.1728
hparams	-11.1731
dy	-11.1736
way	-11.1737
clock	-11.1738
STATUS	-11.1739
setitem	-11.174
{},	-11.1743
Section	-11.1746
vim	-11.175
void	-11.175
question	-11.1764
tcp	-11.1765
Render	-11.1766
22	-11.1768
\\	-11.1777
market	-11.1778
paper	-11.1784
views	-11.1785
sd	-11.1791
rotate	-11.1791
receive	-11.1792
what	-11.1793
complex	-11.1806
URI	-11.1809
ION	-11.1817
ks	-11.1823
ask	-11.1824
repeat	-11.1824
pixel	-11.1836
blank	-11.185
att	-11.1856
astype	-11.1857
analysis	-11.1858
oo	-11.1865
transpose	-11.188
nan	-11.1884
Raw	-11.1891
unlink	-11.1891
big	-11.1894
follow	-11.1894
1024	-11.1903
Formatter	-11.1903
nums	-11.1905
42	-11.191
mandatory	-11.191
seen	-11.1913
recursive	-11.1918
surface	-11.1925
band	-11.1925
our	-11.194
]['	-11.1945
Up	-11.1945
given	-11.1952
rmtree	-11.1958
Min	-11.1966
hooks	-11.1972
pull	-11.1987
/"	-11.199
DE	-11.199
ME	-11.199
'-'	-11.1998
fa	-11.1999
tt	-11.1999
sl	-11.2003
Remote	-11.2006
pkt	-11.2007
Cluster	-11.2009
ang	-11.2013
TIME	-11.2015
dimension	-11.202
1')	-11.202
special	-11.2025
kv	-11.2034
cnt	-11.2037
Val	-11.2037
sets	-11.2048
Selection	-11.2048
Pa	-11.2056
Menu	-11.2059
chart	-11.2062
Only	-11.2071
rot	-11.2071
▁TABtry	-11.2073
"{	-11.2077
execution	-11.2077
MP	-11.208
constructor	-11.2082
arc	-11.2096
▁SPACEhere	-11.2098
calendar	-11.21
dic	-11.2106
sicd	-11.2109
tar	-11.211
plain	-11.2112
live	-11.2112
curve	-11.2116
mid	-11.2117
detect	-11.2121
Driver	-11.2132
ary	-11.2157
certificate	-11.2158
geometry	-11.2162
▁SPACEhashlib	-11.2166
square	-11.2167
Cannot	-11.2172
Expr	-11.2176
CharField	-11.2178
sections	-11.2181
cov	-11.2184
major	-11.2185
connections	-11.2186
"-	-11.2187
keywords	-11.2192
Description	-11.2192
31	-11.2202
receiver	-11.2203
saved	-11.2206
vlan	-11.221
ordered	-11.2216
Region	-11.2217
listdir	-11.2219
AM	-11.2229
bug	-11.2231
Items	-11.2238
Copy	-11.2241
Required	-11.2248
200)	-11.225
ry	-11.2252
ud	-11.226
gene	-11.2263
registered	-11.2267
negative	-11.227
Stack	-11.2282
▁SPACEwhich	-11.2285
▁SPACEOSError	-11.2287
attrib	-11.2288
gateway	-11.2294
workspace	-11.2299
UEST	-11.2302
Row	-11.2307
SS	-11.2311
Loader	-11.2311
▁TABexcept	-11.2328
comm	-11.233
alive	-11.2332
4:	-11.234
AF	-11.2343
Builder	-11.2346
05	-11.2349
[3]	-11.2349
Note	-11.2352
assignment	-11.2357
notes	-11.2367
ho	-11.237
AS	-11.2371
Basic	-11.2372
Registry	-11.2372
yield	-11.2376
about	-11.2376
VM	-11.2389
figure	-11.2395
subclass	-11.2397
arm	-11.2397
ROOT	-11.2397
[0:	-11.2398
Con	-11.2401
IM	-11.2401
-8")	-11.2402
cf	-11.2402
ol	-11.2405
pro	-11.2407
bias	-11.2407
▁TABprint	-11.2422
PREFIX	-11.2427
Prefix	-11.2431
[:-1]	-11.244
rd	-11.2441
CMD	-11.2442
known	-11.2443
ips	-11.2458
ph	-11.2468
'")	-11.248
ized	-11.2482
▁SPACEbeen	-11.2491
HTML	-11.2507
ATTR	-11.2507
asarray	-11.2508
NProperty	-11.2519
rl	-11.2527
widgets	-11.2528
boxes	-11.2531
Initialize	-11.2546
www	-11.2555
PER	-11.257
}}	-11.2571
panel	-11.2576
UP	-11.2579
Transaction	-11.2585
06	-11.2585
128	-11.2587
libsbol	-11.2587
Notification	-11.2588
subnet	-11.2599
limits	-11.2602
rotation	-11.2604
assertIsInstance	-11.2611
▁SPACEFROM	-11.262
wiki	-11.262
objs	-11.2631
chi	-11.2631
else	-11.2632
LOGGER	-11.2635
▁SPACErv	-11.2643
zoom	-11.2644
vertex	-11.2644
github	-11.266
**2	-11.266
-2	-11.2664
song	-11.2671
Null	-11.2676
modify	-11.2678
tempfile	-11.2679
todo	-11.2687
Print	-11.2697
logical	-11.2698
invoke	-11.2709
▁SPACEcontinue	-11.2712
Char	-11.2723
experiment	-11.2725
geom	-11.2726
▁TABassert	-11.2726
servers	-11.2734
playlist	-11.2738
Find	-11.274
material	-11.2749
Media	-11.2749
Active	-11.2749
lists	-11.2751
Net	-11.2753
frequency	-11.2757
Tensor	-11.2774
'{0}	-11.2781
ted	-11.2781
▁SPACEinstead	-11.2782
IF	-11.2783
exe	-11.2784
Unsupported	-11.2791
bc	-11.2796
Member	-11.2798
▁SPACEalready	-11.2818
ens	-11.282
fo	-11.2827
magic	-11.2828
localhost	-11.2847
123	-11.285
noise	-11.285
AC	-11.2857
wf	-11.2859
Switch	-11.2864
percent	-11.2873
Deprecation	-11.2873
gram	-11.2873
MODE	-11.2876
__['	-11.2879
oc	-11.2879
aws	-11.288
Grid	-11.2881
removed	-11.2882
today	-11.2885
Reset	-11.2901
Be	-11.2906
ill	-11.2906
manifest	-11.2906
Argument	-11.2914
Adapter	-11.2915
vi	-11.2918
[2],	-11.2925
0.0)	-11.2927
Definition	-11.2931
21	-11.294
mon	-11.2944
translation	-11.2948
dll	-11.2954
Batch	-11.2956
stdin	-11.2957
Counter	-11.2958
400	-11.2963
ia	-11.2963
Bytes	-11.2969
ve	-11.2975
checker	-11.2983
diag	-11.2983
populate	-11.2989
precision	-11.2989
runtime	-11.2995
Next	-11.2997
indexes	-11.2999
algorithm	-11.3006
positive	-11.3006
ess	-11.3026
capture	-11.3038
Environment	-11.3041
refs	-11.305
EN	-11.3059
optional	-11.3064
mapper	-11.307
alert	-11.3075
ak	-11.3078
Unicode	-11.3078
deserialize	-11.3081
transition	-11.3083
Term	-11.3089
deploy	-11.309
Flow	-11.309
ot	-11.3099
organization	-11.3099
maybe	-11.3099
formula	-11.3103
actor	-11.3104
Display	-11.3118
demo	-11.3122
Login	-11.3123
nu	-11.3124
Env	-11.3127
increment	-11.3129
MI	-11.3131
positions	-11.3135
Permission	-11.314
"].	-11.3145
wrong	-11.315
findall	-11.3157
strategy	-11.3158
HOST	-11.3159
tup	-11.3163
cut	-11.3166
Bit	-11.3174
/')	-11.3176
▁SPACEbasestring	-11.3176
wx	-11.3186
Twilio	-11.3192
ctl	-11.3194
MA	-11.3197
tracker	-11.3204
der	-11.3206
readline	-11.3207
into	-11.3211
AND	-11.3212
26	-11.3214
Scale	-11.3219
MAP	-11.3221
entropy	-11.3227
guess	-11.3227
Flag	-11.3232
meter	-11.3236
Download	-11.3239
minimum	-11.3244
uniform	-11.3246
reversed	-11.3248
nested	-11.3254
Transport	-11.3255
'{}	-11.3259
__))	-11.3268
Category	-11.327
HttpResponse	-11.3279
information	-11.3279
checksum	-11.3282
FF	-11.3284
terminate	-11.3286
/{	-11.3295
Font	-11.3304
+1)	-11.3306
sheet	-11.3312
bp	-11.3316
press	-11.3318
Foo	-11.332
article	-11.3331
shot	-11.3333
decimal	-11.3348
sel	-11.3364
Details	-11.3364
Fields	-11.3364
completed	-11.3383
contract	-11.3384
getLogger	-11.3388
xpath	-11.3389
terminal	-11.3391
Word	-11.3396
fan	-11.34
builtin	-11.3403
take	-11.3414
","	-11.3417
ndarray	-11.3422
you	-11.3422
heap	-11.3425
which	-11.3426
eps	-11.344
car	-11.3441
gpu	-11.3442
Socket	-11.3443
ET	-11.3444
FLAGS	-11.3445
arange	-11.3455
levels	-11.3455
"/"	-11.3459
jid	-11.3464
inventory	-11.347
artist	-11.3481
OB	-11.3483
digits	-11.3488
33	-11.3499
minor	-11.3501
pow	-11.3502
▁SPACEtearDown	-11.3504
filenames	-11.3511
small	-11.3513
oauth	-11.353
CR	-11.3538
literal	-11.3541
bo	-11.3544
GR	-11.356
']))	-11.3566
"".	-11.3569
usr	-11.3573
Pass	-11.3574
Limit	-11.3576
prod	-11.3577
08	-11.358
health	-11.3585
2*	-11.3587
signals	-11.3587
constraint	-11.3589
UUID	-11.3594
'0'	-11.3601
yes	-11.3606
MagicMock	-11.3612
}'	-11.3632
Can	-11.3634
Setting	-11.3634
cookies	-11.3636
INT	-11.3637
xyz	-11.3638
manual	-11.3638
Func	-11.3645
('<	-11.3652
chunks	-11.3652
▁SPACEbut	-11.3657
Gen	-11.366
ped	-11.3666
Windows	-11.367
pose	-11.3677
)}	-11.368
4.	-11.3681
dd	-11.3684
mf	-11.3685
Normal	-11.3687
pod	-11.3693
alarm	-11.3695
TEMPLATE	-11.3701
invite	-11.3707
coordinates	-11.3715
ual	-11.3715
relation	-11.3717
CON	-11.3717
separator	-11.3723
Part	-11.3724
Feed	-11.3728
ities	-11.3734
44	-11.3737
balance	-11.3737
fragment	-11.3737
proj	-11.374
IR	-11.3746
CT	-11.3751
vertices	-11.3755
codec	-11.3763
license	-11.3764
mime	-11.3764
ql	-11.3777
ldap	-11.3778
Keys	-11.3779
Title	-11.3783
secs	-11.3783
>')	-11.3784
Constant	-11.3786
tra	-11.379
currency	-11.38
compress	-11.3806
dynamic	-11.381
ENT	-11.3815
Segment	-11.3828
TAG	-11.3831
swap	-11.3838
Per	-11.3844
Clear	-11.3846
Offset	-11.3858
preview	-11.3858
annotation	-11.3865
topics	-11.3868
segments	-11.3871
Sync	-11.3872
attach	-11.3879
Exit	-11.3883
addresses	-11.3887
upgrade	-11.3902
nic	-11.3903
quota	-11.3908
SC	-11.391
launch	-11.3916
Symbol	-11.3925
(["	-11.3928
DoesNotExist	-11.3929
green	-11.3937
avg	-11.3941
RO	-11.3945
':'	-11.395
updates	-11.3954
inline	-11.3955
hint	-11.3961
00\	-11.3963
creation	-11.3966
Case	-11.397
customer	-11.3991
Lib	-11.3992
Flags	-11.3992
Folder	-11.3993
photo	-11.3994
hours	-11.3998
36	-11.3999
=2,	-11.4004
projection	-11.4014
dirty	-11.4016
authenticated	-11.402
Memory	-11.4021
Mapping	-11.4032
28	-11.4033
hour	-11.4034
scheduler	-11.404
'.'	-11.404
leaf	-11.404
lm	-11.4049
shuffle	-11.4049
Could	-11.4049
fileName	-11.4054
wraps	-11.406
neg	-11.4073
subset	-11.409
confirm	-11.4091
logfile	-11.4099
Stats	-11.4099
rr	-11.41
Pr	-11.4103
splitlines	-11.4105
DI	-11.4108
RS	-11.4109
%02	-11.4109
ii	-11.4109
FORMAT	-11.4113
Install	-11.4118
fi	-11.4122
aggregate	-11.4124
margin	-11.4124
CL	-11.4125
configs	-11.4126
"{}	-11.4133
TODO	-11.4134
parents	-11.4139
Plot	-11.4143
namespaces	-11.4144
']]	-11.4148
={	-11.415
32(	-11.4154
UT	-11.4156
TypeId	-11.4157
assertIsNone	-11.4158
200,	-11.4162
mimetype	-11.4165
SH	-11.4167
optimizer	-11.4167
Area	-11.4167
sparse	-11.4168
drive	-11.4169
bg	-11.4172
rdf	-11.4173
'"	-11.4178
Expected	-11.4181
MIN	-11.4183
rating	-11.4187
Properties	-11.419
Last	-11.4196
tzinfo	-11.4198
inverse	-11.42
ua	-11.4201
character	-11.4206
connector	-11.4208
Width	-11.4209
delimiter	-11.4209
ans	-11.4214
colour	-11.4219
sudo	-11.4221
]+	-11.4222
('-	-11.4226
-1):	-11.4236
da	-11.4246
album	-11.4247
ln	-11.4248
workers	-11.4252
[],	-11.4257
ttl	-11.426
utcnow	-11.4267
qt	-11.4274
-1:	-11.4278
GL	-11.4279
logged	-11.4285
eg	-11.4288
Worker	-11.4292
shard	-11.4293
PIPE	-11.4296
CA	-11.4298
ue	-11.4299
')]	-11.4302
Single	-11.4304
secure	-11.4304
GP	-11.4308
St	-11.4315
flip	-11.4317
4(	-11.4318
fg	-11.4322
WHERE	-11.4323
mer	-11.4327
Ch	-11.434
outfile	-11.4341
Iterator	-11.4342
AD	-11.4343
Dis	-11.4349
reward	-11.4354
ian	-11.4355
createInstance	-11.4355
parallel	-11.4361
Running	-11.4361
pw	-11.4367
Git	-11.4374
ss	-11.4375
Export	-11.4378
lvs	-11.4382
pts	-11.4398
mappings	-11.4399
Struct	-11.44
aa	-11.44
bins	-11.4404
decoder	-11.4408
google	-11.4409
corpus	-11.4409
placeholder	-11.4419
[1].	-11.442
plus	-11.4422
▁SPACEIndexError	-11.4445
requirements	-11.4445
lazy	-11.4448
[-	-11.4455
FileName	-11.4458
sound	-11.4468
specs	-11.4471
must	-11.4473
station	-11.4474
etc	-11.4475
unregister	-11.4476
che	-11.4476
domains	-11.4485
nm	-11.4496
wire	-11.4498
spaces	-11.4501
255	-11.4505
tokenize	-11.4508
except	-11.4511
fact	-11.4516
LINE	-11.4518
highlight	-11.4526
converter	-11.4529
1",	-11.4538
ell	-11.4538
Namespace	-11.4542
ier	-11.4544
flavor	-11.4546
od	-11.4548
compatible	-11.4565
hat	-11.4577
100)	-11.4578
linux	-11.4595
Th	-11.4598
dat	-11.46
quantity	-11.4605
ling	-11.4606
deg	-11.4608
PA	-11.4608
CLASS	-11.4614
Debug	-11.4615
201	-11.463
tok	-11.4631
evt	-11.4633
touch	-11.4634
ImportError	-11.4635
needed	-11.464
ParseError	-11.4647
3]	-11.465
prior	-11.4657
numeric	-11.466
anchor	-11.4674
▁SPACEso	-11.4679
Received	-11.4701
Skip	-11.4702
union	-11.4703
etree	-11.4705
DOMAIN	-11.4723
deps	-11.4724
ting	-11.4725
aliases	-11.4727
consume	-11.4727
signed	-11.473
Series	-11.4733
subscribe	-11.4733
transfer	-11.4733
charset	-11.4739
10,	-11.4749
stub	-11.475
rx	-11.4756
examples	-11.4757
discovery	-11.4757
vo	-11.4761
Body	-11.4763
taobao	-11.4763
bulk	-11.4763
CC	-11.4768
SA	-11.4768
linalg	-11.4773
Async	-11.4775
ft	-11.4781
baba	-11.4783
Scene	-11.4783
Hook	-11.4783
docstring	-11.4787
ice	-11.4792
Redirect	-11.4803
Tr	-11.4804
tl	-11.4804
lic	-11.4806
Db	-11.4808
DataFrame	-11.4808
Edge	-11.4824
instruction	-11.4832
TH	-11.4837
Validator	-11.4844
supports	-11.4845
Tri	-11.4847
Constraint	-11.4864
Arg	-11.4867
itervalues	-11.4879
}".	-11.4881
rho	-11.4885
compiler	-11.4887
notebook	-11.4887
TABLE	-11.4892
af	-11.4893
student	-11.4894
TS	-11.4898
ML	-11.4904
Person	-11.4905
First	-11.4914
Full	-11.4915
userid	-11.4922
buff	-11.4924
late	-11.4927
cn	-11.4929
Language	-11.4935
Runner	-11.4935
▁SPACErhs	-11.4941
-1]	-11.4947
tu	-11.4957
([])	-11.4957
}"	-11.4964
implementation	-11.4967
Gtk	-11.497
broker	-11.4976
measure	-11.4986
34	-11.4987
sizes	-11.4988
Me	-11.499
urlparse	-11.4994
hs	-11.4996
specified	-11.4997
ber	-11.5008
returns	-11.5015
ust	-11.5017
Valid	-11.5018
"]["	-11.5018
Comp	-11.5023
accounts	-11.503
Results	-11.5033
datastore	-11.5038
gtk	-11.5054
8(	-11.5061
Authentication	-11.5068
floor	-11.5069
4]	-11.5083
[0-	-11.5085
serve	-11.5086
her	-11.5087
ist	-11.5088
executor	-11.5089
verbosity	-11.5089
flask	-11.5089
501	-11.5093
air	-11.5095
TYPES	-11.5096
have	-11.5098
uv	-11.51
DateTime	-11.51
hop	-11.5107
partner	-11.5109
[1:])	-11.5111
teardown	-11.513
hist	-11.5134
Exists	-11.5134
You	-11.514
uni	-11.5148
ViewSet	-11.5159
:\	-11.5176
sr	-11.5176
)[1]	-11.518
PORT	-11.5184
datasets	-11.5191
testcase	-11.5194
matching	-11.52
Inter	-11.5209
always	-11.5213
definitions	-11.5214
encrypt	-11.5214
compose	-11.5215
exchange	-11.5221
START	-11.5227
itertools	-11.5228
vis	-11.5233
trade	-11.5233
cu	-11.5237
minutes	-11.5243
{0}'.	-11.5249
dimensions	-11.525
broadcast	-11.5255
stamp	-11.526
"}	-11.5262
Descriptor	-11.5266
IL	-11.5274
regions	-11.5276
UR	-11.5282
Move	-11.5284
=0.	-11.5288
0-	-11.5288
Common	-11.5289
Connect	-11.529
><	-11.529
USE	-11.5295
tid	-11.5296
soft	-11.5304
History	-11.5308
Game	-11.5308
()])	-11.5316
checked	-11.5327
Def	-11.533
grp	-11.5338
modes	-11.534
helpers	-11.5345
}/	-11.5357
mtime	-11.5361
guid	-11.5366
PC	-11.537
checkpoint	-11.538
sensitive	-11.5382
filtered	-11.5383
dct	-11.5385
week	-11.5392
CO	-11.5393
"",	-11.5394
48	-11.5397
crc	-11.5404
TA	-11.5405
lp	-11.541
published	-11.5411
tell	-11.5423
Cloud	-11.5425
=[]	-11.5431
Multiple	-11.5431
smart	-11.5438
statistics	-11.5444
rollback	-11.5444
subscription	-11.5448
hdr	-11.5448
under	-11.5452
classmethod	-11.5454
episode	-11.5458
splitext	-11.5459
aux	-11.5464
mongo	-11.5465
checks	-11.5466
clause	-11.5468
Timer	-11.547
ranges	-11.547
led	-11.5471
Ip	-11.5475
hit	-11.5475
"+	-11.548
ine	-11.5482
chdir	-11.5485
completion	-11.5489
does	-11.5489
idle	-11.55
SoVRML	-11.55
Icon	-11.5504
Video	-11.5511
getter	-11.5513
fw	-11.5518
Success	-11.5527
ative	-11.5536
PS	-11.5537
energy	-11.5543
binding	-11.5543
Release	-11.5544
Detail	-11.5544
gate	-11.555
▁SPACEwarnings	-11.5559
asyncio	-11.5563
AssertionError	-11.5565
ble	-11.5574
sg	-11.5574
candidate	-11.5577
lexer	-11.558
MPL	-11.5586
Geometry	-11.5587
hot	-11.5589
byref	-11.5592
Xml	-11.5593
RT	-11.5594
bytearray	-11.5595
own	-11.5598
ffi	-11.5598
Trans	-11.5599
DUT	-11.5611
cleaned	-11.5623
activation	-11.563
benchmark	-11.5632
lb	-11.5633
art	-11.5637
vectors	-11.5642
fileobj	-11.5643
Ids	-11.5644
orders	-11.5644
Override	-11.5652
adjust	-11.5653
additional	-11.5653
cmds	-11.5654
ating	-11.5656
Complete	-11.5674
coverage	-11.5675
▁SPACEendDate	-11.5675
NA	-11.5681
goal	-11.5683
quiet	-11.5685
resolution	-11.5694
Hello	-11.5696
XXX	-11.5696
gradient	-11.5698
predictions	-11.5703
processes	-11.5716
backward	-11.5718
64(	-11.5719
Mesh	-11.5729
MO	-11.573
cube	-11.573
spin	-11.5732
Loop	-11.5744
LA	-11.5746
clusters	-11.5753
compat	-11.5754
Popen	-11.576
2',	-11.5761
Core	-11.5761
sanitize	-11.5762
">	-11.5764
ka	-11.5768
Identity	-11.5772
physical	-11.5773
Inline	-11.5774
1])	-11.5781
purge	-11.5784
Track	-11.5787
UTF	-11.5788
pref	-11.5789
Machine	-11.5795
sqlite	-11.5796
SSL	-11.5797
ticker	-11.58
ctrl	-11.5805
annotations	-11.5806
Layout	-11.5806
snap	-11.581
=4	-11.5813
64.	-11.5814
GROUP	-11.5829
8')	-11.583
invert	-11.5833
()}	-11.5838
></	-11.5843
1.0)	-11.5843
Exp	-11.5849
Attributes	-11.5856
boto	-11.5859
-3	-11.586
RGB	-11.5863
inp	-11.587
XmlElement	-11.5874
IPv	-11.5875
RA	-11.5875
pan	-11.5888
Fail	-11.5893
torrent	-11.5895
authenticate	-11.5908
feat	-11.5912
most	-11.5915
Instruction	-11.5918
CP	-11.592
unlock	-11.5923
DS	-11.5926
{2}	-11.5929
slave	-11.5929
]*	-11.5931
stopped	-11.5931
/<	-11.5933
wise	-11.594
rng	-11.5941
opcode	-11.595
Must	-11.5955
az	-11.5956
getData	-11.5961
particle	-11.5962
ram	-11.5969
Nodes	-11.5971
1-	-11.5973
prime	-11.5975
20,	-11.5976
ship	-11.5976
conditions	-11.5977
Setup	-11.5977
lam	-11.598
('',	-11.5987
Upload	-11.599
Objects	-11.5991
clicked	-11.5992
Events	-11.5998
NODE	-11.6
CACHE	-11.6008
estimator	-11.6008
_2_	-11.6008
rhs	-11.6009
macro	-11.601
va	-11.6013
35	-11.6015
locations	-11.602
Please	-11.6021
Rect	-11.6024
SO	-11.6025
mini	-11.6026
uit	-11.6027
LO	-11.6028
quality	-11.6028
pylint	-11.6032
roll	-11.6033
fire	-11.6038
\'	-11.6039
Sa	-11.6039
Di	-11.604
▁SPACEbeginDate	-11.6043
basis	-11.6043
[4]	-11.6046
(3)	-11.6053
journal	-11.6054
-8'))	-11.6058
polygon	-11.6065
lim	-11.607
trial	-11.6087
specific	-11.6087
possible	-11.6088
markdown	-11.6091
ros	-11.6094
ified	-11.6097
tGui	-11.6098
fx	-11.6098
ated	-11.6115
listeners	-11.6117
Off	-11.6126
pix	-11.6127
/2	-11.6131
LL	-11.615
Mask	-11.6151
CLI	-11.6152
][0]	-11.6158
Regex	-11.6162
2),	-11.6166
creator	-11.6168
describe	-11.6168
PI	-11.6178
Decimal	-11.618
▁SPACEdon	-11.6182
then	-11.6188
iterations	-11.6195
tap	-11.6196
processing	-11.6199
assets	-11.6209
▁SPACEhparams	-11.6211
Main	-11.6214
epsilon	-11.6214
GA	-11.6216
between	-11.6226
story	-11.6226
fileno	-11.6227
shapes	-11.6233
▁SPACEactual	-11.6242
normalized	-11.6249
qr	-11.6258
AUTH	-11.6271
protected	-11.6273
hub	-11.6273
OUT	-11.6274
duplicate	-11.6277
TEXT	-11.6287
agg	-11.6293
Operator	-11.6296
Compute	-11.6296
repos	-11.6299
CF	-11.6308
()),	-11.6309
Identifier	-11.6319
soup	-11.6323
000	-11.6327
bindings	-11.633
43	-11.6336
conversion	-11.634
queries	-11.6343
setText	-11.6346
gi	-11.635
cor	-11.6351
dao	-11.6352
orientation	-11.6354
finder	-11.6355
Work	-11.6363
spawn	-11.6366
__(**	-11.6368
outer	-11.6374
[3])	-11.6375
'][	-11.6377
2')	-11.638
fft	-11.6381
Named	-11.6382
crash	-11.6384
readlines	-11.6386
SUB	-11.6386
Editor	-11.6386
capacity	-11.6389
Endpoint	-11.639
extent	-11.6392
▁SPACEdoesn	-11.6393
Unable	-11.6395
submission	-11.6402
MAC	-11.6405
front	-11.6411
Certificate	-11.6413
estimate	-11.6413
fe	-11.6418
tCore	-11.6423
=1.0	-11.6432
pu	-11.6433
Repo	-11.6436
cam	-11.6441
wavelength	-11.6444
constraints	-11.6451
({"	-11.6452
coordinate	-11.6454
detach	-11.646
Library	-11.646
artifact	-11.646
guest	-11.646
kl	-11.6461
cal	-11.6463
86	-11.6471
boundary	-11.6472
unix	-11.6481
Renderer	-11.6483
arn	-11.6484
clients	-11.6489
Lookup	-11.6489
overlap	-11.6496
Generate	-11.6496
containers	-11.6508
wave	-11.6511
Annotation	-11.652
RPC	-11.652
classifier	-11.6521
0.2	-11.6524
ys	-11.6531
Over	-11.6537
undo	-11.6539
blue	-11.6543
season	-11.6544
[[	-11.6551
PL	-11.6557
ini	-11.6566
subclasses	-11.6567
Security	-11.6567
Partition	-11.6591
Virtual	-11.6592
ko	-11.6594
rid	-11.6595
TER	-11.6596
Bool	-11.6604
Monitor	-11.6604
pip	-11.661
resume	-11.6613
Static	-11.6616
provide	-11.6621
probe	-11.6628
isnan	-11.663
Pipeline	-11.6632
iteration	-11.6633
Home	-11.6636
"]:	-11.664
dashboard	-11.664
leave	-11.6647
[1]]	-11.6652
wd	-11.6661
dbus	-11.6664
argparse	-11.6674
Repository	-11.6676
Long	-11.6678
SSH	-11.6682
adj	-11.6686
[('	-11.6687
operations	-11.6691
letter	-11.6695
dry	-11.6698
solver	-11.6698
COMMAND	-11.67
'+	-11.6708
verb	-11.671
Listener	-11.6712
VAR	-11.6713
elt	-11.6715
sequences	-11.6715
[%	-11.6723
45	-11.6723
prep	-11.6724
setValue	-11.6731
cipher	-11.6731
invalidate	-11.6732
functools	-11.6732
DF	-11.6734
recipient	-11.6737
SystemExit	-11.6737
concat	-11.674
pwd	-11.6742
STRING	-11.6749
was	-11.6749
regexp	-11.6755
mic	-11.6757
learning	-11.6763
DNS	-11.6765
expired	-11.677
UTC	-11.6771
addon	-11.6774
deferred	-11.6774
ignored	-11.6774
(1))	-11.6775
Trace	-11.6776
--------------	-11.6789
getcwd	-11.679
profiles	-11.6793
visibility	-11.6798
Drop	-11.6798
recent	-11.6807
Power	-11.681
scanner	-11.681
lin	-11.6817
ball	-11.6821
rst	-11.6822
listen	-11.6823
>\	-11.6827
agents	-11.6827
UID	-11.6832
pot	-11.6838
TR	-11.6844
Convert	-11.6856
Children	-11.6859
]])	-11.6864
volumes	-11.6866
Boolean	-11.6871
dependency	-11.6872
indicID	-11.6872
▁SPACEindicName	-11.6872
nav	-11.6875
tbl	-11.6886
formatted	-11.6891
▁SPACElibxml	-11.6892
[0]]	-11.69
Usage	-11.6902
initializer	-11.6904
portal	-11.6907
there	-11.6917
cpp	-11.6917
LINK	-11.6921
plural	-11.6921
cuda	-11.6922
▁SPACEbecause	-11.6922
FI	-11.6925
pixels	-11.6932
Double	-11.6934
Sensor	-11.6934
claim	-11.6934
ov	-11.6934
replacement	-11.6939
Summary	-11.6946
bases	-11.6949
rq	-11.6949
55	-11.6949
delegate	-11.6958
Fetch	-11.6959
tracks	-11.696
observed	-11.6961
decrypt	-11.6963
unk	-11.6973
hr	-11.6973
1000)	-11.6976
64)	-11.6979
dataframe	-11.6979
MD	-11.6981
gain	-11.6982
CI	-11.6983
declaration	-11.6983
ordering	-11.6985
tweet	-11.6986
Ver	-11.699
DO	-11.6993
SHA	-11.6994
Verify	-11.6996
requested	-11.6997
nothing	-11.7001
que	-11.7005
hold	-11.7007
="",	-11.7008
solve	-11.7017
>',	-11.7018
runs	-11.7025
("<	-11.7026
mirror	-11.7034
palette	-11.7034
wsgi	-11.7042
32,	-11.7049
▁SPACEexist	-11.7052
latent	-11.7061
20)	-11.7061
assertIs	-11.7061
misc	-11.7062
vt	-11.7062
58	-11.7065
LT	-11.7067
Screen	-11.7071
crypto	-11.7074
printer	-11.7076
provided	-11.7095
5.	-11.7101
Disk	-11.7102
0000	-11.7103
px	-11.7115
4_	-11.7117
det	-11.7118
Cookie	-11.7122
{0:	-11.7122
ABCMeta	-11.7122
Vec	-11.7123
txn	-11.7123
representation	-11.7123
markup	-11.7129
VER	-11.7131
equals	-11.7134
grant	-11.7137
SM	-11.7142
ise	-11.7143
▁SPACEyour	-11.7144
su	-11.7152
Sp	-11.7165
networks	-11.7167
pat	-11.7172
approx	-11.7173
ravel	-11.7177
"{0}	-11.7185
Binding	-11.7187
sessions	-11.7189
phrase	-11.7193
prec	-11.7197
Chain	-11.7198
ONE	-11.7204
(',')	-11.7206
validators	-11.7208
Deferred	-11.7211
STR	-11.7215
180	-11.7229
funcs	-11.7238
/',	-11.7239
AST	-11.7247
qname	-11.7258
attachment	-11.7259
Al	-11.7259
expanduser	-11.7268
ticks	-11.7268
attempt	-11.7274
handles	-11.7276
Cfunction	-11.7283
300	-11.7286
matcher	-11.7296
operand	-11.7301
▁SPACEsure	-11.7339
fullname	-11.7341
dialect	-11.7352
registration	-11.7352
SERVICE	-11.7352
bank	-11.7357
tex	-11.7374
degree	-11.7377
Linear	-11.7395
lhs	-11.7399
Utils	-11.7401
sol	-11.7403
Platform	-11.7404
VALUE	-11.7413
Found	-11.7416
measurement	-11.7418
alignment	-11.7418
tpl	-11.7418
cid	-11.7426
stride	-11.7428
"."	-11.743
multiply	-11.7431
deep	-11.7434
2",	-11.7449
ann	-11.7452
ade	-11.7453
observer	-11.7454
Sign	-11.7456
Topic	-11.7463
DA	-11.7466
XY	-11.7471
ceil	-11.7472
defs	-11.7473
topology	-11.7483
ao	-11.7493
hw	-11.7493
Draw	-11.7495
documents	-11.7501
mult	-11.7503
canonical	-11.7509
fallback	-11.7509
crop	-11.7516
512	-11.7523
og	-11.7524
passed	-11.7526
MF	-11.753
IntEnum	-11.7533
tls	-11.7534
grade	-11.7535
du	-11.7541
_1(	-11.7542
velocity	-11.7549
fold	-11.7549
urn	-11.7554
nonzero	-11.7566
Interval	-11.7571
parsers	-11.7573
{0}".	-11.7578
Play	-11.7587
sprite	-11.7589
LIB	-11.7596
Sum	-11.7597
bu	-11.7597
modifier	-11.76
strptime	-11.7602
exact	-11.7603
large	-11.7608
Filename	-11.7612
255)	-11.7621
[0][0]	-11.7628
lation	-11.7639
combine	-11.7641
distinct	-11.7642
Route	-11.765
notifications	-11.7652
eta	-11.7656
au	-11.7656
Internal	-11.7662
6(	-11.7664
longitude	-11.7668
characters	-11.7673
joint	-11.7674
')[0]	-11.7674
feedback	-11.7684
gm	-11.7684
Iter	-11.769
sat	-11.7693
Mem	-11.7694
Progress	-11.7695
Duplicate	-11.7695
Mod	-11.7696
cont	-11.77
transformer	-11.7704
ible	-11.7705
Scope	-11.7709
discard	-11.771
Timestamp	-11.771
Statement	-11.7711
due	-11.7713
sf	-11.7715
3))	-11.772
[-1].	-11.7724
border	-11.7732
ele	-11.7732
Left	-11.7736
something	-11.7736
tau	-11.7737
authorized	-11.7741
kit	-11.7746
[2:]	-11.775
Shell	-11.7763
audit	-11.7763
baz	-11.7769
overwrite	-11.7773
Wrap	-11.7776
Program	-11.7776
logits	-11.7776
sed	-11.7784
arrow	-11.7785
Light	-11.7792
Card	-11.7798
cx	-11.78
Execution	-11.7803
assertIsNotNone	-11.7803
management	-11.7804
dates	-11.7805
Po	-11.7805
partitions	-11.7809
"-"	-11.7813
Implement	-11.7816
iterate	-11.782
Encoder	-11.7823
NULL	-11.783
404)	-11.783
who	-11.784
dispatcher	-11.7841
ally	-11.7842
languages	-11.7842
serialized	-11.7844
pprint	-11.7845
extended	-11.7853
land	-11.7856
imp	-11.7857
Split	-11.7857
Alias	-11.7858
texture	-11.7858
Sh	-11.7858
INET	-11.7862
could	-11.7871
retcode	-11.7872
pem	-11.7879
cause	-11.7887
difference	-11.7898
firewall	-11.7899
'*'	-11.7916
38	-11.7919
Back	-11.7924
kubernetes	-11.7926
brightness	-11.7926
realm	-11.7926
65	-11.7929
Assert	-11.7933
HEADER	-11.7937
heartbeat	-11.794
Len	-11.7943
stem	-11.7948
qi	-11.7953
scenario	-11.7953
cdf	-11.7955
2/	-11.7962
thumbnail	-11.7967
StopIteration	-11.7967
='')	-11.7967
MM	-11.7969
ish	-11.7971
waiting	-11.7974
+1	-11.7977
ler	-11.7978
Contact	-11.7981
Audio	-11.7981
ForeignKey	-11.7981
plane	-11.7985
2])	-11.7986
coll	-11.7987
Temp	-11.7989
general	-11.7995
trim	-11.8018
ray	-11.802
credential	-11.8022
inject	-11.8022
replicas	-11.8027
1],	-11.8027
FilePath	-11.803
observation	-11.8036
TLS	-11.8051
_404(	-11.8053
Std	-11.8058
('--	-11.8063
MESSAGE	-11.8064
(4)	-11.8067
scripts	-11.8073
defaultdict	-11.8074
deployment	-11.8078
invoice	-11.808
0.5)	-11.8086
fid	-11.8087
pet	-11.8089
syn	-11.8091
vel	-11.8091
Trigger	-11.8092
Stub	-11.8092
ny	-11.8094
pen	-11.8099
))]	-11.811
Enable	-11.811
Tile	-11.8112
dup	-11.8116
mute	-11.8117
kin	-11.8118
▁SPACEInform	-11.8126
ENV	-11.8127
readonly	-11.8133
payment	-11.8134
PO	-11.8136
ACTION	-11.8138
vert	-11.8145
pressure	-11.8148
\"	-11.8152
routes	-11.8154
Headers	-11.8157
Issue	-11.8162
kargs	-11.8165
Face	-11.8166
Resolver	-11.8166
addCallback	-11.8176
EVENT	-11.8176
SL	-11.8177
NUM	-11.8191
sink	-11.8191
peak	-11.8191
izer	-11.8191
cmap	-11.8193
ug	-11.8196
TIMEOUT	-11.8204
young	-11.8205
EC	-11.821
(10)	-11.8226
Help	-11.8227
rh	-11.8231
hyper	-11.8234
filesystem	-11.8237
generated	-11.8237
Atom	-11.8237
-4	-11.8244
ture	-11.8245
Conv	-11.8246
Lazy	-11.8247
peek	-11.8247
mysql	-11.8251
continue	-11.8255
Down	-11.8257
city	-11.826
ou	-11.8261
stored	-11.8261
cases	-11.8262
Short	-11.8262
Win	-11.8263
()['	-11.8263
vr	-11.8266
=["	-11.8269
ail	-11.8271
({})	-11.8274
realpath	-11.8277
lf	-11.8278
sites	-11.828
defer	-11.8286
density	-11.8289
anonymous	-11.8289
appliance	-11.8289
Mo	-11.8299
readable	-11.8301
Checker	-11.8304
1")	-11.8305
gg	-11.8312
fraction	-11.8313
=100)	-11.8314
hl	-11.8318
Reg	-11.832
ular	-11.8327
Suite	-11.8329
Axis	-11.8333
5:	-11.8333
blueprint	-11.8334
oin	-11.8346
TOKEN	-11.8346
preprocess	-11.8353
discover	-11.8353
lg	-11.8356
expire	-11.8367
dag	-11.8374
human	-11.8375
001	-11.8376
Sort	-11.8385
MSG	-11.8386
AB	-11.8387
10):	-11.8389
authentication	-11.839
Master	-11.839
5]	-11.8394
OT	-11.8398
Analysis	-11.8404
Weight	-11.8404
CAN	-11.8405
Users	-11.8408
intersection	-11.841
EOF	-11.8414
voice	-11.8416
processed	-11.8418
Pixel	-11.8418
tro	-11.8423
('')	-11.8425
PUT	-11.8425
heading	-11.8426
white	-11.8436
truncate	-11.8437
1.1	-11.844
gap	-11.8443
StringField	-11.8447
latitude	-11.8447
genome	-11.8448
xff	-11.8449
ClientError	-11.8452
drag	-11.8454
ava	-11.8456
las	-11.8457
migrate	-11.8462
WARNING	-11.8462
Diff	-11.847
qui	-11.847
PR	-11.8473
endpoints	-11.8474
iate	-11.8476
embed	-11.8478
Real	-11.8479
hand	-11.848
letters	-11.8483
'"'	-11.8484
cons	-11.8492
Blob	-11.8496
eye	-11.8496
svg	-11.8504
persist	-11.8505
sentences	-11.8507
degrees	-11.8508
contextmanager	-11.8512
Groups	-11.8516
through	-11.8516
monkeypatch	-11.852
Click	-11.852
snippet	-11.8534
study	-11.8534
Metric	-11.8536
SyntaxError	-11.8539
formats	-11.8541
gray	-11.8542
READ	-11.8552
micro	-11.8554
vote	-11.8555
company	-11.8566
unset	-11.8567
ae	-11.8569
plist	-11.8574
ConnectionError	-11.8575
spark	-11.8579
jd	-11.8582
SIG	-11.8585
DIS	-11.859
charge	-11.8591
hashes	-11.8598
TCP	-11.86
nonce	-11.8603
Height	-11.8608
issues	-11.8612
Top	-11.8615
tip	-11.8617
typing	-11.8617
bio	-11.862
tearDown	-11.8622
[3],	-11.8624
managed	-11.8629
qu	-11.8633
DL	-11.8633
(...)	-11.8634
Pi	-11.8635
UNKNOWN	-11.8637
Archive	-11.8637
digit	-11.8641
rpm	-11.8643
Tags	-11.8648
vendor	-11.8652
getvalue	-11.8654
RD	-11.8671
newline	-11.8677
[3,	-11.8678
respond	-11.8682
84	-11.8684
PRE	-11.8685
priv	-11.8689
MB	-11.869
OSError	-11.8704
[:2]	-11.8707
OC	-11.8708
tester	-11.8711
Chunk	-11.8711
[::-1]	-11.8711
Free	-11.8711
ssfr	-11.8711
={}):	-11.8713
locate	-11.8713
Validate	-11.8714
gz	-11.8716
Ext	-11.8718
asm	-11.8721
earth	-11.8726
[-1])	-11.873
MENT	-11.8732
Available	-11.874
bootstrap	-11.8741
inplace	-11.8744
ten	-11.8748
BE	-11.8748
fin	-11.875
hd	-11.8751
101	-11.8751
capabilities	-11.8756
SUCCESS	-11.8756
NE	-11.8766
whitespace	-11.8772
scaling	-11.8773
Opt	-11.8779
Closed	-11.878
Head	-11.8783
Console	-11.8786
Wait	-11.8787
minute	-11.879
ABC	-11.8791
relpath	-11.8792
pv	-11.8795
▁SPACEmay	-11.8799
stock	-11.8801
Material	-11.8815
External	-11.8815
xc	-11.8819
bond	-11.882
Bot	-11.8823
pdb	-11.8825
delitem	-11.8827
Distribution	-11.883
]+)	-11.8832
Proto	-11.8833
Com	-11.8833
UL	-11.8834
Union	-11.8835
TP	-11.8835
frozen	-11.8835
{1}'.	-11.8844
Scan	-11.8844
Safe	-11.8846
Res	-11.8847
SoS	-11.8847
ward	-11.8849
Selector	-11.8855
remaining	-11.8861
BytesIO	-11.8861
lstrip	-11.8864
DC	-11.8868
rem	-11.8871
ND	-11.8871
integration	-11.8876
NONE	-11.8878
throw	-11.8879
loading	-11.8883
tax	-11.8885
==============	-11.8885
Dev	-11.8893
HEAD	-11.8895
0],	-11.8903
Patch	-11.8906
ard	-11.8907
Chat	-11.8907
SERVER	-11.8913
hard	-11.8919
parametrize	-11.8921
policies	-11.8921
Camera	-11.8921
descr	-11.8923
NG	-11.8934
dense	-11.8935
vid	-11.8935
individual	-11.8936
Total	-11.8936
look	-11.8938
PT	-11.8939
resnet	-11.8941
ami	-11.8949
Already	-11.8951
divide	-11.8962
means	-11.8964
candidates	-11.8964
IMAGE	-11.8967
ification	-11.8968
Append	-11.8969
repl	-11.8974
0.3	-11.8974
normpath	-11.8976
IVE	-11.8978
Conf	-11.8989
TARGET	-11.8997
cutoff	-11.8998
modifiers	-11.8999
how	-11.9005
bitmap	-11.9005
perms	-11.9006
intent	-11.9009
Pop	-11.901
decl	-11.901
avatar	-11.9013
getAll	-11.902
Snapshot	-11.9028
Browser	-11.903
(4,	-11.903
logic	-11.9033
csrf	-11.9033
backends	-11.9035
ctxt	-11.9036
alphabet	-11.9037
Instrument	-11.9043
glyph	-11.9043
Problem	-11.9043
Modified	-11.9043
heat	-11.9043
instructions	-11.9045
reading	-11.9047
REF	-11.9048
catch	-11.9048
OL	-11.905
Util	-11.905
frozenset	-11.9054
Unexpected	-11.9062
Book	-11.907
Vertex	-11.9074
stroke	-11.9074
dlg	-11.9079
Example	-11.9089
__),	-11.909
sz	-11.9096
bid	-11.9104
population	-11.9105
sampling	-11.9105
endian	-11.9108
10000	-11.911
ser	-11.911
eo	-11.911
median	-11.9111
sion	-11.9112
preset	-11.9126
probs	-11.9129
combo	-11.913
inherit	-11.9132
32_	-11.9133
OFF	-11.9139
blacklist	-11.9143
#---------------	-11.9144
Done	-11.9146
orm	-11.9147
[2,	-11.9149
**2)	-11.915
variance	-11.915
fm	-11.9153
zones	-11.9157
ect	-11.9158
iz	-11.9163
gzip	-11.9164
svc	-11.9165
different	-11.9167
ja	-11.9167
staticmethod	-11.9175
Dump	-11.918
1.5	-11.918
COUNT	-11.9182
Sb	-11.9184
Converter	-11.9187
ctype	-11.9189
tw	-11.9191
(':')	-11.9193
Credentials	-11.9209
RC	-11.9211
Bucket	-11.9213
Reactor	-11.9215
anc	-11.9217
mapped	-11.9218
Strategy	-11.9229
jinja	-11.923
NotSupported	-11.923
Const	-11.9234
403	-11.9238
spam	-11.9244
interactive	-11.9247
inet	-11.9249
den	-11.9254
closing	-11.926
circuit	-11.926
relationship	-11.926
desktop	-11.9261
compression	-11.9269
interp	-11.9272
[5]	-11.9274
"\\	-11.9274
badge	-11.9281
"})	-11.9291
such	-11.9293
based	-11.9295
VO	-11.93
APIView	-11.93
Bound	-11.93
scipy	-11.9307
BB	-11.9308
Factor	-11.9313
Validation	-11.9318
53	-11.9322
Processor	-11.9322
Need	-11.9323
principal	-11.9323
assertNotEqual	-11.9323
Focus	-11.9323
Fixed	-11.9326
subtitle	-11.9333
-8	-11.9333
BaseException	-11.9342
infile	-11.9344
ake	-11.9348
Sim	-11.9349
compressed	-11.9349
fails	-11.935
objectPlayer	-11.9359
0000000	-11.9359
gf	-11.936
decoded	-11.9363
[0	-11.9364
#--------------	-11.9365
elapsed	-11.9371
memo	-11.9372
met	-11.9377
)**2	-11.9379
World	-11.9387
ndb	-11.9387
dicts	-11.9389
prediction	-11.9395
▁TABplay	-11.9398
arity	-11.9401
ous	-11.9403
12,	-11.941
configured	-11.9411
Seq	-11.9412
Pack	-11.9415
passwd	-11.9425
Signature	-11.9434
circle	-11.9435
VALID	-11.9438
hasattr	-11.9439
that	-11.944
[0]))	-11.9441
BY	-11.9441
(-1,	-11.9444
Cancel	-11.9454
Encoding	-11.9466
annotate	-11.9477
MT	-11.9479
superuser	-11.9479
fetchall	-11.948
ement	-11.9484
Html	-11.9498
xi	-11.9507
NoSuch	-11.9514
subdir	-11.9517
(10,	-11.9522
xblock	-11.9523
401	-11.9526
framework	-11.9542
Lines	-11.9547
={"	-11.9548
":"	-11.9549
tier	-11.9557
expires	-11.9561
'},	-11.9564
indexer	-11.9571
LEVEL	-11.9579
Authorization	-11.9579
Coord	-11.958
faceon	-11.9588
AV	-11.9588
Choice	-11.9594
6_	-11.9595
desired	-11.9595
expiration	-11.9595
Abort	-11.9595
blackbox	-11.9596
ik	-11.9597
Bo	-11.9599
regs	-11.96
arrays	-11.9604
forum	-11.9604
ftp	-11.9606
NI	-11.961
buttons	-11.9612
resolved	-11.9613
zz	-11.9613
bt	-11.9615
BR	-11.9616
vcs	-11.9621
Logging	-11.9628
viewer	-11.963
say	-11.9634
It	-11.9635
tempdir	-11.9637
foobar	-11.9639
OPEN	-11.964
Stat	-11.9641
compact	-11.9643
browse	-11.965
uses	-11.9654
LOCK	-11.9658
freeze	-11.9661
MC	-11.9661
motor	-11.9663
buckets	-11.9669
fault	-11.9672
DEVICE	-11.9677
Information	-11.9677
tgt	-11.9677
jobject	-11.9681
responses	-11.9682
Execute	-11.9693
directories	-11.9693
emails	-11.9694
starting	-11.9694
timing	-11.9696
Force	-11.9696
pitch	-11.9709
Self	-11.9713
ERR	-11.9714
xmlrpc	-11.9715
Solution	-11.9726
overlay	-11.9726
SoGL	-11.9728
Fast	-11.973
infer	-11.9731
linked	-11.9731
zap	-11.9738
expanded	-11.974
="%	-11.9741
WORD	-11.9742
abjad	-11.9742
caption	-11.9743
optimize	-11.9747
corr	-11.9747
ht	-11.9749
udp	-11.9752
Pair	-11.9754
INDEX	-11.9759
ajax	-11.9759
urlopen	-11.976
visitor	-11.9772
{}\	-11.9776
("""	-11.9777
FL	-11.9778
every	-11.9781
overrides	-11.9783
2],	-11.9788
arp	-11.9793
10(	-11.9794
reports	-11.9797
ModelAdmin	-11.9801
fetchone	-11.9801
ions	-11.9805
publisher	-11.9812
Right	-11.9816
apikey	-11.9817
xFF	-11.9819
HTTPError	-11.9821
pandas	-11.9825
decay	-11.9825
products	-11.9829
tg	-11.983
NET	-11.983
IES	-11.9836
eth	-11.9836
vehicle	-11.9842
ze	-11.9843
mr	-11.9845
wp	-11.9846
already	-11.9856
Messages	-11.9857
Mark	-11.9868
matched	-11.9874
Plan	-11.9877
tensors	-11.9878
both	-11.9879
flux	-11.9891
Dim	-11.9896
ics	-11.99
VI	-11.9901
("/")	-11.9901
Points	-11.9908
histogram	-11.9908
Unique	-11.9908
flash	-11.9908
0.01	-11.991
least	-11.9911
Ro	-11.9914
TF	-11.9914
HO	-11.9918
6:	-11.9919
disp	-11.9919
issubclass	-11.9921
streams	-11.9926
rse	-11.993
extras	-11.9932
Ad	-11.9934
tol	-11.9937
ef	-11.9937
pay	-11.9938
fingerprint	-11.9942
COR	-11.9945
scopes	-11.9946
([],	-11.9951
Plane	-11.9954
Selected	-11.9956
revoke	-11.9956
CHECK	-11.9959
campaign	-11.9959
critical	-11.9959
encrypted	-11.9965
mar	-11.9971
Merge	-11.9976
Super	-11.9976
Depth	-11.9976
▁SPACErval	-11.9983
iam	-11.9984
3])	-11.9986
contain	-11.9991
SoTexture	-11.9993
ArgumentParser	-11.9994
lv	-11.9999
abi	-12.0004
IndexError	-12.0008
fcntl	-12.0009
squeeze	-12.0009
persistent	-12.001
intervals	-12.0011
RP	-12.0012
SR	-12.0018
[1]))	-12.0019
3],	-12.0021
tan	-12.0025
challenge	-12.0026
Press	-12.0028
LOW	-12.0034
tv	-12.0037
ModelForm	-12.0039
kb	-12.004
Dynamic	-12.0043
[\	-12.0046
Mail	-12.0047
Cap	-12.0054
00,	-12.0058
ow	-12.006
truth	-12.006
tabs	-12.0064
datatype	-12.0071
ality	-12.0074
Destroy	-12.0077
-5	-12.008
ModelSerializer	-12.0085
friend	-12.0093
assistant	-12.0094
inside	-12.0096
tuples	-12.0097
tmpl	-12.0098
Public	-12.0107
serv	-12.0108
UPDATE	-12.0111
neighbors	-12.0113
folders	-12.0114
Ignore	-12.0128
returncode	-12.0136
54	-12.0141
popup	-12.0142
hm	-12.0143
3.0	-12.0145
instantiate	-12.0145
IntegerField	-12.0149
Day	-12.0149
CD	-12.0158
Poly	-12.0164
jpg	-12.0184
softmax	-12.0184
ump	-12.0195
providers	-12.0195
Clean	-12.0196
NAMESPACE	-12.0197
ADD	-12.0197
black	-12.0205
2000	-12.0207
5):	-12.0208
NEW	-12.021
dw	-12.022
startup	-12.0222
wi	-12.023
fits	-12.0231
Angle	-12.0231
ite	-12.0231
(5)	-12.0232
')])	-12.0232
quick	-12.0232
rg	-12.0239
psi	-12.0245
Relation	-12.025
alloc	-12.0255
following	-12.0257
calculation	-12.0266
Forward	-12.0267
/{}/	-12.0272
FOR	-12.0273
qos	-12.0279
enums	-12.028
6]	-12.028
preferred	-12.0283
Activity	-12.0283
queues	-12.0291
whitelist	-12.0295
isoformat	-12.03
Should	-12.0301
mutex	-12.0302
ome	-12.0306
GO	-12.0317
rack	-12.0322
recording	-12.0323
Peer	-12.0325
60)	-12.0327
producer	-12.0327
=10,	-12.0328
dirpath	-12.033
RF	-12.033
half	-12.0336
opened	-12.0339
ServerError	-12.034
MODEL	-12.0341
AWS	-12.035
egg	-12.0352
Backup	-12.0363
grammar	-12.0371
fltr	-12.0372
dash	-12.0379
within	-12.0386
gh	-12.0388
Daemon	-12.0388
Pointer	-12.039
Player	-12.0395
256(	-12.04
Dimension	-12.0406
Revision	-12.0406
=30	-12.041
faces	-12.0412
ERS	-12.0413
linter	-12.0422
ByName	-12.0423
Secret	-12.0424
1234	-12.043
subs	-12.0443
dv	-12.0444
("")	-12.045
accuracy	-12.0459
FD	-12.0463
{}>'	-12.0467
qual	-12.0467
pools	-12.0468
adapt	-12.0468
SW	-12.0469
>")	-12.0474
56	-12.0474
leptonica	-12.0476
Kernel	-12.0476
CONTENT	-12.0477
Numeric	-12.0477
ModelViewSet	-12.048
plug	-12.0489
={},	-12.0494
indicator	-12.0494
Initial	-12.0496
creds	-12.0496
irc	-12.0502
('>	-12.0503
deactivate	-12.0507
mpl	-12.0509
nest	-12.0509
Ticket	-12.0512
sdk	-12.0513
'':	-12.0517
prefixes	-12.0517
ending	-12.0521
}')	-12.0522
dead	-12.0528
ight	-12.0529
magnitude	-12.053
LOCAL	-12.053
ana	-12.0532
BLOCK	-12.0533
'').	-12.0534
gn	-12.0546
argmax	-12.055
Two	-12.0559
Dependency	-12.0565
Translation	-12.0566
CREATE	-12.0566
ReadOnly	-12.0566
chrom	-12.0571
reserved	-12.0581
horizontal	-12.0583
ilwis	-12.0583
transcript	-12.0583
bed	-12.0591
63	-12.0591
RED	-12.0592
DR	-12.0595
cmdline	-12.0598
etag	-12.0601
Wiki	-12.0601
LI	-12.0607
pygame	-12.061
allclose	-12.061
Tx	-12.0612
Direction	-12.0621
exam	-12.0622
wn	-12.0622
analyze	-12.0625
HA	-12.0651
DP	-12.0652
silent	-12.0654
CONTROLLER	-12.0655
stddev	-12.0658
algo	-12.0661
vpc	-12.0662
Notify	-12.0664
Owner	-12.0673
RESOURCE	-12.0674
85	-12.0678
Bits	-12.0686
even	-12.0686
'1'	-12.069
clipboard	-12.0692
Pick	-12.0707
(".")	-12.0708
nickname	-12.0709
determine	-12.0709
legacy	-12.0709
mutation	-12.0709
authorization	-12.071
sta	-12.0713
Native	-12.0716
meth	-12.0716
'_'	-12.0717
sam	-12.072
wt	-12.0724
virt	-12.0726
LENGTH	-12.0728
frappe	-12.0728
lag	-12.0737
IB	-12.074
=2):	-12.075
RUN	-12.0751
posix	-12.0753
statuses	-12.0754
wm	-12.0757
COLOR	-12.0759
After	-12.0764
Second	-12.0764
Distance	-12.0764
Bin	-12.0767
BadRequest	-12.0767
RequestHandler	-12.0772
finite	-12.0773
webhook	-12.0774
Fill	-12.0774
Metrics	-12.078
paused	-12.078
banner	-12.0782
fuzz	-12.0795
pic	-12.0796
logo	-12.08
SoXt	-12.0801
Refresh	-12.0801
classname	-12.0808
fb	-12.0818
slash	-12.0818
Raise	-12.0819
Panel	-12.0821
TT	-12.0822
gpio	-12.084
getNum	-12.084
11,	-12.084
transformation	-12.0842
+1]	-12.0843
derived	-12.0844
tokenizer	-12.0845
Sec	-12.0848
mix	-12.0848
toc	-12.0854
namedtuple	-12.0859
undefined	-12.0861
Standard	-12.0867
cart	-12.0869
'\\	-12.0871
Uri	-12.0877
hits	-12.0884
cg	-12.0887
watcher	-12.089
Try	-12.0891
greater	-12.0892
citation	-12.0893
almost	-12.0894
ban	-12.0902
mdl	-12.0904
popen	-12.0905
tagged	-12.0911
outcome	-12.0911
Keyword	-12.0914
factors	-12.0921
getValue	-12.0922
nat	-12.0923
REGEX	-12.0929
Wrong	-12.0929
movie	-12.0929
legend	-12.0931
TC	-12.094
requester	-12.0941
Norm	-12.0942
Support	-12.0945
learn	-12.0947
vault	-12.0948
vertical	-12.0948
maxsize	-12.0949
RI	-12.0949
tostring	-12.0952
decorated	-12.0955
successful	-12.0965
68	-12.0966
footer	-12.097
issuer	-12.0971
explicit	-12.0984
suppress	-12.0986
Undefined	-12.0986
OF	-12.0987
Replace	-12.0992
0])	-12.0996
reject	-12.1002
ox	-12.1003
Subscription	-12.1004
provision	-12.1004
Encode	-12.1006
vtk	-12.1007
unsigned	-12.1007
BaseTest	-12.1011
collector	-12.1013
temporary	-12.1023
ile	-12.1023
motion	-12.1025
PAGE	-12.1031
uerySet	-12.1033
oom	-12.1047
ful	-12.1058
rates	-12.1064
contacts	-12.107
references	-12.1071
Accept	-12.1074
Article	-12.1079
corner	-12.1079
anti	-12.1083
DN	-12.1085
credit	-12.1085
isdigit	-12.109
MU	-12.109
ability	-12.1097
16(	-12.1098
Bl	-12.11
posts	-12.1111
4))	-12.1114
Curve	-12.1117
(-1)	-12.1119
41	-12.1129
BAD	-12.1132
2**	-12.1134
Rotation	-12.1135
spacing	-12.1135
Extract	-12.114
nullable	-12.114
ListView	-12.1142
prepend	-12.1144
Ph	-12.1147
coroutine	-12.1155
gdata	-12.1157
He	-12.1157
tracer	-12.1162
DD	-12.1162
slow	-12.1167
embedding	-12.1169
Chart	-12.1171
latex	-12.1172
implicit	-12.1173
svn	-12.1178
occ	-12.1182
Mean	-12.1187
accepted	-12.1191
preferences	-12.1192
mobile	-12.1192
Other	-12.1192
Literal	-12.1192
Observer	-12.1192
moment	-12.1194
("--	-12.1198
METHOD	-12.1207
General	-12.1211
('''	-12.1219
OAuth	-12.122
getenv	-12.1222
triple	-12.1225
chapter	-12.123
ale	-12.1233
1}	-12.1233
'_')	-12.1235
buy	-12.1239
deriv	-12.1249
Retrieve	-12.125
hardware	-12.125
merged	-12.1252
wcs	-12.1259
reboot	-12.126
LD	-12.1267
written	-12.1269
gather	-12.1271
smooth	-12.1273
Rows	-12.1275
]}	-12.1276
GT	-12.1278
topo	-12.128
MOD	-12.1281
3):	-12.1291
mv	-12.1293
3),	-12.1296
mn	-12.1298
pane	-12.1303
reddit	-12.1305
gdb	-12.1307
blog	-12.1309
toolbar	-12.1312
netloc	-12.1314
Classes	-12.1322
communicate	-12.1326
Complex	-12.1327
ionizing	-12.1327
verified	-12.1327
Workflow	-12.1327
percentage	-12.1327
retries	-12.133
=3)	-12.1332
ConfigParser	-12.1333
jar	-12.1337
infos	-12.1339
='/	-12.1339
blocking	-12.1346
Robot	-12.1349
1)]	-12.1352
Serial	-12.1352
atomic	-12.1353
3600	-12.136
srv	-12.136
draft	-12.1365
Arguments	-12.1365
cidr	-12.1377
osc	-12.1381
GS	-12.1384
survey	-12.1384
Square	-12.1384
snmp	-12.1385
INVALID	-12.1385
scrape	-12.1387
reporter	-12.1387
Constants	-12.1396
TB	-12.1404
gb	-12.1404
simulate	-12.1404
-10	-12.1413
Some	-12.1414
bold	-12.1417
[0]['	-12.1419
COM	-12.1419
participant	-12.1423
Dictionary	-12.1423
Fault	-12.1423
Grad	-12.1424
places	-12.1426
rain	-12.1427
urlencode	-12.1427
Texture	-12.1429
SU	-12.1434
pubkey	-12.1437
migration	-12.144
btn	-12.1441
interrupt	-12.1443
pretrained	-12.1443
radians	-12.1443
RES	-12.1444
bag	-12.1446
mission	-12.1448
displayed	-12.1449
88	-12.1449
setEnabled	-12.1452
opener	-12.1452
unsubscribe	-12.1453
DT	-12.146
interpolate	-12.1462
IG	-12.1473
xe	-12.1473
pol	-12.1475
▁SPACEtestV	-12.1477
Mu	-12.1478
neighbor	-12.1479
MODULE	-12.1482
WRITE	-12.1482
singleton	-12.1482
attribs	-12.1489
floating	-12.1494
masked	-12.1497
instr	-12.1499
milestone	-12.1502
daily	-12.1502
stanza	-12.1502
aspect	-12.1502
getName	-12.1507
chmod	-12.1512
204	-12.1512
PID	-12.1518
tee	-12.153
Hex	-12.1542
()[1]	-12.1544
coeff	-12.1546
30)	-12.1546
Connected	-12.1548
UD	-12.1552
batches	-12.1557
Insert	-12.1561
Team	-12.1561
regular	-12.1561
squared	-12.1566
cred	-12.1575
Writing	-12.158
twisted	-12.158
neutron	-12.158
Delay	-12.158
{1}".	-12.1591
UInt	-12.1591
alg	-12.1591
contrib	-12.16
disks	-12.1603
46	-12.1603
Room	-12.1604
pulse	-12.1607
grab	-12.161
0.5,	-12.1611
+\	-12.1613
tablename	-12.1618
ConfigError	-12.1619
enrollment	-12.162
roi	-12.1641
listing	-12.1641
jo	-12.1647
km	-12.165
plt	-12.1658
SUPPORT	-12.1659
noop	-12.166
incoming	-12.166
shader	-12.1661
choose	-12.1666
bash	-12.1677
marshal	-12.168
Errors	-12.1684
")]	-12.1684
imports	-12.1695
Calendar	-12.17
zmq	-12.17
{0	-12.1703
(0))	-12.171
VB	-12.1717
represent	-12.1719
Catalog	-12.172
concatenate	-12.172
mox	-12.1722
NOTE	-12.1724
12)	-12.1729
rsa	-12.1736
race	-12.1744
spell	-12.1748
Kind	-12.175
edgeon	-12.1753
{}).	-12.1755
unload	-12.1756
fromstring	-12.1761
chk	-12.177
URE	-12.1772
asc	-12.1778
Buddy	-12.178
Include	-12.178
cho	-12.178
jvm	-12.1781
blk	-12.1781
fps	-12.1783
Marker	-12.1789
later	-12.1791
__':	-12.1791
prim	-12.1793
Mat	-12.1796
LTE	-12.1797
intersect	-12.1799
tolerance	-12.18
FP	-12.1801
=[],	-12.1804
Shared	-12.1809
players	-12.1811
CM	-12.1813
concept	-12.1816
mismatch	-12.1816
100.0	-12.1817
mut	-12.1821
Scalar	-12.1821
verification	-12.1821
delivery	-12.1824
Dep	-12.1825
Sql	-12.183
Polygon	-12.1841
PP	-12.1844
traj	-12.1844
Retry	-12.1844
COMP	-12.1846
distro	-12.1854
CB	-12.1857
parms	-12.1857
Slot	-12.1862
TimeoutError	-12.1862
GPIO	-12.1864
learner	-12.187
=-1)	-12.1873
---	-12.1874
nz	-12.1876
Services	-12.1881
Linux	-12.1882
Registration	-12.1882
Transfer	-12.1882
sigmoid	-12.1882
styles	-12.1883
SD	-12.1887
offsets	-12.189
][1]	-12.1893
beam	-12.1893
Viewer	-12.1894
morph	-12.1894
=4)	-12.1895
52	-12.1901
META	-12.1902
evaluation	-12.1902
([1,	-12.1905
('/',	-12.1914
Actions	-12.1916
builtins	-12.1918
AFunc	-12.1918
iq	-12.192
NameError	-12.1921
dpi	-12.1922
middleware	-12.1922
Bus	-12.1934
WS	-12.1936
120	-12.1938
SOCK	-12.1943
MEDIA	-12.1943
Enter	-12.1943
POINTER	-12.1943
eng	-12.1948
Statistics	-12.1955
wo	-12.1956
[:-	-12.1958
closure	-12.1963
animation	-12.1964
classification	-12.1966
subtract	-12.1967
veh	-12.1971
oxt	-12.1982
doctest	-12.1983
cohort	-12.1984
HOME	-12.1984
wallet	-12.1984
lease	-12.1985
compiled	-12.1985
Commit	-12.1985
PM	-12.1987
editable	-12.1993
Created	-12.1993
uck	-12.1996
AG	-12.1997
Router	-12.2
expiry	-12.2005
Conflict	-12.2005
AUTO	-12.2005
Push	-12.2005
timed	-12.2005
directive	-12.2005
Mouse	-12.2006
Iterable	-12.2006
ger	-12.2008
ave	-12.2016
Watch	-12.2025
proxies	-12.2025
coefficient	-12.2025
shortcut	-12.2026
=10)	-12.2031
cron	-12.204
81	-12.2042
255,	-12.2042
wl	-12.2043
snapshots	-12.2046
works	-12.2046
Reply	-12.2046
paint	-12.205
facet	-12.2051
skill	-12.2053
}]	-12.2054
keyboard	-12.2054
Functions	-12.2056
usb	-12.2058
Score	-12.206
perf	-12.2063
CHAR	-12.2067
datum	-12.2067
erase	-12.2069
frac	-12.2069
never	-12.2074
oe	-12.2081
Extra	-12.2088
('.',	-12.2091
brain	-12.2094
umb	-12.2102
Payload	-12.2107
DOWN	-12.2108
EMAIL	-12.2108
worktree	-12.2115
VALUES	-12.2116
fdd	-12.213
Asset	-12.2131
parsing	-12.2132
Alt	-12.2135
intercept	-12.2137
Band	-12.2142
ARM	-12.2146
Algorithm	-12.215
routing	-12.215
dependent	-12.215
thumb	-12.2151
(5,	-12.2153
binascii	-12.2153
111	-12.2154
ime	-12.216
tle	-12.2162
RH	-12.2168
SESSION	-12.2171
writable	-12.2171
Replica	-12.2171
ura	-12.2174
flakes	-12.2188
android	-12.2192
membership	-12.2193
Matches	-12.2195
Desc	-12.2196
documentation	-12.2198
VG	-12.2205
genes	-12.2208
hole	-12.2212
HI	-12.2212
subplot	-12.2212
multiplier	-12.2213
association	-12.2213
mkdtemp	-12.2213
['--	-12.2216
▁SPACEdid	-12.2216
lan	-12.2217
0")	-12.2218
FormatError	-12.2218
revert	-12.2222
ifier	-12.2223
ij	-12.2233
proba	-12.2235
quotes	-12.2239
600	-12.2241
mpi	-12.2245
design	-12.2246
']}	-12.225
Hint	-12.2251
mgmt	-12.2255
EXT	-12.2256
TRANS	-12.2256
mixin	-12.2257
('{}={}	-12.2262
filt	-12.2264
abstractmethod	-12.2266
aw	-12.2272
NAMES	-12.2272
PH	-12.2273
anim	-12.2276
conflict	-12.2277
Classifier	-12.2277
Dist	-12.2278
hg	-12.228
validated	-12.2281
Err	-12.2286
Review	-12.2291
peers	-12.2295
CK	-12.2295
secondary	-12.2299
qubits	-12.2302
302	-12.2302
another	-12.2303
HAS	-12.2304
'][0]	-12.2305
breakpoint	-12.2306
([[	-12.2307
['-	-12.2309
teams	-12.231
coef	-12.2312
unquote	-12.2315
signum	-12.2319
POP	-12.2321
notice	-12.2322
GLRender	-12.2328
ather	-12.2328
lun	-12.2331
unsupported	-12.2332
▁SPACEavoid	-12.2332
))[0]	-12.2332
UB	-12.2335
▁TABresult	-12.2336
sentinel	-12.234
Poll	-12.2341
STOP	-12.2341
Returns	-12.2347
branches	-12.2347
Dec	-12.2348
Callable	-12.2349
wall	-12.2355
}\	-12.2358
music	-12.2362
360	-12.2363
''))	-12.2366
APIError	-12.2369
Crypto	-12.237
but	-12.2375
fut	-12.238
sibling	-12.2383
DICT	-12.2384
prefs	-12.2385
upstream	-12.2387
fork	-12.2394
BN	-12.2397
Big	-12.2402
fetcher	-12.2404
STREAM	-12.2405
OUTPUT	-12.2405
capitalize	-12.2409
Center	-12.2409
ground	-12.2419
fib	-12.242
ANT	-12.2421
DataType	-12.2424
preserve	-12.2429
FT	-12.2433
stand	-12.2433
vecs	-12.2439
ran	-12.2442
Forbidden	-12.2448
Scheme	-12.2448
stellar	-12.2448
Mongo	-12.2448
Username	-12.2449
jwt	-12.245
eig	-12.2458
rss	-12.246
FileSystem	-12.2461
Modifier	-12.2469
Hidden	-12.2469
CommandError	-12.2471
Collector	-12.2471
NT	-12.2473
leader	-12.2475
omega	-12.2478
clf	-12.248
moves	-12.2482
wheel	-12.2491
Under	-12.2492
'/')	-12.2493
1)[0]	-12.2496
roc	-12.2496
PEM	-12.2498
Contents	-12.2499
includes	-12.2504
bv	-12.2506
courses	-12.2507
eof	-12.2511
CIM	-12.2513
Exec	-12.2513
Phase	-12.2515
Processing	-12.2515
Elastic	-12.2524
lint	-12.2529
..."	-12.2531
wind	-12.2533
UM	-12.2533
Conversion	-12.2533
CDL	-12.2534
Bundle	-12.2534
Variant	-12.2534
Place	-12.2535
ackIndex	-12.2535
stale	-12.2536
specification	-12.2537
oz	-12.2541
ddt	-12.2541
ClassSt	-12.2542
libs	-12.2543
*\	-12.2546
Attachment	-12.2556
sell	-12.2571
tim	-12.2573
Bi	-12.2573
patches	-12.2574
AGE	-12.2575
00'	-12.2577
diagnostics	-12.2578
ComponentItem	-12.2581
"'"	-12.2589
below	-12.2589
NN	-12.2591
bz	-12.2591
memoize	-12.2592
BIT	-12.2594
online	-12.2596
Rest	-12.2598
nfvi	-12.26
SETTINGS	-12.2601
fee	-12.2605
also	-12.2606
Hit	-12.2607
here	-12.2611
FIELD	-12.2611
analyzer	-12.2614
10.0	-12.2616
scal	-12.262
modname	-12.2625
62	-12.2626
rendered	-12.2631
transactions	-12.2632
scheduled	-12.2639
setLevel	-12.2643
comparison	-12.2644
CLOSE	-12.2644
trailing	-12.2646
Slice	-12.2646
COL	-12.2647
elm	-12.265
izing	-12.2654
Im	-12.2657
dbapi	-12.2661
urljoin	-12.2663
PmmlBinding	-12.2666
away	-12.2673
mot	-12.2675
0.00	-12.268
spot	-12.2684
PK	-12.2684
objective	-12.2688
Speed	-12.2688
bgp	-12.2696
lfn	-12.2698
subscriber	-12.2701
fnmatch	-12.2701
maker	-12.2702
Implementation	-12.2711
Go	-12.2712
ADDR	-12.2716
currently	-12.2717
')))	-12.2719
via	-12.2722
Family	-12.2732
while	-12.2737
enqueue	-12.2753
HANDLE	-12.2754
spatial	-12.2754
[{'	-12.2757
sfr	-12.2759
'.'.	-12.276
counters	-12.2764
LU	-12.2765
'{}'"	-12.2765
profiler	-12.2768
GUI	-12.2768
"":	-12.2773
>",	-12.2776
analyse	-12.2777
friendly	-12.2778
5.0	-12.278
species	-12.278
FromString	-12.2786
replica	-12.2792
Pe	-12.2794
RESPONSE	-12.2799
separate	-12.2799
ended	-12.2801
offer	-12.2801
radio	-12.2802
conj	-12.2804
getDefault	-12.2805
Cli	-12.2809
failures	-12.281
ert	-12.2815
well	-12.2817
checkout	-12.2817
GAS	-12.2817
water	-12.2822
crypt	-12.2822
trunk	-12.2822
[:-1])	-12.2826
Cert	-12.2826
notifier	-12.2831
ITY	-12.2837
allocation	-12.2839
SOURCE	-12.2843
PASS	-12.2845
dia	-12.2846
weighted	-12.2851
iterkeys	-12.2855
Syntax	-12.2859
dam	-12.286
alter	-12.2861
goto	-12.2861
Addr	-12.2862
cnf	-12.2865
Rel	-12.2866
translations	-12.2866
playing	-12.2871
51	-12.2874
8]	-12.2874
Allow	-12.2875
scaled	-12.2877
rebuild	-12.2877
symlink	-12.288
See	-12.288
osp	-12.288
Plugins	-12.2885
FROM	-12.2888
exponent	-12.2889
Future	-12.2889
Middleware	-12.2889
DATABASE	-12.289
66	-12.2894
samp	-12.2896
sms	-12.2898
weekday	-12.2899
produce	-12.29
elec	-12.2902
There	-12.2904
Launch	-12.2911
Experiment	-12.2911
production	-12.2915
mit	-12.2916
vpn	-12.2918
caps	-12.2923
EXP	-12.293
conversation	-12.2934
VIEW	-12.2934
jump	-12.2936
anything	-12.2938
Fix	-12.294
Pin	-12.2945
Share	-12.2945
tWidgets	-12.2947
jlink	-12.295
OVER	-12.2954
inspection	-12.2959
gas	-12.2959
hmac	-12.2959
ROLE	-12.2962
grep	-12.2967
Used	-12.2972
lengths	-12.2974
cas	-12.2976
dhcp	-12.2979
Unauthorized	-12.298
Don	-12.2981
extractor	-12.2982
TestSuite	-12.2985
replay	-12.2991
packed	-12.2999
tournament	-12.3002
sector	-12.3005
systems	-12.3006
ACL	-12.3014
succeed	-12.3021
rup	-12.3024
synchronous	-12.3025
severity	-12.3025
2010	-12.3042
Sys	-12.3045
Break	-12.3045
CHANGE	-12.3048
('{}	-12.3052
tries	-12.3053
Fit	-12.3056
ure	-12.3059
'{}'	-12.3061
fasta	-12.3062
delim	-12.3064
imap	-12.3071
slope	-12.3071
compatibility	-12.3071
depends	-12.3071
Strip	-12.3071
paragraph	-12.3072
tron	-12.3073
fsm	-12.3089
Preview	-12.3093
reflect	-12.3094
traverse	-12.3094
wav	-12.3094
subreddit	-12.3096
stubs	-12.3098
fac	-12.3108
OG	-12.3108
CSS	-12.3109
NC	-12.3114
adb	-12.3116
Character	-12.3117
PASSWORD	-12.3117
ResNet	-12.3117
stash	-12.3118
authorize	-12.312
Deco	-12.3135
UE	-12.3139
people	-12.314
pars	-12.3147
OU	-12.315
rsplit	-12.3153
NL	-12.3156
Google	-12.3163
skipped	-12.3164
1.2	-12.3164
subparser	-12.3164
fluxes	-12.3165
3',	-12.3166
Assign	-12.3167
Paths	-12.3168
Compiler	-12.317
UserFactory	-12.3176
built	-12.3182
repositories	-12.3186
sublime	-12.3186
swagger	-12.3186
enforce	-12.3195
----------	-12.32
IDs	-12.3203
csr	-12.3204
ENTITY	-12.321
piece	-12.3214
sso	-12.322
clientID	-12.3223
ctr	-12.3225
unescape	-12.3227
vg	-12.323
community	-12.3233
quad	-12.3236
verse	-12.3237
dose	-12.3237
Par	-12.3237
deque	-12.3241
permanent	-12.3256
▁TABelif	-12.3256
these	-12.3256
stuff	-12.3257
authors	-12.3258
rom	-12.3262
RSA	-12.3263
blocked	-12.3263
Labels	-12.3267
isValid	-12.3267
ngram	-12.327
----	-12.3271
BO	-12.3273
synth	-12.3278
suspend	-12.328
aaa	-12.3297
Private	-12.3299
broken	-12.3303
importer	-12.3303
contour	-12.3303
Finished	-12.3305
REC	-12.3306
Testing	-12.3307
fixtures	-12.3315
enumerate	-12.3319
("{}	-12.3326
behavior	-12.3327
ssertAlmostEqual	-12.3327
▁TABwhile	-12.3328
blobs	-12.3329
Req	-12.3344
assigned	-12.3349
twitter	-12.335
Utility	-12.3351
zA	-12.3351
Photo	-12.3351
Docker	-12.3352
Schedule	-12.3355
ek	-12.3362
Side	-12.3362
3')	-12.3362
82	-12.3373
galaxy	-12.3374
foreign	-12.3374
gender	-12.3376
OPTIONS	-12.3376
SCRIPT	-12.3378
uninstall	-12.3378
elems	-12.3379
lap	-12.3382
bounding	-12.3389
Scanner	-12.3398
collapse	-12.3398
sampler	-12.3398
Special	-12.3398
83	-12.3401
implementer	-12.3402
Cr	-12.3405
passes	-12.3409
leg	-12.3419
dropout	-12.342
Organization	-12.3421
-6	-12.3423
migrations	-12.3425
Kit	-12.3426
Lat	-12.3431
inds	-12.3437
vers	-12.3438
tty	-12.3438
0.4	-12.3439
LIMIT	-12.3445
quot	-12.3447
rfc	-12.345
Exporter	-12.3456
ology	-12.3459
1000,	-12.3464
pil	-12.3464
toString	-12.3467
Priority	-12.3469
disc	-12.3472
relu	-12.348
Mac	-12.3482
CG	-12.3484
Salt	-12.3488
SoMFVec	-12.3493
Board	-12.3493
CLIENT	-12.3493
wc	-12.3494
crs	-12.3499
viewsets	-12.35
attached	-12.3503
hints	-12.3507
rnd	-12.3509
follower	-12.3511
FILES	-12.3517
Capture	-12.3517
redraw	-12.3517
statements	-12.3522
assume	-12.3526
DATE	-12.3527
effective	-12.3542
vms	-12.3545
proper	-12.3545
Credential	-12.3547
centroid	-12.3565
combined	-12.3566
reuse	-12.357
secrets	-12.3574
passphrase	-12.3574
dbg	-12.3579
localtime	-12.3581
answers	-12.3584
pmf	-12.3587
▁TABret	-12.3587
Direct	-12.3588
Calculation	-12.3589
Na	-12.3591
Constructor	-12.3591
around	-12.3592
requirement	-12.3597
mailbox	-12.3599
rica	-12.36
die	-12.3601
PAR	-12.3602
LookupError	-12.3603
plaintext	-12.3606
PDF	-12.361
rdd	-12.361
throttle	-12.3613
EMPTY	-12.3613
scatter	-12.3613
singular	-12.3614
1_0	-12.362
MARK	-12.3638
releases	-12.3641
ENABLE	-12.3642
Decoder	-12.3645
gif	-12.3646
decompress	-12.3647
relations	-12.3652
LED	-12.3656
Permissions	-12.366
weak	-12.3662
coerce	-12.3662
FOUND	-12.3662
Subject	-12.3662
gdal	-12.3662
RB	-12.3666
incr	-12.3667
bol	-12.3672
leaves	-12.3673
VAL	-12.3675
Origin	-12.3678
'12	-12.3681
=100,	-12.3685
BUILD	-12.3686
dtypes	-12.3686
SMTP	-12.3687
PublicKey	-12.3693
Dot	-12.3696
ORDER	-12.3697
Old	-12.3698
suggest	-12.3704
hasher	-12.3704
160	-12.3706
avail	-12.3711
enterprise	-12.3711
Loss	-12.3714
IAL	-12.3714
parm	-12.3723
localize	-12.3728
Disable	-12.3728
INPUT	-12.3736
GX	-12.3748
▁TABsuper	-12.375
advance	-12.375
Cond	-12.3755
4())	-12.3758
Mc	-12.376
Nested	-12.376
CHOICES	-12.376
Car	-12.376
cgi	-12.3762
expressions	-12.3762
showcase	-12.3775
questions	-12.3776
NER	-12.3777
Expand	-12.3785
[1:-1]	-12.3785
Too	-12.3787
Visible	-12.3789
primitive	-12.3792
=200)	-12.3794
StringType	-12.3798
RESULT	-12.3809
SECRET	-12.3809
Wave	-12.3811
Mismatch	-12.3811
coeffs	-12.3813
CSV	-12.3816
Commands	-12.383
PATTERN	-12.3834
likelihood	-12.3834
Gradient	-12.3834
LDAP	-12.3834
ADMIN	-12.3834
namespaced	-12.3836
identifiers	-12.3836
MAN	-12.3842
far	-12.3848
Transformer	-12.3848
CAP	-12.3849
conditional	-12.3856
Surface	-12.3859
assertNotIn	-12.3859
imm	-12.3859
guard	-12.3859
('_')	-12.3859
linspace	-12.386
knx	-12.3862
zipfile	-12.3862
specify	-12.3866
Reporter	-12.3869
detection	-12.387
graphic	-12.3873
nova	-12.3874
outside	-12.3875
Cleanup	-12.388
Price	-12.3884
SYS	-12.3885
Exchange	-12.3885
pac	-12.3889
REG	-12.389
transforms	-12.389
Elements	-12.3897
ane	-12.3899
Now	-12.3899
lut	-12.3902
Fn	-12.3906
distances	-12.3906
discount	-12.3908
NUMBER	-12.3909
overridden	-12.3909
eager	-12.3909
pkgs	-12.3913
"1"	-12.3918
pieces	-12.3929
placement	-12.3929
disconnected	-12.393
tiles	-12.3934
gramps	-12.3935
Mapper	-12.3939
yy	-12.3941
ssa	-12.3947
Define	-12.3949
aff	-12.3951
}{	-12.3957
BI	-12.396
Scroll	-12.3963
lane	-12.3964
rectangle	-12.3966
Impl	-12.3966
DEF	-12.3973
bib	-12.3978
Normalize	-12.3979
mono	-12.3979
2015	-12.398
saver	-12.398
uestion	-12.3982
minion	-12.3983
ski	-12.3983
Primitive	-12.3983
fqdn	-12.3984
Acc	-12.3984
#@+	-12.3985
fitness	-12.3986
STORE	-12.3988
VS	-12.3996
GIT	-12.3998
ACT	-12.4003
Pipe	-12.4003
CPU	-12.4004
dyn	-12.4004
ISO	-12.4007
sem	-12.4007
Owned	-12.4009
SCHEMA	-12.4009
Delta	-12.4009
hdf	-12.4019
Dragger	-12.4034
apt	-12.4034
picture	-12.4034
BIN	-12.4039
pressed	-12.4042
ancestor	-12.4043
FR	-12.4051
CAL	-12.4055
dists	-12.4055
slices	-12.4057
defines	-12.4058
assemble	-12.4059
WORK	-12.406
three	-12.406
DataTypes	-12.4066
getCurrent	-12.4075
fish	-12.4075
sizeof	-12.4081
voltage	-12.4085
life	-12.4085
Inst	-12.4086
psz	-12.4099
will	-12.4107
proposal	-12.411
Duration	-12.411
Shift	-12.4111
des	-12.4111
More	-12.412
sect	-12.4121
unwrap	-12.4121
imul	-12.4131
OD	-12.4132
ScopedCopyable	-12.4136
above	-12.4136
tunnel	-12.4136
confidence	-12.4136
criteria	-12.4136
Entries	-12.4136
Country	-12.4137
Red	-12.4141
Redis	-12.4145
slide	-12.4151
-1.0	-12.4153
rich	-12.4153
randn	-12.4158
ants	-12.4161
software	-12.4162
Decorator	-12.4162
kube	-12.4162
Lexer	-12.4162
0.05	-12.4177
flex	-12.4186
social	-12.4187
License	-12.4187
RANGE	-12.4187
inference	-12.4187
probability	-12.4187
SONEncoder	-12.4188
Consumer	-12.4191
tracking	-12.4193
comma	-12.4197
pytz	-12.4199
InternalError	-12.4201
jac	-12.4203
cent	-12.4208
ebra	-12.4213
existent	-12.4215
attachments	-12.4219
gu	-12.4224
LY	-12.4226
ned	-12.4226
duplicates	-12.4228
intf	-12.4232
doctype	-12.4235
unexpected	-12.4238
15)	-12.4241
RequestError	-12.4241
UA	-12.4243
SITE	-12.4246
cores	-12.4254
kws	-12.4255
sftp	-12.426
Pod	-12.4262
paste	-12.4263
trust	-12.4263
para	-12.4263
Transition	-12.4264
raster	-12.4265
Submit	-12.4265
camel	-12.4266
Wire	-12.4267
pkl	-12.4272
mocker	-12.4279
...')	-12.428
POS	-12.428
xor	-12.4284
DataParticle	-12.4289
reservation	-12.429
Creation	-12.429
amplitude	-12.429
Gate	-12.4297
deadline	-12.4298
facts	-12.4299
gra	-12.4299
privilege	-12.4301
epochs	-12.4312
Comm	-12.4312
jit	-12.4312
ResponseError	-12.4315
Django	-12.4315
CN	-12.4318
kml	-12.4319
NF	-12.4327
gw	-12.4333
operators	-12.4334
uniq	-12.4334
kwarg	-12.4334
1000000	-12.4334
converted	-12.4336
Gaussian	-12.4342
UERY	-12.4342
myokit	-12.4342
opaque	-12.4342
INSTANCE	-12.4342
SUPPORTED	-12.4343
slugify	-12.4346
PARAMS	-12.4346
consts	-12.4347
10**	-12.4349
escaped	-12.4354
▁SPACEnewnode	-12.4355
sensors	-12.4355
Deleted	-12.4357
lit	-12.4358
FILENAME	-12.4361
Org	-12.4361
Velocity	-12.4369
Singleton	-12.4369
fromtimestamp	-12.4371
Features	-12.4374
rfind	-12.4379
setUpClass	-12.438
+1,	-12.4382
rw	-12.439
recover	-12.4394
ACCESS	-12.4395
Predicate	-12.4395
YAML	-12.4395
Ansible	-12.4395
protein	-12.4395
libvirt	-12.4396
AU	-12.4398
hashed	-12.4399
DEV	-12.4402
{{	-12.4403
quoted	-12.4406
tokenSet	-12.4412
inactive	-12.4415
gpg	-12.4416
contextlib	-12.4416
UV	-12.4416
scp	-12.442
osd	-12.4421
unary	-12.4426
predicted	-12.4427
suggestion	-12.4429
4.0	-12.443
Defined	-12.4431
elf	-12.444
FLAG	-12.4443
takes	-12.4445
thresh	-12.4446
simplify	-12.4447
numerator	-12.4447
lum	-12.4448
operationMode	-12.4451
ENC	-12.4451
400)	-12.4467
256)	-12.4468
2016	-12.4471
moving	-12.4473
Overlay	-12.4474
Finder	-12.4483
ProtocolError	-12.4486
Nav	-12.4487
indexed	-12.4489
FILTER	-12.45
Background	-12.45
azure	-12.45
Radio	-12.4501
cancelled	-12.4501
strides	-12.4506
trainable	-12.4507
classify	-12.4507
utter	-12.4512
coro	-12.4516
SOL	-12.452
personal	-12.4525
ibility	-12.4526
regression	-12.4527
gaussian	-12.4527
Tools	-12.4528
correlation	-12.4529
Macro	-12.453
emb	-12.4532
OPT	-12.4533
mktemp	-12.4539
want	-12.454
FIELDS	-12.454
Links	-12.4542
exploration	-12.4553
CONTEXT	-12.4553
When	-12.4554
weakref	-12.4555
buffers	-12.4561
offline	-12.4564
Cat	-12.4566
Sparse	-12.4575
Ready	-12.4579
sky	-12.4579
hierarchy	-12.458
paginate	-12.458
"0"	-12.4582
LEN	-12.459
-1))	-12.4596
[0][1]	-12.4597
filePath	-12.46
AI	-12.46
CONTROL	-12.4607
CURRENT	-12.4607
Executor	-12.4607
saveto	-12.4607
encryption	-12.4608
Extended	-12.4609
included	-12.4609
Clock	-12.461
eigen	-12.4614
Matcher	-12.4617
joined	-12.4617
emp	-12.4624
groupby	-12.463
THE	-12.4632
prices	-12.4632
bisect	-12.4632
Tick	-12.4633
SAMPLE	-12.4633
AlreadyExists	-12.4634
Solver	-12.4636
chip	-12.4641
())]	-12.4643
RAW	-12.4645
0.8	-12.4646
Producer	-12.4655
balancer	-12.4659
Raster	-12.466
molecule	-12.466
ACTIVE	-12.466
lie	-12.4663
blend	-12.4665
rooms	-12.4685
HTTPException	-12.4686
basedir	-12.4686
Branch	-12.4687
TEMP	-12.4688
Shard	-12.4696
byteorder	-12.47
PG	-12.4708
Begin	-12.4711
ute	-12.4711
celery	-12.4714
combination	-12.4714
denominator	-12.4714
Workspace	-12.4717
10]	-12.4717
Loc	-12.472
Lo	-12.4722
controls	-12.4724
ContentType	-12.4727
declare	-12.4732
decorate	-12.4732
zlib	-12.4737
Resources	-12.4738
potential	-12.4741
Verification	-12.4742
wildcard	-12.4742
ClientException	-12.4743
php	-12.475
pidfile	-12.4752
PF	-12.4754
lowercase	-12.4755
care	-12.4758
fully	-12.4762
matplotlib	-12.4769
timeperiod	-12.4769
Alert	-12.4769
Lower	-12.477
periodic	-12.4772
ssert	-12.4772
Codec	-12.4774
prefetch	-12.4777
wh	-12.4777
Escape	-12.4781
5))	-12.4782
1.0/	-12.4787
prune	-12.4788
bracket	-12.4796
PROTOCOL	-12.4796
recommend	-12.4796
visual	-12.4796
Recover	-12.4799
MessageBox	-12.4802
8")	-12.4806
elbo	-12.4806
BaseModel	-12.4806
xxx	-12.4809
viewport	-12.4811
oArgsA	-12.4812
bw	-12.4816
}/{	-12.4819
marked	-12.4822
ENTRY	-12.4823
Parsing	-12.4823
Management	-12.4823
ads	-12.4827
election	-12.4828
hug	-12.483
DM	-12.4833
Contains	-12.4835
uote	-12.4842
ries	-12.4848
TASK	-12.4851
exclusive	-12.4851
TextField	-12.4858
Connector	-12.4858
detector	-12.4861
Variables	-12.4861
limited	-12.4869
mention	-12.4879
memcache	-12.488
Publisher	-12.488
wee	-12.4884
losses	-12.4886
trunc	-12.4888
RR	-12.4889
mocked	-12.4905
navigate	-12.4906
WINDOW	-12.4906
nans	-12.4906
/{0}/	-12.4909
Period	-12.491
syslog	-12.491
ABLE	-12.4913
cards	-12.4921
mutate	-12.4925
rnn	-12.4926
queued	-12.4927
HTTPServer	-12.4931
transitions	-12.4931
writing	-12.4933
aggregation	-12.4933
tornado	-12.4933
Unavailable	-12.4939
nth	-12.4946
61	-12.4947
-------------	-12.4948
=============	-12.4949
har	-12.4952
Recipe	-12.4961
Before	-12.4961
hwnd	-12.4961
leak	-12.4962
Dispatcher	-12.4963
orb	-12.4976
Leg	-12.4981
▁TABtpl	-12.4983
bare	-12.4985
Compound	-12.4989
Deprecated	-12.4989
discriminator	-12.4989
Gateway	-12.4989
redfish	-12.4989
articles	-12.4989
quant	-12.5
DPT	-12.5001
poke	-12.5002
Ok	-12.5008
architecture	-12.5017
little	-12.5017
preprocessor	-12.5019
trait	-12.5034
preference	-12.504
BA	-12.5043
:-1]	-12.5045
sphere	-12.5046
forever	-12.5049
uptime	-12.5049
ElementTree	-12.5051
'+'	-12.5054
locs	-12.5055
CU	-12.5056
('-',	-12.5056
processors	-12.5069
subtree	-12.5071
nearest	-12.5073
Train	-12.5083
allocate	-12.5084
Loading	-12.5089
Compile	-12.5093
UC	-12.5096
votes	-12.5097
vocabulary	-12.5101
observations	-12.5101
factories	-12.5102
bee	-12.5104
Act	-12.5106
Apply	-12.5107
books	-12.5108
DER	-12.5114
ToString	-12.5121
Started	-12.5128
shadow	-12.5129
similarity	-12.5129
errmsg	-12.5129
TRA	-12.5133
oqt	-12.5134
poller	-12.5136
Locale	-12.5136
"*"	-12.5138
pdu	-12.5138
programs	-12.5138
5000	-12.5138
cod	-12.5143
miss	-12.5149
interpret	-12.5154
subscriptions	-12.5154
incorrect	-12.5156
INSERT	-12.5157
123456	-12.5159
"{}"	-12.5162
markers	-12.5167
lvl	-12.517
DEL	-12.517
ancestors	-12.5175
complement	-12.5185
spectral	-12.5185
presence	-12.5185
LOAD	-12.5186
maxlen	-12.5193
▁SPACEstacklevel	-12.5198
tune	-12.5199
pnt	-12.52
EST	-12.5203
Bounds	-12.5204
Inf	-12.5204
gradients	-12.5208
rms	-12.521
brush	-12.5214
ADDRESS	-12.5214
DAY	-12.5217
translated	-12.5217
bookmarks	-12.5223
quat	-12.5225
isnull	-12.5225
2.0)	-12.5226
pep	-12.5227
pecan	-12.5231
equality	-12.5234
Guid	-12.5235
interaction	-12.5236
SYSTEM	-12.5242
cph	-12.5245
sandbox	-12.5252
Packages	-12.5253
ipython	-12.5254
Decl	-12.5258
[2]]	-12.5259
trail	-12.5261
"_"	-12.5269
assertDictEqual	-12.5271
fatal	-12.5271
assoc	-12.5271
://%	-12.5273
Live	-12.5278
[6]	-12.5283
fld	-12.5292
ntp	-12.5293
setter	-12.5294
lua	-12.5296
eff	-12.5298
Threshold	-12.5299
Reason	-12.5299
sanity	-12.5299
serialization	-12.5301
angles	-12.5308
DataError	-12.531
1000.0	-12.5311
coding	-12.5316
constrain	-12.5322
(.*)	-12.5325
WITH	-12.5328
ordinal	-12.5329
fitting	-12.533
modification	-12.533
minus	-12.533
soap	-12.5331
Configured	-12.5334
ERO	-12.5335
prof	-12.5337
toggled	-12.5341
variants	-12.5348
viz	-12.5349
latin	-12.5349
circ	-12.5351
fileids	-12.5353
absorption	-12.5357
Ctrl	-12.5357
verifier	-12.5357
42)	-12.5362
httplib	-12.5362
trie	-12.5364
websocket	-12.5366
Defaults	-12.5367
0.6	-12.5368
Gui	-12.5373
lost	-12.5374
sense	-12.5375
were	-12.5385
evidence	-12.5386
pagination	-12.5386
Illegal	-12.5386
distribute	-12.5386
.0.0.1'	-12.5386
Soft	-12.5391
prov	-12.5391
four	-12.5395
4')	-12.54
shp	-12.5403
assertion	-12.5412
Primary	-12.5415
battery	-12.5415
necessary	-12.5415
third	-12.5415
keepdims	-12.5416
SPEC	-12.5417
Unused	-12.5419
inherited	-12.5422
'\033[	-12.5423
rgba	-12.5424
centers	-12.5431
ense	-12.5437
origins	-12.5443
DatabaseError	-12.5444
ace	-12.5444
BoundingBox	-12.5444
discussion	-12.5444
BACKEND	-12.5444
multiprocessing	-12.5445
webapp	-12.5445
midi	-12.5454
Ping	-12.5456
Fun	-12.5457
OLD	-12.5458
Buff	-12.5467
compound	-12.5473
LABEL	-12.5473
availability	-12.5473
interest	-12.5474
{1:	-12.5475
PART	-12.5475
still	-12.5479
tir	-12.5485
guide	-12.5502
sphinx	-12.5502
middle	-12.5502
Related	-12.5502
angular	-12.5503
GEO	-12.5505
Blog	-12.5505
MatrixElement	-12.5508
Shader	-12.5509
optim	-12.5515
Exist	-12.5516
lw	-12.5518
urlsafe	-12.5522
'1',	-12.5528
-8',	-12.5529
supplier	-12.5532
PYTHON	-12.5532
Strict	-12.5532
slack	-12.5532
identify	-12.5534
debugger	-12.5534
redo	-12.5534
ENABLED	-12.5534
DateTimeField	-12.5535
rewrite	-12.5537
ANCE	-12.5538
Sym	-12.5548
cum	-12.555
Ordered	-12.5552
XBlock	-12.5559
▁TAByield	-12.556
ASCII	-12.5561
diagonal	-12.5561
imag	-12.5562
BACK	-12.5563
mel	-12.5569
boost	-12.5572
Sender	-12.5573
...'	-12.5575
pins	-12.5576
bands	-12.5577
Provide	-12.5581
sale	-12.5581
screenshot	-12.5592
APIException	-12.56
Disabled	-12.5603
REL	-12.5607
curses	-12.5616
Composite	-12.562
Summon	-12.562
DBus	-12.5629
0001	-12.5631
Runtime	-12.5633
filled	-12.5644
InputError	-12.5646
hexlify	-12.5648
ogr	-12.5648
Figure	-12.565
/>'	-12.565
specifier	-12.5651
Supported	-12.5654
interpreter	-12.5655
polar	-12.5656
grads	-12.5664
0.25	-12.567
Math	-12.5673
Proc	-12.5675
Canvas	-12.568
composite	-12.568
libraries	-12.568
Cross	-12.568
smtp	-12.5683
fade	-12.5684
owned	-12.5691
adm	-12.5701
zsock	-12.5703
substitute	-12.5709
UEUE	-12.571
GMT	-12.572
Pending	-12.5722
ACK	-12.5725
"{0}"	-12.573
Words	-12.5733
Columns	-12.5739
Migration	-12.5739
activities	-12.5739
PLUGIN	-12.5739
RUNNING	-12.5739
FRAME	-12.5739
ENDPOINT	-12.574
outline	-12.5744
reconnect	-12.5746
javascript	-12.5746
mtc	-12.5748
yml	-12.5757
aug	-12.5766
cairo	-12.5769
Assignment	-12.577
quaternion	-12.5771
IsValid	-12.5774
again	-12.5777
urandom	-12.5778
needle	-12.5785
Decode	-12.5787
Ui	-12.5793
hack	-12.5795
Pickle	-12.5797
PB	-12.5798
lig	-12.5798
tanh	-12.5799
portfolio	-12.58
Artifact	-12.58
communication	-12.58
FRIENDLY	-12.58
transmit	-12.58
Without	-12.5801
baseline	-12.5801
Nothing	-12.5804
Extractor	-12.5804
utcoffset	-12.5805
futures	-12.5807
skin	-12.5808
Pen	-12.5809
403)	-12.5817
AA	-12.582
bench	-12.5824
Put	-12.5824
AES	-12.5825
Printer	-12.5829
keras	-12.583
internet	-12.5833
mixed	-12.5836
approved	-12.5838
activated	-12.584
'\\'	-12.5841
Author	-12.5842
keypair	-12.5859
variation	-12.586
octet	-12.586
Rules	-12.5879
Stmt	-12.5879
\00	-12.588
pywikibot	-12.589
tooltip	-12.5891
[4])	-12.5893
restrict	-12.5895
UDP	-12.5895
trap	-12.5898
detected	-12.5905
subsystem	-12.5914
Units	-12.5918
FUNC	-12.5921
capability	-12.5921
...]	-12.5921
IV	-12.5921
Stage	-12.5929
StringProperty	-12.5931
bla	-12.5937
________________	-12.594
modeling	-12.5941
pcap	-12.5942
VR	-12.5945
Leaf	-12.5952
HTTPClientError	-12.5952
coda	-12.5953
Unary	-12.5953
privileges	-12.597
udf	-12.5972
eyboardInterrupt	-12.5979
wk	-12.598
Temporary	-12.5982
ceph	-12.5983
Allowed	-12.5986
microseconds	-12.5994
BaseError	-12.6002
microsecond	-12.6002
decorators	-12.6007
CFG	-12.6009
recursion	-12.6013
grains	-12.6013
Rank	-12.6013
reserve	-12.6023
songs	-12.6024
)**2)	-12.6024
Datetime	-12.6026
2014	-12.6035
generators	-12.6038
SPACE	-12.6041
deal	-12.6043
HIGH	-12.6044
Answer	-12.6044
Effect	-12.6044
BooleanField	-12.6047
visa	-12.6053
accel	-12.6054
excluded	-12.6056
prt	-12.6057
Rep	-12.6058
dark	-12.6059
website	-12.6062
LP	-12.6064
monitoring	-12.6066
subscribers	-12.6072
SELF	-12.6075
occurrence	-12.6075
translator	-12.6075
LONG	-12.6076
clang	-12.6087
ema	-12.6092
Clip	-12.6093
RDF	-12.6095
lac	-12.6102
oper	-12.6105
routine	-12.6105
SIGNAL	-12.6106
trash	-12.6107
loadbalancer	-12.6108
bandwidth	-12.611
cha	-12.6111
GEN	-12.6123
cpus	-12.6124
Restart	-12.613
underscore	-12.6132
CHANNEL	-12.6137
increase	-12.6137
medium	-12.6137
pseudo	-12.6137
caching	-12.6137
spike	-12.6137
About	-12.6137
Locator	-12.6137
chord	-12.6138
UGen	-12.6139
UNIT	-12.6145
Mass	-12.6145
asn	-12.6147
Successful	-12.6152
II	-12.6156
(",")	-12.6159
Pub	-12.6159
ddl	-12.6162
triggers	-12.6166
PATCH	-12.6168
STORAGE	-12.6168
spectrum	-12.6168
Blue	-12.6168
NP	-12.6169
DROP	-12.617
enroll	-12.617
Markup	-12.617
pkcs	-12.6173
"]]	-12.6178
infohash	-12.6181
[:3]	-12.619
bookmark	-12.6199
subcommand	-12.6199
NORMAL	-12.62
Sheet	-12.62
currentIndex	-12.6201
sharing	-12.6202
/2)	-12.6203
TOP	-12.6217
lite	-12.6219
trip	-12.6221
pure	-12.6225
POINT	-12.6231
humidity	-12.6231
derivative	-12.6231
Follow	-12.6232
servo	-12.6232
checking	-12.6237
000000	-12.6237
mos	-12.6241
netmask	-12.6248
Aggregate	-12.6263
EEXIST	-12.6263
Guest	-12.6263
fitted	-12.6264
ium	-12.6269
Sig	-12.6271
nose	-12.6275
ham	-12.6278
eigh	-12.6279
DAV	-12.628
00')	-12.6281
Uni	-12.6289
ARCH	-12.6291
mil	-12.6291
Activate	-12.6294
WSGI	-12.6294
Alpha	-12.6294
Attempt	-12.6294
continuous	-12.6294
rtnl	-12.6296
nice	-12.6296
MetaData	-12.6296
assertContains	-12.6297
leo	-12.6298
pong	-12.6304
odd	-12.6305
deposit	-12.632
maintenance	-12.6326
GLOBAL	-12.6326
Anonymous	-12.6326
speaker	-12.6326
han	-12.6334
moved	-12.6337
verts	-12.6345
tvm	-12.6352
nowait	-12.6353
intrinsic	-12.6358
Destination	-12.6358
Payment	-12.6358
Coverage	-12.6358
qualified	-12.6358
ansible	-12.6358
mavlink	-12.6359
Uniform	-12.6359
pci	-12.636
Same	-12.6375
streaming	-12.6378
dtm	-12.6381
descendants	-12.6382
Inc	-12.6389
Shutdown	-12.639
Voice	-12.639
lattice	-12.639
Hyper	-12.639
LEFT	-12.6393
Extensions	-12.6396
Scheduler	-12.6401
Dispatch	-12.6404
projected	-12.6421
reqSeq	-12.6423
leading	-12.6425
Perm	-12.6429
relay	-12.643
ython	-12.6431
hor	-12.6431
DOC	-12.6433
closest	-12.6437
few	-12.6439
USB	-12.6444
Bind	-12.6446
Indexed	-12.6452
timestep	-12.6453
pixmap	-12.6453
ENCODING	-12.6454
Flush	-12.6454
clazz	-12.6454
Arch	-12.6455
visited	-12.6455
Exc	-12.6458
ious	-12.6459
usable	-12.6466
MyS	-12.6469
ark	-12.6471
_01(	-12.6474
cept	-12.6476
bill	-12.6486
twilio	-12.6486
consistent	-12.6486
Sound	-12.6486
Topology	-12.6486
DetailView	-12.6488
NumberOf	-12.649
linesep	-12.6498
padded	-12.6499
bam	-12.6504
INIT	-12.6512
simulations	-12.6518
contributor	-12.6519
Frequency	-12.6519
WIDTH	-12.6519
Flask	-12.6519
strong	-12.6519
"_")	-12.6519
symmetric	-12.6521
otSet	-12.6523
SCons	-12.6525
functional	-12.6533
Upper	-12.6536
TRI	-12.6541
HT	-12.6541
Requested	-12.6547
fil	-12.655
0.001	-12.655
waiter	-12.6551
CLASSES	-12.6552
solid	-12.6556
implements	-12.6556
frontend	-12.6556
Subclasses	-12.6557
slip	-12.6561
stages	-12.6571
pcm	-12.6579
favorite	-12.6584
SoSFVec	-12.6584
completeIfN	-12.6584
WebSocket	-12.6584
party	-12.6585
Slide	-12.6585
east	-12.6592
newlines	-12.6598
really	-12.6599
dtd	-12.6603
wide	-12.661
Contacts	-12.6617
Pause	-12.6623
Fore	-12.6626
very	-12.6629
dav	-12.663
SEC	-12.6641
Star	-12.6644
FAIL	-12.6649
NON	-12.6649
cherrypy	-12.6649
concrete	-12.6649
Prepare	-12.6649
refund	-12.6649
adjoint	-12.665
Cached	-12.6651
blah	-12.6654
LAST	-12.6655
###############	-12.6672
ipaddr	-12.6678
modal	-12.668
propagate	-12.6682
theano	-12.6682
Markdown	-12.6683
properly	-12.6683
zk	-12.6685
ovs	-12.6687
Working	-12.6692
yum	-12.6705
dock	-12.6712
selenium	-12.6715
Staff	-12.6715
FAILED	-12.6715
UserError	-12.6726
argspec	-12.6736
▁SPACElmax	-12.6738
hess	-12.674
tele	-12.6744
btc	-12.6746
ole	-12.6747
subst	-12.6747
Align	-12.6748
High	-12.6748
Small	-12.6748
Reverse	-12.6749
outgoing	-12.6751
TestLoader	-12.6756
Comments	-12.6757
Cur	-12.6759
Customer	-12.6762
DEP	-12.677
dog	-12.6777
Starting	-12.6778
inbox	-12.6778
FOLDER	-12.6781
Partial	-12.6782
'=',	-12.6783
playback	-12.6784
1_1	-12.6788
randrange	-12.6791
mountpoint	-12.6793
2.5	-12.6806
WD	-12.6809
tsv	-12.6811
0.5*	-12.6814
Radius	-12.6815
Protect	-12.6815
RIGHT	-12.6815
pivot	-12.6815
Month	-12.6815
STATIC	-12.6815
fwhm	-12.6815
Sigma	-12.6815
Roll	-12.6815
successfully	-12.6817
Visitor	-12.6817
405	-12.6819
Amount	-12.6835
installer	-12.6836
similar	-12.6848
Desktop	-12.6848
///////////////	-12.6848
criterion	-12.6848
spider	-12.6849
nonexistent	-12.6849
Abs	-12.686
DEC	-12.6862
exporter	-12.6864
RESET	-12.6864
addons	-12.6865
atol	-12.6869
Disconnect	-12.6872
Cycle	-12.6882
DETAIL	-12.6882
DIRECTORY	-12.6882
Highlight	-12.6882
clamp	-12.6885
utility	-12.6886
newaxis	-12.6889
bounded	-12.6892
Echo	-12.6892
UserWarning	-12.6893
shards	-12.6894
Ident	-12.6894
timetuple	-12.6896
atan	-12.69
stripped	-12.6903
WIN	-12.6907
Locked	-12.6907
outdir	-12.691
)+'	-12.6915
traffic	-12.6915
inclusion	-12.6915
synchronize	-12.6915
replication	-12.6916
central	-12.6917
longest	-12.6919
Serialize	-12.6921
Shot	-12.6931
rus	-12.6935
separators	-12.6937
ani	-12.694
residual	-12.6941
GPU	-12.6942
NB	-12.6947
uantity	-12.6947
PROCESS	-12.6949
altitude	-12.6949
Comparison	-12.6949
SaltCloud	-12.6949
pixbuf	-12.6951
SEARCH	-12.6953
myObj	-12.6954
uppercase	-12.6956
symbolic	-12.6957
talib	-12.6958
Freq	-12.6959
certificates	-12.6963
aligned	-12.6965
FRE	-12.6966
deletion	-12.6983
CTRL	-12.6983
remainder	-12.6983
Reduce	-12.6983
sqlalchemy	-12.6983
subnets	-12.6989
toplevel	-12.6993
Registered	-12.7005
Vm	-12.7006
receipt	-12.7017
MATCH	-12.7017
gxapi	-12.7017
SDK	-12.7019
busy	-12.702
during	-12.702
recurse	-12.7022
Cron	-12.7023
observers	-12.7026
MenuItem	-12.703
dataReceived	-12.7032
zoo	-12.7034
Flat	-12.7035
sertRaisesRegexp	-12.7038
Cal	-12.7042
transformed	-12.7044
tmpfile	-12.7049
ACCEPT	-12.7051
Manifest	-12.7051
Distutils	-12.7053
chrome	-12.7056
lead	-12.7062
negate	-12.7065
night	-12.707
primitives	-12.7075
FTP	-12.7085
mechanism	-12.7085
MCVirtException	-12.7085
Fixture	-12.7086
-3.0.	-12.7086
2)]	-12.709
past	-12.7091
lineEdit	-12.7092
embeddings	-12.7092
Projection	-12.7093
residuals	-12.7094
\\\\	-12.7112
lms	-12.7112
('"',	-12.7116
birth	-12.712
MASK	-12.712
Regression	-12.712
Like	-12.712
SbVec	-12.712
Boundary	-12.712
permutation	-12.7121
▁SPACEcalend	-12.7122
confirmation	-12.7122
VARIABLES	-12.7123
colorize	-12.7132
setParams	-12.7135
pole	-12.7142
'1')	-12.7148
Removed	-12.715
episodes	-12.7151
colon	-12.7151
alerts	-12.7152
wizard	-12.7154
Terminal	-12.7154
Combo	-12.7154
Deployment	-12.7154
utilities	-12.7156
ingest	-12.716
painter	-12.716
oct	-12.7161
containing	-12.7161
eve	-12.7164
accessor	-12.7166
modulestore	-12.7176
Replay	-12.7176
deco	-12.718
'#'	-12.718
simu	-12.7181
PARAM	-12.7184
Div	-12.7188
800	-12.7188
swigibpy	-12.7189
WAIT	-12.7189
Preferences	-12.7194
whole	-12.7195
frag	-12.7196
ago	-12.7202
Rpc	-12.7202
[-1,	-12.7203
deref	-12.7212
gcd	-12.7212
prepared	-12.7216
Publish	-12.7217
KEYS	-12.7218
gauge	-12.7224
UserProfile	-12.7233
HH	-12.7238
violations	-12.7239
MessageType	-12.7239
Loaded	-12.7246
approve	-12.7251
deliver	-12.7253
Universal	-12.7258
Balance	-12.7258
Contract	-12.7258
Market	-12.7259
Acceptable	-12.726
RATE	-12.7269
bob	-12.7283
Toggle	-12.7293
residue	-12.7293
Margin	-12.7293
Initialization	-12.7294
TOOL	-12.7298
Checksum	-12.7311
computed	-12.7313
directed	-12.7313
ApiError	-12.7318
Cpp	-12.7319
selectable	-12.7322
{{{	-12.7327
envelope	-12.7328
Lambda	-12.7328
ensemble	-12.7328
gsToList	-12.7328
reachable	-12.7328
either	-12.7329
xbmc	-12.7329
Using	-12.7329
ONLY	-12.7329
easy	-12.733
1:]	-12.7332
ansi	-12.7341
recall	-12.7346
PFA	-12.7347
unbind	-12.7352
milli	-12.7356
PDU	-12.7357
Span	-12.7358
PACK	-12.7362
▁SPACEconvertAr	-12.7362
consistency	-12.7364
exclusion	-12.7364
embedded	-12.7364
thickness	-12.7364
emission	-12.7366
Iso	-12.7371
iot	-12.7372
110	-12.7377
ket	-12.7379
Conn	-12.7384
sendMessage	-12.7388
##############	-12.739
GB	-12.7391
delattr	-12.7394
dingtalk	-12.7399
applied	-12.7399
evaluator	-12.7399
interpolation	-12.7399
Micro	-12.7399
Percent	-12.7399
dig	-12.7402
ipFile	-12.7402
trusted	-12.7404
breaks	-12.7416
figsize	-12.742
STAT	-12.7425
annot	-12.7429
astroid	-12.7435
affect	-12.7435
Repeat	-12.7435
Spell	-12.7435
subdomain	-12.7435
talk	-12.7436
fuzzer	-12.7443
paren	-12.7445
cash	-12.7447
AppConfig	-12.7449
gmtime	-12.7455
Gene	-12.7455
ARGS	-12.7456
REST	-12.7456
mktime	-12.7458
Rad	-12.7468
registerElement	-12.747
attenuation	-12.747
denied	-12.747
uota	-12.7471
llvm	-12.7481
clr	-12.7489
qubit	-12.7501
SHORT	-12.7506
VegaLite	-12.7506
WebDriver	-12.7507
automat	-12.7508
/1/	-12.7509
trainer	-12.7514
Theme	-12.7517
going	-12.752
phy	-12.7524
imported	-12.7531
hue	-12.7535
rmdir	-12.7537
trajectory	-12.7542
privacy	-12.7542
mangle	-12.7542
Compare	-12.7542
8601	-12.7543
PARSE	-12.7544
exitcode	-12.7546
restriction	-12.755
Low	-12.7553
scf	-12.756
COOKIE	-12.7569
mav	-12.7572
hsv	-12.7577
loadTestsFrom	-12.7578
BUFFER	-12.7578
aptly	-12.7579
kickstart	-12.759
ioloop	-12.7594
Does	-12.7597
ada	-12.7599
dont	-12.7601
triggered	-12.7606
Resolve	-12.7607
redefined	-12.761
dar	-12.7612
ALLOWED	-12.7614
Prompt	-12.7614
handling	-12.7614
Specification	-12.7615
differences	-12.7616
noun	-12.7618
edProcessError	-12.762
fulfill	-12.7643
grading	-12.7645
signing	-12.7647
elb	-12.7647
ueries	-12.7648
BaseHandler	-12.7649
basket	-12.765
MixIn	-12.765
jelly	-12.765
navigation	-12.765
relevant	-12.765
REMOTE	-12.765
xmlGetNode	-12.765
assertIdentical	-12.765
cog	-12.7651
ivity	-12.7651
EXEC	-12.7652
give	-12.7653
Receiver	-12.7658
threaded	-12.7672
CV	-12.7674
walker	-12.7674
please	-12.7676
-0.5	-12.7677
FLOAT	-12.7686
connectionLost	-12.7686
jpeg	-12.7686
youtube	-12.7686
BRMA	-12.7687
tst	-12.7687
initialization	-12.7688
Expired	-12.769
lvm	-12.7692
//2	-12.7698
lru	-12.7699
dico	-12.7702
hdfs	-12.7713
rsp	-12.772
assembly	-12.7723
approval	-12.7723
Boot	-12.7725
surf	-12.7732
USERNAME	-12.7732
bld	-12.7739
overview	-12.7744
Mol	-12.7745
autoscale	-12.7751
foreground	-12.7759
handshake	-12.7759
ATOR	-12.776
[...,	-12.7762
Final	-12.777
250	-12.7773
TRAIN	-12.7779
Pretty	-12.7779
wavelengths	-12.7779
LANGUAGE	-12.7791
255.0	-12.7794
Specific	-12.7796
firmware	-12.7796
Transformation	-12.7799
bufsize	-12.7802
associated	-12.7805
otp	-12.7809
deb	-12.7809
Ratio	-12.781
CAT	-12.7814
gam	-12.7817
multipart	-12.782
hover	-12.7829
0123456	-12.7832
Glyph	-12.7833
Indices	-12.7833
Listening	-12.7833
Enumeration	-12.7833
IOC	-12.7836
Dumper	-12.7839
HASH	-12.7839
devnull	-12.784
extracted	-12.7848
signer	-12.7859
hive	-12.786
Different	-12.787
dynamo	-12.787
sketch	-12.787
Broadcast	-12.787
Entities	-12.787
Separator	-12.787
decision	-12.787
institution	-12.787
METADATA	-12.7871
performance	-12.7871
LOGIN	-12.7875
Called	-12.7878
openstack	-12.7879
checkbox	-12.7882
Installed	-12.7885
CALL	-12.7897
Todo	-12.7903
failUnless	-12.7907
Inherit	-12.7907
discrete	-12.7907
Sequential	-12.7907
Visual	-12.7907
Alarm	-12.7908
risk	-12.7912
Sha	-12.7915
ekr	-12.7918
getting	-12.7923
ecc	-12.7924
correction	-12.7924
(':',	-12.7928
avi	-12.7936
inja	-12.7942
firefox	-12.7945
Sentence	-12.7945
initiator	-12.7945
Mount	-12.7945
glfw	-12.7946
ResponseBody	-12.7947
-8"	-12.7949
attempts	-12.7954
00"	-12.7958
Manage	-12.7964
Drive	-12.7973
workdir	-12.7975
'</	-12.7979
Health	-12.7982
attention	-12.7982
Activation	-12.7982
Bulk	-12.7982
SECOND	-12.7982
Relationship	-12.7982
sched	-12.7983
ITEM	-12.7983
Phone	-12.7985
plate	-12.7986
SYNC	-12.7991
tagName	-12.8004
pct	-12.8005
FMT	-12.8006
100000	-12.8019
immediate	-12.802
Declaration	-12.802
Temperature	-12.802
Physical	-12.802
Iteration	-12.8021
Feedback	-12.8021
emitter	-12.8023
ArgumentError	-12.8023
allele	-12.803
lev	-12.8031
'{0}'	-12.8033
lla	-12.8045
Require	-12.8047
unavailable	-12.805
waveform	-12.8053
FUNCTION	-12.8057
Operand	-12.8057
perspective	-12.8057
inheritance	-12.8058
qemu	-12.8059
delayed	-12.8062
signup	-12.8067
'@'	-12.8085
2012	-12.809
005	-12.8092
interact	-12.8094
virsh	-12.8095
alternate	-12.8095
minimize	-12.8095
downgrade	-12.8096
crl	-12.8098
edited	-12.811
vect	-12.8117
apache	-12.8133
energies	-12.8133
captcha	-12.8133
Choose	-12.8133
DHCP	-12.8133
augment	-12.8134
drawing	-12.8136
setCurrent	-12.8136
Present	-12.8139
protobuf	-12.8139
Actor	-12.814
INTER	-12.8147
gan	-12.8147
AMP	-12.8161
mutable	-12.8165
Got	-12.8168
lng	-12.8171
TITLE	-12.8175
pragma	-12.8175
uploaded	-12.8175
Authenticated	-12.8176
digital	-12.8177
genre	-12.8178
covar	-12.818
backlog	-12.8183
Keyboard	-12.8184
Turn	-12.8185
autocommit	-12.8186
tarfile	-12.819
gem	-12.8195
BAR	-12.8204
ScopedCloneable	-12.821
department	-12.821
Capabilities	-12.821
EXTENSION	-12.821
RANDOM	-12.821
Simulation	-12.821
FAKE	-12.821
Sphinx	-12.821
scrub	-12.821
Requirement	-12.821
mamm	-12.8212
computer	-12.8213
PLAY	-12.8216
Dom	-12.8223
holder	-12.8228
searcher	-12.8229
Checking	-12.823
xknx	-12.8232
halt	-12.8237
KW	-12.8245
atlas	-12.8246
ANY	-12.8247
sniff	-12.8248
Round	-12.8248
collision	-12.8248
Front	-12.8248
UNIX	-12.825
Analyzer	-12.8251
pri	-12.8253
IPAddress	-12.8254
fontsize	-12.8264
150	-12.8264
stopping	-12.8264
patched	-12.8265
BaseEnum	-12.8268
school	-12.8273
truncated	-12.8275
Expect	-12.8283
coefs	-12.8285
procedure	-12.8287
purpose	-12.8287
better	-12.8287
Story	-12.8287
succ	-12.8288
grok	-12.829
qibuild	-12.8291
retire	-12.8295
Syn	-12.8301
4().	-12.8301
Demo	-12.8302
setVisible	-12.8303
TOR	-12.831
Smart	-12.8326
DISPLAY	-12.8326
Terminate	-12.8326
0613	-12.8327
NotAllowed	-12.8327
Dirty	-12.8328
accessible	-12.8328
tvdb	-12.8333
isabs	-12.8334
UIT	-12.8338
recorder	-12.8338
differ	-12.8341
sku	-12.8355
Estimator	-12.8365
Pixmap	-12.8365
TestDiveAir	-12.8365
▁SPACENDIM	-12.8365
Relative	-12.8365
pilot	-12.8365
appear	-12.8365
disco	-12.8375
########	-12.8375
MEM	-12.8385
Added	-12.8386
patcher	-12.8398
symlinks	-12.84
fresh	-12.84
Determin	-12.8401
SIGN	-12.8403
lti	-12.8403
Measure	-12.8403
natural	-12.8404
Creating	-12.8404
strength	-12.8404
highest	-12.8406
Reading	-12.8408
serving	-12.8412
RU	-12.8414
'../	-12.8414
ucr	-12.8423
Obs	-12.8433
studio	-12.8443
neighbour	-12.8443
Bottleneck	-12.8443
POSITION	-12.8443
dedent	-12.8443
Combine	-12.8443
weather	-12.8443
IOLoop	-12.8444
normalization	-12.8444
CHARS	-12.8449
tearDownClass	-12.845
Station	-12.8452
8000	-12.8454
allocated	-12.8457
Pad	-12.8457
minimal	-12.8468
Construct	-12.8482
BeautifulSoup	-12.8482
intermediate	-12.8482
NUMERIC	-12.8482
Malformed	-12.8482
[{}]	-12.849
PrivateKey	-12.849
vectorize	-12.8494
tech	-12.8501
keyring	-12.8506
Src	-12.8518
2013	-12.8518
reporting	-12.852
accumulate	-12.8522
telnet	-12.8522
abbrev	-12.8522
operate	-12.8522
worksheet	-12.8523
Indent	-12.8523
nuc	-12.8527
menuw	-12.8527
rejected	-12.853
addCleanup	-12.853
chroot	-12.8532
fuzzy	-12.8535
Mini	-12.8537
graphics	-12.8551
Particle	-12.8557
Mirror	-12.8561
Completion	-12.8561
Translate	-12.8563
KeyModifier	-12.8563
▁SPACEINTO	-12.8564
bird	-12.8564
Cut	-12.8566
2018	-12.8566
bom	-12.8566
tensorflow	-12.8568
OSC	-12.8573
prj	-12.8575
launcher	-12.8577
FromFile	-12.8587
Benchmark	-12.8601
fabric	-12.8601
BUTTON	-12.8601
Digest	-12.8601
clipped	-12.8602
AGENT	-12.8603
STD	-12.8608
grib	-12.8609
islice	-12.861
Vol	-12.8617
slider	-12.8619
repeated	-12.8621
SerializerV	-12.8624
Parsed	-12.8636
bulge	-12.8641
Fragment	-12.8641
Audit	-12.8641
Horizontal	-12.8641
Persistent	-12.8641
Alignment	-12.8642
Mime	-12.8646
ico	-12.8649
Tracker	-12.8652
'{}/	-12.8662
(":")	-12.8666
resample	-12.8666
'][0]['	-12.8666
FileEntry	-12.8666
chunksize	-12.8667
geojson	-12.8673
MPI	-12.8675
equivalent	-12.8681
PhoneNumber	-12.8682
postfix	-12.8696
/{}'	-12.8704
Tar	-12.8706
ever	-12.8709
chooser	-12.8709
SRC	-12.8713
near	-12.872
Anchor	-12.8722
Calculate	-12.8722
summaries	-12.8722
▁SPACEwould	-12.8722
Graphics	-12.8722
sonResponse	-12.8723
commission	-12.8723
▁SPACEReportItem	-12.8724
nbr	-12.8725
jail	-12.8727
cPickle	-12.8731
elastic	-12.8734
confirmed	-12.8738
[:1]	-12.8742
---------	-12.8743
aud	-12.8754
multiline	-12.8755
Finish	-12.8759
GPS	-12.8762
REGISTRY	-12.8762
WHITE	-12.8762
ENOENT	-12.8762
SCOPE	-12.8762
failUnlessEqual	-12.8762
Keep	-12.8763
skew	-12.8764
tiff	-12.877
turb	-12.8773
hdu	-12.8773
Chi	-12.8774
wake	-12.8775
orphan	-12.8779
Extend	-12.878
splitter	-12.8781
152	-12.8788
adv	-12.8788
beat	-12.8795
rake	-12.8796
imdb	-12.8797
intensity	-12.8803
division	-12.8803
thermostat	-12.8803
LOCATION	-12.8803
swift	-12.8803
watchdog	-12.8803
everything	-12.8803
aware	-12.8803
dispose	-12.8804
[:4]	-12.8805
Noise	-12.8806
Repr	-12.8807
Seed	-12.8813
door	-12.8814
Original	-12.8817
ReadFile	-12.8819
psutil	-12.8821
MAIN	-12.8825
}:{	-12.8826
Del	-12.8837
ination	-12.8837
cnn	-12.8838
blip	-12.884
ELEMENT	-12.8844
Entropy	-12.8844
Deleting	-12.8844
EXCEPTION	-12.8844
gdk	-12.8844
Authorize	-12.8852
{3}	-12.8863
sendCommand	-12.8867
abbr	-12.8871
/2.0	-12.8873
apple	-12.8873
dur	-12.8874
cpt	-12.8874
detailed	-12.8877
PROFILE	-12.8881
Closing	-12.8885
forecast	-12.8885
Chem	-12.8885
PIL	-12.8885
{})".	-12.8886
Pure	-12.8888
wifi	-12.889
indentation	-12.8894
voc	-12.8898
RequestContext	-12.8901
semi	-12.8911
addition	-12.8921
)+"	-12.8922
stress	-12.8925
Creator	-12.8926
speech	-12.8926
yellow	-12.8926
creating	-12.8926
Inner	-12.8926
isatty	-12.8926
percentile	-12.8926
Builtin	-12.8928
uff	-12.8928
Reject	-12.893
countries	-12.893
PRESS	-12.8932
\""	-12.8933
floatingip	-12.8941
BLE	-12.8949
UsageError	-12.8949
UAL	-12.896
ById	-12.896
}}}	-12.8963
correctly	-12.8964
Parallel	-12.8967
TIMESTAMP	-12.8967
Maximum	-12.8967
callLater	-12.8967
Clipboard	-12.8967
Vote	-12.8968
▁SPACEknow	-12.8969
AccessToken	-12.897
Waiting	-12.8977
submodule	-12.898
virtualenv	-12.8981
Mul	-12.8989
Arm	-12.8989
MY	-12.8991
reviewer	-12.8998
Deriv	-12.9006
reduction	-12.9009
Absolute	-12.9009
BINARY	-12.9009
ellipse	-12.9009
Correct	-12.9009
Dashboard	-12.9009
pairwise	-12.901
OO	-12.901
Compose	-12.9011
Importer	-12.9024
TAB	-12.9027
SPI	-12.9034
ParserError	-12.9045
hdl	-12.9046
uaternion	-12.9048
WebDAVElement	-12.905
Skeleton	-12.905
Invoice	-12.9053
ckpt	-12.9053
FOO	-12.9054
Interrupt	-12.9055
Bug	-12.9056
Kill	-12.9057
[0:2]	-12.9062
fuv	-12.9081
TestResult	-12.9082
rough	-12.9092
gnu	-12.9092
SUFFIX	-12.9092
THREAD	-12.9092
incomplete	-12.9116
raised	-12.912
associate	-12.9124
333	-12.9126
Heat	-12.9127
eec	-12.913
accumulator	-12.9134
Clause	-12.9134
Integration	-12.9134
Inventory	-12.9134
Twitter	-12.9134
chassis	-12.9134
xmpp	-12.9135
CARD	-12.9135
STEP	-12.9136
nltk	-12.9136
pwm	-12.9136
OrDefault	-12.9137
Interactive	-12.9138
Many	-12.9139
('\\',	-12.9142
mtu	-12.9148
Pet	-12.9153
REPO	-12.9153
Unix	-12.9156
GetAll	-12.9168
hypervisor	-12.9176
Observation	-12.9176
enough	-12.9176
Good	-12.9177
Stopped	-12.9177
submitted	-12.9177
COMMENT	-12.9178
sweep	-12.9179
DataParticleType	-12.918
Indexer	-12.918
Your	-12.9181
Existing	-12.9181
tank	-12.92
phys	-12.9208
parseString	-12.9213
Attach	-12.9218
frequencies	-12.9219
Fuzz	-12.9219
Walk	-12.9219
supervisor	-12.9219
INTERVAL	-12.9219
Known	-12.9219
STDOUT	-12.9219
alternative	-12.9219
remember	-12.922
elasticsearch	-12.922
reactions	-12.9221
Optimizer	-12.9221
Stdout	-12.9227
occur	-12.9228
shlex	-12.9231
Man	-12.9237
("'",	-12.924
Year	-12.9241
rolling	-12.9255
Adapt	-12.9258
validity	-12.926
MULTI	-12.9261
Orientation	-12.9262
Concat	-12.9263
surname	-12.9263
restricted	-12.9266
emoji	-12.9281
Editing	-12.9283
Cost	-12.9284
doAction	-12.9291
(0.1)	-12.9293
Subnet	-12.9293
Cast	-12.9299
gauss	-12.9304
instructor	-12.9304
confusion	-12.9304
foia	-12.9305
WEB	-12.9306
stories	-12.9307
toolchain	-12.9309
normalise	-12.9312
emu	-12.9325
tive	-12.9332
Numpy	-12.9332
mnt	-12.9335
InvalidArgument	-12.934
Avatar	-12.9347
Confirmation	-12.9347
darwin	-12.9347
getsockname	-12.9348
naive	-12.935
ChoiceField	-12.935
RFC	-12.935
ioctl	-12.9351
Training	-12.9352
DataSource	-12.9354
depend	-12.9362
ijk	-12.9365
nano	-12.9366
analytics	-12.9369
conda	-12.9369
OID	-12.9388
probabilities	-12.939
divisor	-12.939
SUM	-12.939
utcfromtimestamp	-12.939
▁SPACEARIMA	-12.9391
Pkg	-12.9391
attack	-12.9391
HttpError	-12.9393
--------	-12.9393
Toolbar	-12.9395
▁SPACErobo	-12.94
lte	-12.9401
Addon	-12.9411
RECORD	-12.9415
ROW	-12.9425
Detect	-12.9429
cascade	-12.9433
punctuation	-12.9433
exempt	-12.9433
retain	-12.9434
Compress	-12.9434
against	-12.9434
▁SPACEmight	-12.9438
[:-2]	-12.9438
prove	-12.9442
2008	-12.9444
Signed	-12.9446
Neg	-12.9447
declared	-12.9449
224	-12.9456
Sending	-12.9467
Mgr	-12.9471
RequiredMixin	-12.9475
orient	-12.9476
FACTOR	-12.9477
LOEA	-12.9477
Placeholder	-12.9477
LLVM	-12.9477
Upgrade	-12.9477
hood	-12.9477
Magic	-12.9478
listening	-12.9489
Recent	-12.9492
+1:]	-12.9492
Cfg	-12.9496
ABI	-12.9508
copyright	-12.9513
RAD	-12.9516
qty	-12.952
Increment	-12.952
explanation	-12.952
pyramid	-12.952
Flatten	-12.9521
Plus	-12.9521
6.0	-12.953
------	-12.9532
matmul	-12.9535
ICON	-12.9546
made	-12.9546
LCD	-12.9547
hypo	-12.9552
12345	-12.9552
contiguous	-12.9564
caffe	-12.9564
universal	-12.9564
uality	-12.9564
announcement	-12.9565
Black	-12.9565
kappa	-12.9565
fine	-12.9567
fuel	-12.9573
DeleteView	-12.9573
rtol	-12.9574
TMP	-12.958
argsort	-12.9581
Ptr	-12.9586
mainloop	-12.9588
Interaction	-12.9592
Playlist	-12.9598
Fatal	-12.9601
alchemy	-12.9608
CLUSTER	-12.9608
COMPLETE	-12.9608
oracle	-12.9608
covariance	-12.961
Tokenizer	-12.961
Manip	-12.9611
Recording	-12.9611
Dead	-12.9613
456	-12.9618
switches	-12.9623
desk	-12.9625
Hot	-12.9625
deck	-12.9626
advanced	-12.9626
ography	-12.9632
EnvironmentError	-12.9644
[3]]	-12.9651
postgres	-12.9653
integrate	-12.9653
scratch	-12.9653
semantic	-12.9653
FULL	-12.9653
PermissionDenied	-12.9653
PACKAGE	-12.9653
muted	-12.9654
cumsum	-12.9654
stylesheet	-12.9655
0,0,'	-12.9659
taken	-12.9659
terminated	-12.9659
captured	-12.966
'{{	-12.9667
pump	-12.9678
mro	-12.9686
Collect	-12.9693
Software	-12.9697
Delegate	-12.9697
obsolete	-12.9697
Modification	-12.9697
Prediction	-12.9702
BOX	-12.9703
Framework	-12.971
initialise	-12.9716
1_2	-12.9721
202	-12.9725
bdd	-12.9733
Predict	-12.9735
mess	-12.9736
loseConnection	-12.9736
Visit	-12.9739
NodekitCatalog	-12.9742
REGISTER	-12.9742
welcome	-12.9742
Broken	-12.9742
Density	-12.9742
Episode	-12.9742
Immutable	-12.9742
Diagnostic	-12.9742
isChecked	-12.9742
keystone	-12.9742
REMOVE	-12.9743
legal	-12.9749
basicConfig	-12.975
construction	-12.976
Matching	-12.9763
Linked	-12.9784
▁SPACEKiwi	-12.9786
boundaries	-12.9787
Communication	-12.9787
IGNORECASE	-12.9787
supply	-12.9787
occurred	-12.9787
Unsigned	-12.9789
Mutable	-12.9792
overload	-12.9805
house	-12.9808
BOT	-12.9808
bow	-12.9809
CreateView	-12.9818
expandtab	-12.9819
ctor	-12.9823
DISABLE	-12.9828
atexit	-12.9829
FILETYPE	-12.9831
Candidate	-12.9832
synonym	-12.9832
DIRECT	-12.9833
Mapped	-12.9834
Stopping	-12.9834
Cipher	-12.9836
Sorted	-12.9843
InvalidRequest	-12.9857
%.2	-12.9857
tabstop	-12.9859
Tex	-12.9864
▁SPACEhappen	-12.9875
SENSOR	-12.9877
Average	-12.9877
SPEED	-12.9877
Previous	-12.9877
Slug	-12.9877
CONNECTION	-12.9877
Axes	-12.9877
lemma	-12.9877
toolkit	-12.9878
Trade	-12.9879
billing	-12.9882
plotter	-12.9882
Scheduled	-12.9896
formatting	-12.9899
crap	-12.99
CONNECT	-12.9922
Ensure	-12.9922
Minimum	-12.9922
STYLE	-12.9922
voucher	-12.9922
reached	-12.9922
EDIT	-12.9923
Removing	-12.9924
000000000000	-12.9928
Restore	-12.9938
004	-12.9945
seriesList	-12.9947
Dock	-12.9953
qua	-12.9957
'#/	-12.9965
Always	-12.9968
Alchemy	-12.9968
SKIP	-12.9968
denom	-12.9969
plotting	-12.997
AUTHORI	-12.9973
mixer	-12.9976
BBV	-12.9983
Alive	-12.9986
wanted	-13
downloader	-13.0009
knowledge	-13.0014
kern	-13.0014
gallery	-13.0014
obtain	-13.0014
Cube	-13.0014
Logical	-13.0018
pixelscale	-13.0018
Drag	-13.0019
LANGUAGES	-13.002
[-2]	-13.0023
1.4	-13.0032
isSame	-13.0037
xmlns	-13.0051
invitation	-13.006
Bridge	-13.006
Executable	-13.006
eroDivisionError	-13.006
Clone	-13.0061
IntegrityError	-13.0061
mediator	-13.0064
childNodes	-13.0065
alice	-13.0066
spinner	-13.0066
GLib	-13.0071
LAN	-13.0072
inverted	-13.0075
triangle	-13.0077
▁SPACElonger	-13.0082
ANSI	-13.0102
shrink	-13.0106
65535	-13.0106
Android	-13.0106
quantile	-13.0106
MAPPING	-13.0106
Cancelled	-13.0106
Extent	-13.0108
DjangoModel	-13.0108
flops	-13.0111
BitField	-13.0112
=[_('	-13.0113
Generation	-13.0113
Large	-13.0114
cook	-13.0115
StreamHandler	-13.0115
contained	-13.0116
DOM	-13.0117
why	-13.0117
taxon	-13.0117
distutils	-13.0128
subsection	-13.0133
expose	-13.0146
announce	-13.0152
Legacy	-13.0153
sequential	-13.0153
tutorial	-13.0153
moderator	-13.0153
SIGTERM	-13.0153
demand	-13.0153
Invite	-13.0153
skype	-13.0153
SIGINT	-13.0153
Directive	-13.0153
msec	-13.0154
Hide	-13.016
hyp	-13.0161
playbook	-13.0167
Tracking	-13.0167
north	-13.0169
fastq	-13.0172
inbound	-13.0185
Configure	-13.0192
backoff	-13.0196
Brush	-13.0199
Learning	-13.0199
Letter	-13.0199
forbidden	-13.0199
behaviour	-13.0199
pwndbg	-13.0199
ALIAS	-13.0199
Derived	-13.0204
blur	-13.0204
"#"	-13.0207
PNG	-13.0207
Resolution	-13.0209
autocomplete	-13.0209
ROUTE	-13.021
pillar	-13.0217
FORM	-13.0219
excel	-13.0236
Unlock	-13.0243
Spatial	-13.0246
Association	-13.0246
calculator	-13.0246
garbage	-13.0246
paginator	-13.0246
SHOW	-13.0246
Decrypt	-13.0247
ournal	-13.0248
mpfr	-13.0249
+)\	-13.0251
Credit	-13.0252
Managed	-13.0259
Accessor	-13.0269
underline	-13.0272
treat	-13.0278
wipe	-13.028
street	-13.029
STRUCT	-13.0294
Corpus	-13.0294
ENEMY	-13.0294
TRACK	-13.0294
momentum	-13.0294
assertGreater	-13.0295
Unpack	-13.0295
SkipTest	-13.0299
certain	-13.0302
ACC	-13.0308
('.')[0]	-13.0309
1024.0	-13.0309
diet	-13.0316
emm	-13.0317
tiny	-13.0318
Hour	-13.0318
svd	-13.0327
conjugate	-13.0341
KiwiError	-13.0341
UNICODE	-13.0341
BOOT	-13.0341
acknowledge	-13.0341
NamedTuple	-13.0342
genotype	-13.0342
NaN	-13.0345
accum	-13.0347
ProtocolState	-13.0348
outReal	-13.035
publication	-13.0351
METHODS	-13.0353
mongodb	-13.0354
centre	-13.0355
trac	-13.0359
Img	-13.0361
'\0'	-13.0365
Design	-13.0376
BGR	-13.0379
unsafe	-13.038
exif	-13.038
Mobile	-13.0389
applicable	-13.0389
bullet	-13.0389
carrier	-13.0389
maintain	-13.0389
Friend	-13.0389
IGNORE	-13.0389
POWER	-13.0389
mkstemp	-13.0389
TooMany	-13.0389
SparkContext	-13.0389
affine	-13.0389
jacobian	-13.0389
Detector	-13.0392
Beta	-13.0407
PING	-13.0412
equiv	-13.0419
till	-13.042
RAMSTK	-13.0436
Dependencies	-13.0436
opacity	-13.0436
Navigation	-13.0436
snake	-13.0437
dTemporaryFile	-13.0437
exponential	-13.0437
acute	-13.0437
PlainText	-13.0439
skipIf	-13.044
presentation	-13.0442
FatalError	-13.0444
fullscreen	-13.0446
returnValue	-13.0456
Lang	-13.046
PROP	-13.0462
stdev	-13.0462
EventHandler	-13.0467
netbox	-13.0477
1101	-13.0481
bypass	-13.0483
jenkins	-13.0484
Azure	-13.0484
Shortcut	-13.0485
Gain	-13.0487
uick	-13.0487
FEATURES	-13.0487
explain	-13.0488
Subscriber	-13.0496
RGBA	-13.0497
SubElement	-13.0499
derive	-13.0506
Lite	-13.0508
Indicator	-13.0533
SECTION	-13.0533
Improperly	-13.0533
FAILURE	-13.0533
Embed	-13.0533
MediaPlayer	-13.0533
immutable	-13.0534
Latest	-13.0534
OptionParser	-13.0545
passive	-13.0546
stopwords	-13.0559
waf	-13.056
Receive	-13.056
dismiss	-13.0564
DONE	-13.0576
cartesian	-13.0581
BEGIN	-13.0581
Broker	-13.0581
Challenge	-13.0581
Firewall	-13.0581
TRACE	-13.0582
facebook	-13.0583
analog	-13.0592
Bookmark	-13.0594
incremental	-13.0603
vgg	-13.0613
Badge	-13.0614
MethodsMixinDeco	-13.0616
UNI	-13.0624
PUBLIC	-13.063
LooseVersion	-13.063
HELP	-13.063
rescue	-13.063
removal	-13.063
deviation	-13.063
impact	-13.0631
SVG	-13.0642
printable	-13.0642
Encoded	-13.0656
PIN	-13.0657
assertListEqu	-13.0658
saml	-13.0672
protect	-13.0675
Virt	-13.0679
replicate	-13.0679
euclidean	-13.0679
dikt	-13.0679
nginx	-13.0679
contig	-13.068
Whitespace	-13.0681
couple	-13.0681
segmentation	-13.0685
Incorrect	-13.069
passthrough	-13.0691
Hub	-13.0693
proof	-13.0694
thin	-13.0695
SBType	-13.0697
NTP	-13.0713
omit	-13.0723
pagure	-13.0728
agency	-13.0728
coupon	-13.0728
posterior	-13.0728
terminator	-13.0728
physics	-13.0728
law	-13.0729
REPORT	-13.0731
LoginRequired	-13.0734
Disconnected	-13.0735
eol	-13.0736
ciphertext	-13.075
rowCount	-13.0756
UnicodeDecode	-13.0757
CONST	-13.0759
early	-13.0766
ception	-13.0773
Conditional	-13.0776
AUDIO	-13.0778
SHIFT	-13.0778
Epoch	-13.0778
Pagination	-13.0778
assertRedirects	-13.0778
naming	-13.0778
together	-13.0778
OpenSSL	-13.0779
▁SPACEactually	-13.0784
NAX	-13.079
office	-13.0791
drain	-13.0803
1,2,3	-13.0808
2048	-13.082
categorical	-13.0828
MINIONS	-13.0828
Positive	-13.0828
breadcrumb	-13.0828
AVAILABLE	-13.0828
Notebook	-13.0833
LANG	-13.0836
thru	-13.084
MOVE	-13.0849
deny	-13.085
DecodeError	-13.086
ether	-13.0863
ATED	-13.0872
invocation	-13.0878
prerequisite	-13.0878
PrimitiveCount	-13.0878
duty	-13.0879
SVC	-13.0879
fifo	-13.088
Published	-13.0883
recovery	-13.0889
animate	-13.09
ufl	-13.0902
bitcoin	-13.0904
yaw	-13.0921
Recursive	-13.0928
Week	-13.0928
Green	-13.0928
Modify	-13.0929
Bag	-13.0931
windll	-13.0931
atleast	-13.0932
('/')[-1]	-13.0939
itemgetter	-13.0943
Imm	-13.0945
Calc	-13.095
BYTES	-13.0974
PROVIDER	-13.0978
BUCKET	-13.0978
COLUMN	-13.0978
getElementsByTag	-13.0978
Promise	-13.0978
meetup	-13.0978
Neutron	-13.0978
Fraction	-13.0979
vuln	-13.0979
Sphere	-13.0979
identical	-13.098
crontab	-13.0981
largest	-13.0981
CANCEL	-13.0987
flake	-13.0988
ASN	-13.0989
aborted	-13.1009
hadoop	-13.1029
Sleep	-13.1029
ESCAPE	-13.1029
haystack	-13.1029
Bank	-13.1029
urwid	-13.1029
circular	-13.1029
PWM	-13.1032
lowest	-13.1034
unitary	-13.1035
Breakpoint	-13.1035
OutOf	-13.105
Mag	-13.1053
COMM	-13.1064
PaginatedList	-13.108
Visibility	-13.108
bogus	-13.108
exposure	-13.108
substitution	-13.108
Movie	-13.108
calibration	-13.108
Restriction	-13.108
ubuntu	-13.108
README	-13.1085
MsgHandler	-13.1086
xffffffff	-13.1095
StandardError	-13.11
isVisible	-13.1102
randomize	-13.1128
Enterprise	-13.1131
MISSING	-13.1131
employee	-13.1131
permitted	-13.1131
strike	-13.1132
Life	-13.1132
vistrail	-13.1132
universe	-13.1132
Adjust	-13.1132
RequestPayload	-13.1133
authority	-13.1134
HERO	-13.1135
microsite	-13.1138
{:02	-13.1161
observe	-13.1168
MAT	-13.1175
Categories	-13.1183
Animation	-13.1183
buddy	-13.1183
families	-13.1183
Describe	-13.1183
EXISTS	-13.1183
[-2:]	-13.1183
octave	-13.1183
postgresql	-13.1183
Gdk	-13.1183
ACCOUNT	-13.1183
shelf	-13.1184
factorial	-13.1185
NotAvailable	-13.1187
ATTRIBUTES	-13.1188
explorer	-13.119
awk	-13.1191
FloatField	-13.1192
xmlInit	-13.1193
aria	-13.1205
useful	-13.121
*3*	-13.122
capital	-13.1226
OPTION	-13.123
Behavior	-13.1235
ENGINE	-13.1235
INTERNAL	-13.1235
MANAGER	-13.1235
business	-13.1235
Social	-13.1235
referer	-13.1235
RadiusAttr	-13.1235
Membership	-13.1235
bootloader	-13.1237
EnabledElement	-13.1243
uantum	-13.125
UMP	-13.1271
UpdateView	-13.1272
bula	-13.1277
poisson	-13.1287
affinity	-13.1287
PENDING	-13.1287
PERMISSION	-13.1287
neuron	-13.1287
extraction	-13.1292
tagger	-13.1295
ASH	-13.1307
planet	-13.1308
blockchain	-13.1308
666	-13.1336
LIGHT	-13.1339
recognize	-13.1339
FINISHED	-13.1339
Until	-13.1339
authenticator	-13.1339
matrices	-13.1339
Regular	-13.134
connectivity	-13.134
tarball	-13.1341
Rectangle	-13.1342
READY	-13.1344
LogLevel	-13.1344
hose	-13.1353
superclass	-13.1365
PathSpec	-13.1366
1.0.0	-13.1367
homo	-13.137
Compact	-13.1373
Lab	-13.1385
crawl	-13.139
Confirm	-13.1391
finger	-13.1392
SYMBOL	-13.1392
VOLUME	-13.1392
DEFINE	-13.1392
Serializable	-13.1392
Manual	-13.1392
protection	-13.1393
rorp	-13.1397
truediv	-13.1398
exposed	-13.1403
pubsub	-13.1408
writeln	-13.1409
TTL	-13.1411
Energy	-13.1445
strategies	-13.1445
Rotate	-13.1445
Vertical	-13.1445
beginning	-13.1445
Measurement	-13.1445
SOCKET	-13.1445
MIME	-13.1446
decompose	-13.1448
Deep	-13.145
BasePermission	-13.1456
statistic	-13.1456
director	-13.1465
PTR	-13.1469
cite	-13.147
\033[0	-13.1472
arctan	-13.1484
refine	-13.1487
prio	-13.1496
ohlc	-13.1498
Hardware	-13.1498
gjtk	-13.1498
GREEN	-13.1498
replies	-13.1499
Encrypted	-13.1501
Yum	-13.1508
Installer	-13.1515
Probe	-13.1526
zope	-13.1551
GRAPH	-13.1551
deprecation	-13.1551
malformed	-13.1551
brick	-13.1552
providing	-13.1552
BaseOxmlElement	-13.1552
INITIAL	-13.1552
iscsi	-13.1552
budget	-13.1552
GASLL	-13.1552
REDIS	-13.1554
wkt	-13.1563
hunt	-13.1566
Geom	-13.1588
Finalize	-13.1593
dedup	-13.1602
Interpreter	-13.1605
Survey	-13.1605
alembic	-13.1605
probably	-13.1605
kafka	-13.1605
Secure	-13.1606
UIRED	-13.1606
wavelet	-13.1606
Sink	-13.1607
[3:]	-13.1607
syll	-13.1619
Avg	-13.162
############	-13.1636
FIRST	-13.1659
Frozen	-13.1659
While	-13.1659
Since	-13.1659
equation	-13.1659
LSTM	-13.1659
gym	-13.166
Encryption	-13.166
weka	-13.166
guild	-13.1661
qtbot	-13.1661
isolate	-13.1661
likely	-13.1669
UserRole	-13.1671
COLORS	-13.1674
ckan	-13.1675
INST	-13.1683
OIN	-13.1683
Getter	-13.1688
EXTRA	-13.1698
Modal	-13.1699
alize	-13.1713
inning	-13.1713
Circuit	-13.1714
Evaluation	-13.1714
penalty	-13.1714
CHARACTER	-13.1714
acquisition	-13.1714
english	-13.1714
executing	-13.1714
Padding	-13.1714
POLL	-13.1714
jitter	-13.1714
SELECTOR	-13.1716
HTMLParser	-13.1716
REAL	-13.1718
termination	-13.1718
expandvars	-13.1718
tilt	-13.1719
blit	-13.1722
descendant	-13.1726
seller	-13.1728
365	-13.1733
observable	-13.1768
skeleton	-13.1768
appropriate	-13.1768
SourceNotFound	-13.1769
MainWindow	-13.177
STACK	-13.1772
ThreadPool	-13.1772
crawler	-13.1772
Getting	-13.1781
Webhook	-13.1785
kick	-13.1805
lbl	-13.1818
Tenant	-13.1823
memories	-13.1823
CERT	-13.1824
Logged	-13.1831
erializeToString	-13.1837
sympy	-13.1841
numerical	-13.1843
Pane	-13.1846
Incomplete	-13.1848
Artist	-13.1878
Continue	-13.1878
ingredient	-13.1878
saturation	-13.1878
league	-13.1879
vmware	-13.1879
saving	-13.1879
drbd	-13.1879
optimization	-13.1879
Gauge	-13.1879
OFFSET	-13.1879
bottle	-13.1879
durable	-13.188
workbook	-13.1883
expectation	-13.1886
oleon	-13.1886
TREE	-13.1892
holding	-13.1894
Browse	-13.1925
matter	-13.1929
White	-13.1932
Shadow	-13.1934
Suffix	-13.1934
hypothesis	-13.1934
COURSE	-13.1934
INTEGER	-13.1934
Darwin	-13.1934
NETWORK	-13.1934
milliseconds	-13.1935
Heap	-13.1935
VLAN	-13.1936
unhexlify	-13.1937
lifetime	-13.1946
Fire	-13.1947
Logic	-13.1957
permute	-13.1986
INSTALL	-13.199
Laplace	-13.199
Slave	-13.199
Procedure	-13.199
Negative	-13.199
MULTILINE	-13.199
italic	-13.199
Serialization	-13.199
chronic	-13.199
ROLL	-13.1991
stackoverflow	-13.1991
adjustment	-13.1991
john	-13.1991
Forum	-13.1994
foreach	-13.1997
Have	-13.1999
Seek	-13.2
ATTRIBUTE	-13.2041
CHUNK	-13.2046
Continuous	-13.2046
gaupol	-13.2046
KILL	-13.2046
REGION	-13.2046
INSTALLED	-13.2047
Pull	-13.2047
okay	-13.205
Dense	-13.2052
autoescape	-13.2056
DESC	-13.2093
Exceeded	-13.2102
querier	-13.2103
corresponding	-13.2103
Circle	-13.2103
promote	-13.2103
RDFProtoStruct	-13.2103
Debugger	-13.2103
Pressure	-13.2103
spotify	-13.2103
Compression	-13.2104
greenlet	-13.2104
dotted	-13.2106
Csv	-13.2106
2016-01-0	-13.2107
Rating	-13.2112
AtIndex	-13.2116
ENTER	-13.2133
xFFFFFFFF	-13.2157
Deploy	-13.2159
elevation	-13.2159
Architecture	-13.2159
Assistant	-13.2159
illegal	-13.216
Submission	-13.2161
ResponsePayload	-13.2161
swig	-13.2161
succeeded	-13.2169
Take	-13.2169
▁SPACEcctxt	-13.2175
contrast	-13.2217
Ganga	-13.2217
glslc	-13.2217
arith	-13.2217
debugging	-13.2217
Triple	-13.2217
Overlap	-13.2217
beacon	-13.2217
"{}"'.	-13.2219
think	-13.2222
fidel	-13.2223
8080	-13.2245
NEXT	-13.2248
'1.0'	-13.225
SAVE	-13.2252
('#')	-13.2257
resolv	-13.2257
amazon	-13.2274
coordinator	-13.2274
CLOUD	-13.2274
METRIC	-13.2274
NOTIFY	-13.2274
consider	-13.2274
Defect	-13.2274
EXIT	-13.2275
[4:]	-13.2275
exactly	-13.2277
Discovery	-13.2279
zipped	-13.228
Accepted	-13.2285
assertNum	-13.2307
upgradeToVersion	-13.2332
PLATFORM	-13.2332
Twisted	-13.2332
colander	-13.2332
TRUE	-13.2332
weechat	-13.2332
podcast	-13.2334
DISABLED	-13.2336
anger	-13.2352
RemoteCommand	-13.2353
180.0	-13.2363
Privilege	-13.239
Thumbnail	-13.239
Lattice	-13.239
disambiguation	-13.239
flagged	-13.239
DELAY	-13.239
ascending	-13.239
BigFloat	-13.239
Lead	-13.2391
What	-13.24
"../	-13.2429
Plain	-13.2446
HEIGHT	-13.2448
organisation	-13.2448
CRYPT	-13.2448
summarize	-13.2448
temporal	-13.2449
Torrent	-13.2449
deprojected	-13.245
silently	-13.2451
relax	-13.2454
izable	-13.2458
ffffff	-13.2482
cardinality	-13.2507
latency	-13.2507
purchase	-13.2507
copied	-13.2507
cumulative	-13.2507
▁SPACEwhether	-13.2507
promise	-13.2507
craft	-13.2507
PROXY	-13.2508
Traceback	-13.2509
Injector	-13.2509
imgur	-13.2512
TERM	-13.2516
885	-13.2523
FLOW	-13.2527
Individual	-13.2566
Synchronous	-13.2566
TestDiveTxHypo	-13.2566
contribution	-13.2566
integral	-13.2566
Album	-13.2566
CLEAR	-13.2566
oShaderParameter	-13.2567
Skype	-13.2567
ProgressBar	-13.2567
quest	-13.2567
00:00:00	-13.2569
rewind	-13.2574
=(',',	-13.2574
Expanded	-13.2575
Inspect	-13.2577
Disco	-13.2605
LoggedIn	-13.2618
TURN	-13.2625
developer	-13.2626
wikipedia	-13.2626
\1_\2	-13.2626
comparator	-13.2626
debian	-13.2626
gandi	-13.2626
solar	-13.2629
NodeNG	-13.2631
BYTE	-13.2632
doesnt	-13.2637
excepthook	-13.2649
CUSTOM	-13.2686
BODY	-13.2686
Configurable	-13.2686
Degree	-13.2686
azimuth	-13.2686
computation	-13.2686
transient	-13.2686
assumptions	-13.2686
INTERFACE	-13.2686
Cisco	-13.2686
MENU	-13.2686
diameter	-13.2686
DATETIME	-13.2686
keepalive	-13.2688
cool	-13.2707
containerize	-13.2709
inspector	-13.2718
HERE	-13.2743
ApiCall	-13.2745
xmlUCSIs	-13.2746
amphora	-13.2746
CATEGORY	-13.2746
expansion	-13.2746
Yield	-13.2746
barrier	-13.2746
bounce	-13.2746
▁SPACEuCSIs	-13.2746
BLUE	-13.2746
POOL	-13.2746
Splitter	-13.2747
Never	-13.2749
tracing	-13.2751
86400	-13.2751
smoke	-13.2754
overflow	-13.2772
DAVEmptyElement	-13.2807
VaporHTTPError	-13.2807
exhaust	-13.2807
thrift	-13.2807
Bottom	-13.2807
genshi	-13.2807
stretch	-13.2807
Capability	-13.2807
serializable	-13.2807
vagrant	-13.2807
persistence	-13.2807
become	-13.2808
setCurrentIndex	-13.2808
swarm	-13.2808
Easy	-13.2809
rcParams	-13.2809
RNN	-13.2818
explore	-13.286
Glob	-13.2865
Interpolation	-13.2868
Grammar	-13.2868
patient	-13.2868
ARRAY	-13.2868
Explicit	-13.2868
Opaque	-13.2868
▁SPACEMAVLink	-13.2868
Look	-13.2868
Slip	-13.287
VARIABLE	-13.2924
monotonic	-13.2929
standalone	-13.2929
spirit	-13.2929
twice	-13.2929
minidom	-13.293
uirks	-13.293
PROTO	-13.2931
combobox	-13.2931
UINT	-13.2934
TMethodsMixin	-13.2946
OFP	-13.296
bodies	-13.2991
ConnectionLost	-13.2991
Observable	-13.2991
Transcript	-13.2991
Delivery	-13.2991
chosen	-13.2991
TzInfo	-13.2991
Backward	-13.2991
Grant	-13.2991
nativePointer	-13.2991
Astro	-13.2999
Perform	-13.3006
characteristic	-13.3053
trivial	-13.3053
OperationalError	-13.3053
euler	-13.3053
DOWNLOAD	-13.3053
RETURN	-13.3054
Crawl	-13.3056
examine	-13.3056
failIf	-13.3058
hotel	-13.3081
eidon	-13.3085
UNDEFINED	-13.3115
SEPARATOR	-13.3115
SWITCH	-13.3115
Messaging	-13.3115
Vendor	-13.3115
roster	-13.3117
Arrow	-13.3117
Algo	-13.3118
AndReturn	-13.3119
Digital	-13.3134
aggregator	-13.3178
RELEASE	-13.3178
pylith	-13.3178
rabbitmq	-13.3178
stereo	-13.3178
REPLACE	-13.3178
lemmatize	-13.3178
Updating	-13.3178
COPY	-13.3179
Formula	-13.3184
Orient	-13.3241
▁SPACElibcsound	-13.3242
FORBIDDEN	-13.3242
CONNECTED	-13.3242
SMALL	-13.3242
CoreApplication	-13.3243
unbound	-13.3243
FlowSpec	-13.3243
Detection	-13.3244
RULE	-13.3244
shake	-13.3248
sufficient	-13.3304
agnostic	-13.3305
NOTIFICATION	-13.3305
VIDEO	-13.3305
Exponential	-13.3305
adjacency	-13.3305
enhance	-13.3305
pyvlx	-13.3305
Bearer	-13.3305
Studio	-13.3305
Translator	-13.3305
sponsor	-13.3305
Saving	-13.3305
runnable	-13.3305
SCALE	-13.3306
grey	-13.3306
laplace	-13.3307
committed	-13.331
FACE	-13.332
Discover	-13.3365
Neighbor	-13.3369
decrease	-13.3369
PpTokeniser	-13.3369
Unrecognized	-13.3369
POLICY	-13.3369
▁SPACEtermios	-13.3369
Actual	-13.337
MainLoop	-13.337
roundtrip	-13.337
▁SPACESPAN	-13.3371
staging	-13.3371
serie	-13.3392
quantize	-13.3411
Deserialize	-13.3422
Encrypt	-13.3429
connectionMade	-13.3434
gribble	-13.3434
banned	-13.3434
skirt	-13.3435
BOOK	-13.3435
[-1:]	-13.3435
ClientSide	-13.3436
tower	-13.3436
manually	-13.3439
thisown	-13.3439
important	-13.3462
[0,0]	-13.3472
SIDE	-13.3498
anomaly	-13.3499
BLACK	-13.3499
Invoke	-13.3499
MEDIUM	-13.3499
decrement	-13.3499
underlying	-13.3499
EXPECTED	-13.3499
WWW	-13.3499
Holder	-13.3499
Elem	-13.35
decoding	-13.35
Rich	-13.3502
consul	-13.3536
Mailbox	-13.3543
luigi	-13.3564
audience	-13.3564
convolve	-13.3564
luminosity	-13.3564
Half	-13.3564
Snmp	-13.3564
qualifier	-13.3564
virus	-13.3566
-01-01	-13.3625
Invitation	-13.363
quarter	-13.363
Additional	-13.363
Gamma	-13.363
MAGIC	-13.363
Pseudo	-13.363
SpatialReference	-13.363
coors	-13.363
evolve	-13.3631
corpora	-13.3631
Representation	-13.3631
Resume	-13.3631
Spam	-13.3632
customize	-13.3633
{}:{}	-13.3694
commerce	-13.3696
Study	-13.3696
Inference	-13.3696
SoMultiTexture	-13.3696
Verbose	-13.3696
Student	-13.3696
holiday	-13.3696
ORIGIN	-13.3696
graceful	-13.3696
scoring	-13.3696
pinned	-13.3697
Music	-13.3697
XMLRPC	-13.3698
Inspector	-13.3699
Preprocessor	-13.3702
/{}"	-13.372
Flux	-13.3763
compilation	-13.3763
facility	-13.3763
Ascii	-13.3763
Chrome	-13.3763
EPOCH	-13.3763
referrer	-13.3763
Colour	-13.3764
Meter	-13.3765
mako	-13.3765
Charge	-13.3779
Plug	-13.3826
CASCADE	-13.383
DAVTextElement	-13.383
Paragraph	-13.383
SPLIT	-13.383
growth	-13.383
Blank	-13.383
proportion	-13.383
sumption	-13.383
MOCK	-13.383
FONT	-13.3831
IsAuthenticated	-13.3831
Atomic	-13.3834
{4}	-13.3877
ALPHA	-13.3898
Leave	-13.3898
Snippet	-13.3898
fleet	-13.3898
predecessor	-13.3898
cigar	-13.3898
zookeeper	-13.3898
Flavor	-13.3898
Weak	-13.3898
logistic	-13.3898
upsert	-13.3898
pauli	-13.3898
Suppress	-13.3898
brew	-13.3898
ToolBar	-13.3899
funev	-13.39
Digit	-13.3948
Variance	-13.3966
Firefox	-13.3966
fundamental	-13.3966
VERBOSE	-13.3966
Evaluator	-13.3966
deleting	-13.3966
reveal	-13.3966
thermal	-13.3966
Basis	-13.3966
jarvis	-13.3966
.0.0.1"	-13.3966
IMPORT	-13.3966
ethernet	-13.3967
BasicBlock	-13.3969
Anti	-13.3981
registerProducer	-13.3982
FFFFFF	-13.3992
CRITICAL	-13.4034
PARAMETER	-13.4034
STRATEGY	-13.4034
Sprite	-13.4034
tqdm	-13.4034
TICK	-13.4034
FluxSequence	-13.4034
MARKUP	-13.4034
UART	-13.4035
TopLevel	-13.4035
LIVE	-13.4036
chargeback	-13.4036
Beam	-13.4037
RowCol	-13.4038
Where	-13.4039
TXT	-13.4039
Goal	-13.404
lldp	-13.4041
ortho	-13.4065
ResourceNotFound	-13.4065
FORWARD	-13.4103
CONTAINER	-13.4103
OPERATION	-13.4103
EXAMPLE	-13.4103
2.168.	-13.4103
Wizard	-13.4103
SwigP	-13.4103
BOOL	-13.4103
venue	-13.4103
Github	-13.4104
SONRPC	-13.4105
teamcity	-13.4105
WaitFor	-13.4105
SPA	-13.4107
Notifier	-13.4108
trading	-13.4113
Swap	-13.4119
Mutation	-13.4172
spherical	-13.4172
BATCH	-13.4172
Collision	-13.4172
Palette	-13.4172
gravity	-13.4172
Advanced	-13.4172
IDENTIFIER	-13.4172
Poisson	-13.4172
Trait	-13.4172
money	-13.4173
sklearn	-13.4173
bulb	-13.4173
explicitly	-13.4175
PLAYER	-13.4234
deterministic	-13.4242
spreadsheet	-13.4242
Histogram	-13.4242
brief	-13.4242
conference	-13.4242
explode	-13.4242
supplied	-13.4242
Yaml	-13.4242
SIMPLE	-13.4242
CALLBACK	-13.4242
}-{	-13.4243
Motor	-13.4243
concurrency	-13.4245
scape	-13.4263
Provision	-13.4313
attendee	-13.4313
having	-13.4313
Medium	-13.4313
raising	-13.4313
AccessDenied	-13.4313
Similar	-13.4313
maximize	-13.4313
utterance	-13.4313
MAAS	-13.4314
GraphKeys	-13.4314
#===========	-13.4326
extern	-13.4375
campus	-13.4384
Maybe	-13.4384
baudrate	-13.4384
bottleneck	-13.4384
chromosome	-13.4384
Tagged	-13.4384
UOTE	-13.4384
successors	-13.4384
xlsx	-13.4384
Something	-13.4384
86_64	-13.4384
borrow	-13.4385
Moment	-13.4385
[:8]	-13.4385
backslash	-13.4385
Footer	-13.4386
knots	-13.4394
wakeup	-13.4394
Statistic	-13.4413
FIXME	-13.4415
fusion	-13.4435
COLLECTION	-13.4455
Principal	-13.4455
polynomial	-13.4455
warehouse	-13.4455
DESCRIPTION	-13.4455
Executing	-13.4455
ribInternalError	-13.4455
mqtt	-13.4455
promotion	-13.4456
REDIRECT	-13.4456
BoxLayout	-13.4457
SINGLE	-13.4527
Acquire	-13.4527
Interpolate	-13.4527
ambiguous	-13.4527
exploit	-13.4527
inclusive	-13.4527
smiles	-13.4527
univention	-13.4527
Telegram	-13.4527
Daily	-13.4527
gethostbyname	-13.4527
addfinalizer	-13.4527
unhandled	-13.4527
UnicodeEncode	-13.4528
DiGraph	-13.4528
collide	-13.4535
00:00	-13.4549
xffff	-13.4588
InaSAFE	-13.46
PRODUCT	-13.46
Picture	-13.46
Sampling	-13.46
couch	-13.46
ffmpeg	-13.46
LOGGING	-13.46
Simulator	-13.46
Pandas	-13.46
Flip	-13.46
CUDA	-13.46
operating	-13.46
Ldap	-13.46
PushButton	-13.46
continu	-13.4601
diagram	-13.4601
existence	-13.4602
'123'	-13.4603
evoked	-13.4617
Department	-13.4673
Invocation	-13.4673
Spawn	-13.4673
junction	-13.4673
skipUnless	-13.4673
BOARD	-13.4673
Presence	-13.4673
visualization	-13.4673
Dash	-13.4673
discord	-13.4674
ledger	-13.4674
donor	-13.4693
yuno	-13.4736
Transparency	-13.4746
administrator	-13.4746
Recipient	-13.4746
Wildcard	-13.4746
SoSFBox	-13.4746
retention	-13.4746
lbaas	-13.4746
cinder	-13.4746
UPLOAD	-13.4746
workbench	-13.4747
automatic	-13.4747
FORCE	-13.4747
HOOK	-13.4748
gaze	-13.4758
xFFFF	-13.4799
Consume	-13.4811
punct	-13.482
establish	-13.482
Cylinder	-13.482
Handshake	-13.482
Heartbeat	-13.482
acceleration	-13.482
manufacturer	-13.482
Receipt	-13.482
planning	-13.482
▁SPACEclibui	-13.482
Avro	-13.482
Nick	-13.482
amqp	-13.482
Annotate	-13.482
PKCS	-13.4821
RuntimeWarning	-13.4821
Insufficient	-13.4821
SbBox	-13.4822
mnist	-13.4822
Dyn	-13.4835
Periodic	-13.4884
Sibling	-13.4895
Contour	-13.4895
Integral	-13.4895
STOPPED	-13.4895
updating	-13.4895
nominal	-13.4895
tangent	-13.4895
einsum	-13.4895
visualizer	-13.4895
"2016-01-01"	-13.4895
ComboBox	-13.4895
USAGE	-13.4896
=========	-13.4966
unevolved	-13.497
CLEAN	-13.497
actuator	-13.497
DOCUMENT	-13.497
caught	-13.497
Cuckoo	-13.497
telegram	-13.497
SORT	-13.498
decide	-13.4999
egress	-13.5004
minima	-13.5007
Participant	-13.5046
ProgrammingError	-13.5046
TimeStamp	-13.5046
abbreviation	-13.5046
SEEK	-13.5046
PUSH	-13.5046
epilog	-13.5046
SBBreakpoint	-13.5046
belongs	-13.5046
distrib	-13.5046
noisy	-13.5047
wild	-13.5047
THIS	-13.5047
VPN	-13.5089
Authenticate	-13.5112
Decision	-13.5122
assessment	-13.5122
negotiate	-13.5122
GOOGLE	-13.5122
binaries	-13.5122
dictionaries	-13.5122
difficulty	-13.5122
entitlement	-13.5122
hazard	-13.5122
integrator	-13.5122
satisfied	-13.5122
babel	-13.5122
SoGLTexture	-13.5122
iplineError	-13.5122
trytes	-13.5122
Plotting	-13.5123
Covariance	-13.5123
tube	-13.5128
PEG	-13.5196
LIBRARY	-13.5199
sensitivity	-13.5199
Discrete	-13.5199
provenance	-13.5199
Eeprom	-13.5199
MASTER	-13.5199
Wheel	-13.5199
getTypeURI	-13.5199
TabularInline	-13.5199
impala	-13.5199
Performance	-13.5199
whatever	-13.5199
Utilities	-13.52
displacement	-13.52
Sky	-13.52
Motion	-13.52
maya	-13.5212
Corner	-13.5276
Announcement	-13.5277
consensus	-13.5277
instantiation	-13.5277
jurisdiction	-13.5277
Analytic	-13.5277
FALSE	-13.5277
Implicit	-13.5277
kaldi	-13.5277
julia	-13.5277
regularization	-13.5277
EDGE	-13.5288
Corr	-13.5314
TestDiveTx	-13.5355
Categorical	-13.5355
Doppler	-13.5355
supriya	-13.5355
65536	-13.5355
Diagonal	-13.5355
adjacent	-13.5355
emulator	-13.5355
Bootstrap	-13.5355
Vega	-13.5355
CourseEnrollment	-13.5355
Stock	-13.5355
Slack	-13.5356
gentInfo	-13.541
Prior	-13.5433
People	-13.5433
transparency	-13.5433
Exclude	-13.5433
Kickstart	-13.5433
PAYLOAD	-13.5433
PRIMARY	-13.5433
SCREEN	-13.5433
coupling	-13.5433
mnemonic	-13.5433
vacuum	-13.5433
Three	-13.5433
trimmed	-13.5433
ueueFlowToDisk	-13.5433
backbone	-13.5433
sticky	-13.5434
disassemble	-13.5434
odlc	-13.5435
Exact	-13.5507
juju	-13.5513
Calculator	-13.5513
messenger	-13.5513
psycopg	-13.5513
Reserved	-13.5513
Scaling	-13.5513
hamming	-13.5513
Crash	-13.5513
Nipap	-13.5513
Persist	-13.5513
Corrupt	-13.5513
regularizer	-13.5513
alitrip	-13.5513
TOPIC	-13.5513
earned	-13.5585
mozilla	-13.5593
SERIAL	-13.5593
official	-13.5593
Availability	-13.5593
Unhandled	-13.5593
Coefficient	-13.5593
corrupt	-13.5593
munge	-13.5593
inches	-13.5593
Authority	-13.5593
analytic	-13.5631
elimina	-13.5668
Calibration	-13.5673
Community	-13.5673
PROGRAM	-13.5673
Naming	-13.5673
TooLarge	-13.5673
Water	-13.5673
oystick	-13.5674
COMMON	-13.5674
qgis	-13.5674
Hunt	-13.5676
Buf	-13.5683
/{0}'	-13.5707
ABORT	-13.5755
historical	-13.5755
symmetry	-13.5755
traversal	-13.5755
waffle	-13.5755
KNX	-13.5755
COMMIT	-13.5755
Sandbox	-13.5763
Authenticator	-13.5837
Collapse	-13.5837
federation	-13.5837
CONFIGURATION	-13.5837
friction	-13.5837
VMware	-13.5837
Purge	-13.5837
YEAR	-13.5837
Minute	-13.5837
Snap	-13.584
Contain	-13.5873
Cauchy	-13.5919
Flash	-13.5919
PyCdlib	-13.5919
Restricted	-13.5919
DOTALL	-13.5919
Pagure	-13.5919
OTHER	-13.5919
SBDebugger	-13.592
Subscribe	-13.5983
****************	-13.5999
Barrier	-13.6003
Currency	-13.6003
Evaluate	-13.6003
IFIED	-13.6003
drift	-13.6003
witness	-13.6003
Captcha	-13.6003
semaphore	-13.6003
Timing	-13.6003
decoration	-13.6003
LimitExceeded	-13.6003
SAME	-13.6004
Built	-13.6082
Ancestor	-13.6087
kelvin	-13.6087
Attack	-13.6087
precedence	-13.6087
voxel	-13.6087
APPLICATION	-13.6087
Truncate	-13.6087
Writable	-13.6087
Postgres	-13.6087
1.2.3	-13.6093
Coef	-13.6104
SETTING	-13.6167
Compilation	-13.6171
Scenario	-13.6171
Sentinel	-13.6171
WATCH	-13.6171
squash	-13.6171
Ethernet	-13.6171
Trajectory	-13.6171
YELLOW	-13.6171
SLEEP	-13.6171
httpretty	-13.6171
Envelope	-13.6171
GitHub	-13.6172
isalnum	-13.6172
PACKET	-13.6172
tagging	-13.6172
bunch	-13.6172
Smoke	-13.6173
Near	-13.618
Inject	-13.6254
