<unk>	0
<s>	0
</s>	0
▁SPACE	-0.809239
▁NEWLINE	-2.51419
_	-3.12546
(	-3.56447
.	-3.59667
self	-3.76687
,	-4.05155
):	-4.22251
=	-4.29433
)	-4.56395
▁SPACEdef	-4.67417
▁SPACEreturn	-4.81878
:	-5.36758
'	-5.57578
get	-5.7215
()	-5.74318
▁def	-5.83459
._	-5.93189
▁SPACEif	-5.961
name	-5.97354
E	-5.9917
s	-6.02886
▁TAB	-6.0769
"	-6.09462
None	-6.15846
▁SPACEin	-6.33709
[	-6.41493
id	-6.47796
data	-6.54321
('	-6.57336
path	-6.58239
value	-6.61868
',	-6.62608
#	-6.6335
▁SPACEfor	-6.64399
__(	-6.65631
x	-6.66763
')	-6.76545
-	-6.81843
%	-6.82057
init	-6.85414
▁class	-6.85817
args	-6.87537
▁SPACEnot	-6.90067
*	-6.90283
]	-6.9164
set	-6.93483
+	-6.96465
key	-6.97041
▁SPACEtest	-6.97442
))	-6.98384
("	-6.98513
to	-7.03699
type	-7.0508
True	-7.08674
a	-7.11481
list	-7.12469
file	-7.13053
**	-7.13494
n	-7.13711
kwargs	-7.1599
p	-7.16437
/	-7.17031
['	-7.17872
▁SPACEis	-7.18055
False	-7.18854
▁NEWLINEclass	-7.20154
1	-7.21245
i	-7.22536
is	-7.23131
")	-7.24613
▁SPACEraise	-7.27478
str	-7.29485
d	-7.30632
==	-7.31581
2	-7.36985
test	-7.37701
▁SPACEelse	-7.38149
",	-7.39005
0	-7.3925
f	-7.41143
user	-7.4132
request	-7.41724
r	-7.42438
▁SPACEpass	-7.45343
url	-7.46734
.__	-7.47535
text	-7.54156
c	-7.5638
cls	-7.57744
b	-7.57889
t	-7.58106
():	-7.58263
add	-7.59829
config	-7.60539
':	-7.6097
dict	-7.63197
@	-7.63287
format	-7.63944
']	-7.6417
from	-7.6428
y	-7.64908
v	-7.66528
node	-7.68421
obj	-7.69427
Exception	-7.73152
object	-7.75286
index	-7.79211
context	-7.79236
size	-7.80101
Error	-7.80903
▁SPACEassert	-7.82358
class	-7.83309
string	-7.86794
model	-7.8716
message	-7.87652
state	-7.8767
time	-7.88244
update	-7.90385
new	-7.91026
info	-7.91261
int	-7.93021
response	-7.93103
create	-7.93756
code	-7.95588
e	-7.96177
len	-7.9625
in	-7.96557
m	-7.97337
())	-7.98724
client	-7.9899
status	-7.99398
log	-8.00433
append	-8.00489
▁SPACEtry	-8.00597
all	-8.00707
assertEqual	-8.01457
item	-8.02498
join	-8.02687
▁SPACEthe	-8.03902
msg	-8.04543
filename	-8.05018
line	-8.05072
▁SPACEsuper	-8.06998
check	-8.07483
k	-8.08134
json	-8.08449
start	-8.08551
▁SPACEexcept	-8.08589
run	-8.0869
on	-8.09286
val	-8.1071
version	-8.11044
event	-8.11845
\	-8.12047
default	-8.1225
[]	-8.1306
error	-8.13107
params	-8.1358
▁SPACEand	-8.13705
output	-8.13932
='	-8.14072
for	-8.14168
write	-8.17412
),	-8.17873
result	-8.18051
read	-8.18394
db	-8.19875
u	-8.2275
values	-8.24139
{	-8.25341
max	-8.26351
dir	-8.27128
os	-8.27297
}	-8.28062
ImplementedError	-8.28151
▁SPACEos	-8.28155
count	-8.28321
delete	-8.287
▁SPACEwith	-8.2895
instance	-8.30082
num	-8.30556
with	-8.3088
▁TABdef	-8.31109
open	-8.31114
base	-8.31234
S	-8.31362
group	-8.31425
command	-8.3223
query	-8.32864
▁SPACEisinstance	-8.33123
l	-8.34072
of	-8.34645
app	-8.34857
session	-8.35073
▁SPACENot	-8.35417
api	-8.35538
filter	-8.35694
])	-8.35805
[0]	-8.3681
func	-8.37096
field	-8.37974
(*	-8.3809
out	-8.38185
w	-8.39271
▁TABreturn	-8.39954
by	-8.40145
▁	-8.40204
load	-8.40455
tag	-8.40638
remove	-8.41018
input	-8.41438
cmd	-8.42171
target	-8.44616
no	-8.44978
items	-8.45105
call	-8.45378
["	-8.45599
parse	-8.46247
▁SPACEresult	-8.46807
or	-8.46836
":	-8.46974
image	-8.48184
np	-8.48436
h	-8.49183
token	-8.50453
1,	-8.51292
content	-8.51464
method	-8.51734
map	-8.51763
split	-8.51866
close	-8.52457
{}	-8.53263
X	-8.53541
>	-8.53878
current	-8.5395
has	-8.5427
->	-8.54537
▁SPACEprint	-8.5459
▁SPACEnp	-8.55134
source	-8.55404
parent	-8.56146
A	-8.56224
().	-8.56582
as	-8.5716
3	-8.57216
▁SPACElen	-8.57841
keys	-8.58904
root	-8.59582
send	-8.59923
date	-8.59969
host	-8.60765
port	-8.60979
shape	-8.61226
not	-8.61329
mode	-8.61641
table	-8.61704
array	-8.61925
options	-8.62078
number	-8.63054
g	-8.6503
find	-8.65303
module	-8.65359
▁SPACEor	-8.66031
+=	-8.66325
task	-8.66516
end	-8.67008
z	-8.67825
cache	-8.68228
).__	-8.6917
action	-8.70616
device	-8.71902
q	-8.72483
----------------	-8.73356
assert	-8.74601
▁SPACEas	-8.75706
page	-8.75844
label	-8.76233
Get	-8.76319
handle	-8.76575
List	-8.76649
save	-8.7678
<	-8.77337
view	-8.77546
server	-8.77979
make	-8.78198
length	-8.78202
debug	-8.78767
▁SPACEyield	-8.78994
do	-8.79473
float	-8.79726
names	-8.80209
and	-8.80418
="	-8.80614
C	-8.81149
(),	-8.8124
service	-8.81889
{'	-8.82366
arg	-8.82562
Type	-8.82569
objects	-8.83267
title	-8.83424
"""	-8.83558
env	-8.8362
min	-8.83684
Test	-8.84054
copy	-8.84102
match	-8.84243
fields	-8.84274
next	-8.84872
settings	-8.84883
row	-8.85322
sub	-8.85828
attr	-8.8604
build	-8.86577
project	-8.87076
1)	-8.87162
I	-8.87184
other	-8.87441
stop	-8.87626
address	-8.88265
logger	-8.88488
timeout	-8.88491
T	-8.88508
template	-8.89264
([	-8.89378
o	-8.89837
function	-8.90676
last	-8.91083
element	-8.913
post	-8.91944
"]	-8.92034
'])	-8.92887
files	-8.92887
resource	-8.93339
iter	-8.94926
D	-8.955
datetime	-8.95544
re	-8.95667
replace	-8.95795
ip	-8.95889
Base	-8.96095
html	-8.96473
connection	-8.97077
clear	-8.97268
py	-8.9755
pos	-8.97877
L	-8.98208
op	-8.98355
prefix	-8.98606
doc	-8.98644
▁SPACEret	-8.98776
process	-8.99039
▁SPACEimport	-8.99165
callback	-8.99907
Name	-9.00048
register	-9.00228
bytes	-9.01093
color	-9.01109
random	-9.01321
lambda	-9.02366
var	-9.03212
search	-9.03236
0,	-9.03465
body	-9.04248
parser	-9.0466
▁SPACEbe	-9.05283
show	-9.06309
range	-9.06323
handler	-9.06471
coin	-9.06543
level	-9.06993
return	-9.07839
▁TABself	-9.08305
encode	-9.08329
File	-9.08506
types	-9.08558
block	-9.08742
4	-9.08832
password	-9.09237
M	-9.09422
hash	-9.09669
mock	-9.09927
raw	-9.10104
stream	-9.10284
if	-9.10429
ids	-9.10453
Data	-9.10872
param	-9.11159
username	-9.11278
0:	-9.11397
j	-9.1146
execute	-9.11492
xml	-9.12036
order	-9.12556
offset	-9.12847
exists	-9.13195
ID	-9.13321
child	-9.13383
uri	-9.14978
print	-9.15208
sum	-9.1538
▁SPACEother	-9.15557
strip	-9.15751
B	-9.16169
Id	-9.1621
header	-9.16433
models	-9.16434
pytest	-9.16439
Set	-9.16523
valid	-9.16845
utils	-9.16939
async	-9.17024
entry	-9.17177
first	-9.17249
link	-9.17258
job	-9.17282
validate	-9.17407
sys	-9.17654
repr	-9.17961
N	-9.17968
ref	-9.17996
headers	-9.18816
▁TABif	-9.18953
lib	-9.19118
width	-9.19251
P	-9.19406
V	-9.19481
metadata	-9.19693
frame	-9.20135
tree	-9.20549
queue	-9.20952
idx	-9.21098
record	-9.21985
http	-9.22213
results	-9.22501
0)	-9.22821
Model	-9.23289
nodes	-9.23439
use	-9.23572
fn	-9.23755
reset	-9.24024
description	-9.2493
assertRaises	-9.25213
R	-9.26352
word	-9.26587
email	-9.26839
ing	-9.27112
exception	-9.27115
this	-9.27218
lines	-9.27386
G	-9.27489
uuid	-9.27724
channel	-9.27907
conf	-9.28214
conn	-9.28405
render	-9.28583
auth	-9.28941
main	-9.28991
active	-9.29048
[1]	-9.2935
lower	-9.29641
2)	-9.29824
dtype	-9.29987
local	-9.30256
domain	-9.30892
res	-9.30909
H	-9.31276
tuple	-9.31443
step	-9.32005
'))	-9.32147
decode	-9.32177
ed	-9.32466
)]	-9.32765
▁SPACErange	-9.3299
▁SPACEres	-9.3311
Node	-9.33265
form	-9.335
2,	-9.33527
F	-9.33663
store	-9.34558
setup	-9.34588
location	-9.34821
at	-9.35076
Y	-9.35752
axis	-9.35845
(0,	-9.36271
foo	-9.36298
course	-9.36493
manager	-9.36631
one	-9.36638
pop	-9.36656
total	-9.37023
option	-9.37085
'],	-9.37221
point	-9.3751
],	-9.37835
implemented	-9.38165
User	-9.38595
src	-9.38718
widget	-9.38958
empty	-9.39186
directory	-9.39218
Action	-9.39764
5	-9.40075
top	-9.40796
Invalid	-9.40863
err	-9.41122
Event	-9.41241
schema	-9.41264
unit	-9.41831
change	-9.41974
assertTrue	-9.41994
old	-9.42196
})	-9.42218
tags	-9.4245
graph	-9.42467
meta	-9.42772
access	-9.428
unicode	-9.42877
utf	-9.43077
'):	-9.43214
stack	-9.43242
position	-9.44393
lock	-9.44636
▁SPACEValueError	-9.44948
col	-9.4533
plugin	-9.45782
▁SPACEwhile	-9.45835
select	-9.46225
addr	-9.4628
details	-9.46359
spec	-9.46466
pattern	-9.46506
batch	-9.46994
column	-9.47154
layer	-9.47606
df	-9.47842
Path	-9.47878
system	-9.47927
convert	-9.47943
wait	-9.4796
8	-9.47992
exit	-9.4832
socket	-9.48332
package	-9.48423
ValueError	-9.48629
'%	-9.49085
errors	-9.49353
No	-9.49599
)))	-9.49681
volume	-9.49864
▁SPACEelif	-9.50591
kw	-9.50597
ctx	-9.50617
generate	-9.5077
profile	-9.51294
encoding	-9.51329
buffer	-9.51441
required	-9.51459
Value	-9.5167
core	-9.51781
now	-9.51822
cursor	-9.51904
TypeError	-9.52073
''	-9.52097
exc	-9.52706
connect	-9.52968
To	-9.53913
sample	-9.54104
stdout	-9.54211
thread	-9.54647
admin	-9.54697
limit	-9.54732
sort	-9.55273
window	-9.55318
import	-9.55492
attributes	-9.55571
network	-9.55629
img	-9.55649
dt	-9.55727
attribute	-9.55802
properties	-9.56347
account	-9.56993
2.	-9.57125
mask	-9.57248
"%	-9.57536
attrs	-9.5771
W	-9.5793
String	-9.58241
Object	-9.5833
K	-9.58399
invalid	-9.58717
▁NEWLINEdef	-9.59272
only	-9.59352
repo	-9.59467
scale	-9.59489
section	-9.59733
parameters	-9.6004
property	-9.60068
children	-9.6023
rule	-9.603
full	-9.60571
uid	-9.60596
eq	-9.60641
un	-9.60643
AttributeError	-9.60906
'\	-9.60979
Element	-9.61289
groups	-9.62115
role	-9.62156
argument	-9.62269
height	-9.62445
seq	-9.62575
pool	-9.62694
global	-9.62754
mod	-9.62993
enabled	-9.63023
Key	-9.63686
Message	-9.63729
timestamp	-9.63976
login	-9.64172
ret	-9.64397
flags	-9.64808
scope	-9.65078
payload	-9.65395
er	-9.65802
namespace	-9.66033
script	-9.66407
req	-9.66497
(**	-9.66525
tf	-9.67042
clean	-9.67148
math	-9.67478
('/	-9.68123
backend	-9.68502
NotImplemented	-9.68824
put	-9.68864
<=	-9.69175
signal	-9.69215
remote	-9.69336
matrix	-9.69368
Field	-9.69797
my	-9.69887
six	-9.69893
site	-9.69983
▁SPACEthis	-9.70378
display	-9.70612
Not	-9.70647
entity	-9.70824
def	-9.70889
up	-9.71417
Request	-9.71479
bool	-9.71749
sid	-9.72059
collection	-9.72192
1:	-9.72361
Command	-9.72473
bar	-9.73246
▁SPACEhasattr	-9.73288
fs	-9.73323
reverse	-9.73701
expected	-9.73716
dataset	-9.73736
▁SPACEmust	-9.73763
Config	-9.73835
mean	-9.73965
proxy	-9.73975
exp	-9.74015
Text	-9.74394
factory	-9.74623
extra	-9.74828
comment	-9.7489
1.	-9.7491
member	-9.74912
report	-9.75041
left	-9.75305
mark	-9.75556
expr	-9.75578
storage	-9.75722
GET	-9.75835
com	-9.75847
labels	-9.76114
>=	-9.76336
md	-9.76348
].	-9.76386
stats	-9.76503
startswith	-9.76605
numpy	-9.76823
fd	-9.77162
char	-9.77164
policy	-9.77846
container	-9.78152
URL	-9.78163
rate	-9.78195
://	-9.78327
vm	-9.78524
python	-9.79015
▁SPACEsys	-9.79046
interface	-9.79091
commit	-9.79218
▁SPACEre	-9.79389
cluster	-9.79695
folder	-9.79709
tmp	-9.79915
auto	-9.8045
Info	-9.80516
database	-9.80701
io	-9.80923
ext	-9.8093
users	-9.8116
dev	-9.81163
agent	-9.81434
Dict	-9.81468
State	-9.8148
media	-9.82218
force	-9.82309
flag	-9.82628
'),	-9.82852
gen	-9.83
parameter	-9.83169
(1,	-9.83425
▁SPACEgetattr	-9.83498
paths	-9.83561
space	-9.83631
release	-9.83654
net	-9.83692
View	-9.8372
style	-9.83991
pid	-9.84088
right	-9.84152
opts	-9.84215
inputs	-9.84614
buf	-9.84616
▁SPACEexpected	-9.84702
Client	-9.8474
temp	-9.84788
▁SPACEdisable	-9.84799
patch	-9.84844
route	-9.84873
TestCase	-9.84976
loop	-9.84982
dump	-9.85661
insert	-9.85717
cell	-9.85743
""	-9.85928
[0],	-9.85977
▁SPACEdel	-9.8606
6	-9.86112
Group	-9.86454
Response	-9.86458
verbose	-9.86558
Method	-9.86592
dumps	-9.86603
fetch	-9.86679
events	-9.87076
The	-9.87463
ops	-9.87492
equal	-9.87498
transform	-9.87671
sequence	-9.87836
pk	-9.88013
help	-9.8809
▁SPACEpylint	-9.88342
feature	-9.8854
dim	-9.8857
'/	-9.8859
arr	-9.8885
success	-9.88995
driver	-9.89148
document	-9.89298
getattr	-9.89383
tokens	-9.8946
able	-9.89571
util	-9.89856
del	-9.89964
txt	-9.89968
environ	-9.90596
raises	-9.91473
messages	-9.91518
apply	-9.91605
category	-9.91748
sql	-9.91799
logging	-9.91808
example	-9.92059
zip	-9.92161
opt	-9.92448
fp	-9.92593
points	-9.92641
/%	-9.92884
enable	-9.93083
missing	-9.93515
non	-9.93531
alpha	-9.93803
abs	-9.93853
case	-9.9413
plot	-9.94156
cfg	-9.94358
▁SPACEtf	-9.9442
language	-9.94703
part	-9.94846
ns	-9.94871
compute	-9.9542
-1	-9.95714
button	-9.95838
available	-9.95892
Mixin	-9.95903
tensor	-9.95961
box	-9.96234
NAME	-9.96368
ignore	-9.96452
bin	-9.96533
(1)	-9.96585
engine	-9.96646
year	-9.96732
=0):	-9.96755
variable	-9.96786
score	-9.96893
classes	-9.97123
Task	-9.97204
stderr	-9.9732
struct	-9.97571
[0])	-9.97876
10	-9.97961
Manager	-9.98132
cur	-9.98215
Expression	-9.98268
changed	-9.98274
edge	-9.98312
columns	-9.98404
protocol	-9.99099
verify	-9.99619
rows	-9.99656
fname	-9.99826
pre	-9.99859
prop	-9.99926
▁SPACEbool	-10.0002
diff	-10.0026
vector	-10.0028
Class	-10.0038
region	-10.0052
argv	-10.0085
seconds	-10.0091
64	-10.0092
Status	-10.0109
Image	-10.0114
safe	-10.0114
grid	-10.0148
can	-10.0159
Index	-10.0166
st	-10.0171
click	-10.0192
Item	-10.0192
extend	-10.023
simple	-10.025
Create	-10.0272
unique	-10.0274
flush	-10.029
32	-10.0301
[0].	-10.0323
hex	-10.0343
dot	-10.0355
dirname	-10.0372
pack	-10.0374
component	-10.0377
reason	-10.0383
Context	-10.0385
dest	-10.0387
hass	-10.0414
running	-10.0415
]:	-10.0443
(0)	-10.0457
Filter	-10.0463
contents	-10.0477
'<	-10.049
"))	-10.049
compile	-10.0492
delta	-10.0531
move	-10.0541
single	-10.0556
API	-10.057
endpoint	-10.057
ts	-10.0571
{"	-10.058
long	-10.0605
features	-10.0644
history	-10.0673
cb	-10.0675
__()	-10.0699
true	-10.0703
fit	-10.0727
train	-10.0736
resp	-10.0737
Handler	-10.0742
git	-10.0743
im	-10.0749
dist	-10.0752
tests	-10.0775
stat	-10.0779
ob	-10.0789
topic	-10.083
"])	-10.0835
ok	-10.0842
queryset	-10.0849
loads	-10.0898
fixture	-10.0909
In	-10.091
"\	-10.0954
configuration	-10.0955
variables	-10.0963
TYPE	-10.0964
parts	-10.0987
binary	-10.0989
indent	-10.0998
pkg	-10.1001
Time	-10.1004
desc	-10.1014
install	-10.1044
identifier	-10.1063
day	-10.1065
mat	-10.1066
selected	-10.1126
fail	-10.1129
('%	-10.116
win	-10.119
Factory	-10.1213
draw	-10.1217
extract	-10.1217
ui	-10.122
the	-10.123
mapping	-10.1245
methods	-10.1253
loc	-10.1256
▁SPACEKeyError	-10.1258
Add	-10.126
filters	-10.1261
ex	-10.129
normalize	-10.1292
=1)	-10.1304
it	-10.1314
application	-10.1343
wrapper	-10.1344
multi	-10.1348
Service	-10.1354
public	-10.138
lang	-10.1396
platform	-10.1415
head	-10.1416
control	-10.1417
words	-10.1424
css	-10.1473
RE	-10.1502
norm	-10.1547
created	-10.1555
bucket	-10.1556
player	-10.1558
Form	-10.1559
secret	-10.1562
sync	-10.1571
lookup	-10.1577
sha	-10.1591
cli	-10.1592
pass	-10.1625
Resource	-10.1632
shell	-10.1635
=0,	-10.164
images	-10.1646
:%	-10.1653
recv	-10.1655
Page	-10.1668
common	-10.168
seed	-10.1727
operation	-10.1729
chunk	-10.1732
per	-10.1767
fill	-10.1771
actions	-10.1773
▁SPACEawait	-10.1801
eval	-10.1802
zone	-10.1803
initial	-10.1804
slug	-10.181
download	-10.1835
elem	-10.1854
provider	-10.1861
reader	-10.1914
upper	-10.192
export	-10.1959
es	-10.1959
ch	-10.1968
byte	-10.197
after	-10.1978
U	-10.2002
sleep	-10.2037
owner	-10.2051
term	-10.2051
trace	-10.2065
▁TABfor	-10.2066
▁SPACETODO	-10.207
filepath	-10.207
sock	-10.2114
weight	-10.2162
yaml	-10.2164
symbol	-10.2181
edit	-10.2188
push	-10.2188
assertFalse	-10.2198
entries	-10.2202
defaults	-10.2203
real	-10.2217
indices	-10.2225
vars	-10.2232
fmt	-10.2237
off	-10.2243
reg	-10.2249
menu	-10.2261
arguments	-10.2269
units	-10.2292
proc	-10.2298
salt	-10.23
refresh	-10.2301
DB	-10.2308
extension	-10.2315
regex	-10.2345
summary	-10.2348
='',	-10.2353
failed	-10.2361
track	-10.2366
O	-10.2377
skip	-10.2379
bits	-10.2388
raise	-10.2394
tasks	-10.2407
interval	-10.2416
tab	-10.2417
kind	-10.2439
team	-10.2445
beta	-10.2456
wrap	-10.2492
pi	-10.2496
warning	-10.2499
product	-10.2509
From	-10.2512
vec	-10.2539
'].	-10.255
This	-10.2551
called	-10.2559
2):	-10.2568
contains	-10.2577
Is	-10.2577
present	-10.258
note	-10.2584
iterable	-10.2585
registry	-10.259
uery	-10.261
Server	-10.2648
modules	-10.2668
elements	-10.2682
supported	-10.2683
--	-10.2709
weights	-10.2709
custom	-10.2715
Size	-10.2732
requests	-10.2743
include	-10.2745
duration	-10.2748
depth	-10.275
csv	-10.2751
lst	-10.2757
▁SPACEit	-10.276
alias	-10.2787
angle	-10.2801
sqrt	-10.2809
master	-10.2819
counter	-10.2836
[-1]	-10.2843
2:	-10.2851
disable	-10.2871
▁SPACEenumerate	-10.2878
__.__	-10.2897
before	-10.293
▁SPACEglobal	-10.2936
getitem	-10.2942
2(	-10.2943
web	-10.2943
icon	-10.2955
org	-10.2958
Table	-10.3002
dst	-10.3017
KEY	-10.3018
none	-10.3021
[1])	-10.304
-%	-10.3042
Log	-10.3044
predict	-10.3063
commands	-10.3074
power	-10.3091
scan	-10.31
bind	-10.3104
home	-10.3131
']['	-10.3138
Connection	-10.3139
('\	-10.3144
▁SPACEshould	-10.315
any	-10.3164
el	-10.3167
exec	-10.3167
writer	-10.3169
{}'.	-10.3173
With	-10.3177
done	-10.3182
transaction	-10.3189
bad	-10.3194
Check	-10.3206
merge	-10.3225
Version	-10.3225
reference	-10.323
▁SPACElogging	-10.3254
sig	-10.3264
distance	-10.3272
cancel	-10.3276
Map	-10.3286
original	-10.3299
Update	-10.3311
▁SPACEan	-10.3314
All	-10.3345
emit	-10.3348
shared	-10.3363
initialize	-10.3393
DEFAULT	-10.3432
memory	-10.3444
rules	-10.346
Module	-10.3463
()]	-10.3475
Line	-10.3495
feed	-10.35
suffix	-10.3522
So	-10.3533
.")	-10.3544
closed	-10.3557
font	-10.3563
▁SPACEresp	-10.3566
pt	-10.3566
sender	-10.3574
ds	-10.3585
For	-10.3586
packet	-10.3595
video	-10.3595
[1],	-10.3611
PATH	-10.3614
bit	-10.362
atom	-10.3644
environment	-10.3654
>>	-10.3681
permission	-10.3685
zeros	-10.3689
hostname	-10.3694
ensure	-10.3696
links	-10.3713
https	-10.3718
progress	-10.3718
tool	-10.3735
resources	-10.3746
hook	-10.3765
metric	-10.3773
month	-10.379
Session	-10.3792
warn	-10.3798
used	-10.382
RuntimeError	-10.3822
delay	-10.3838
▁SPACEfinally	-10.3839
be	-10.3857
builder	-10.3861
assertEquals	-10.3883
Mock	-10.389
OK	-10.3893
[2]	-10.3902
▁SPACEsorted	-10.3907
branch	-10.391
[:,	-10.3924
().__	-10.3934
expression	-10.3935
']:	-10.3935
HTTP	-10.3939
drop	-10.394
▁SPACEthat	-10.395
Code	-10.3969
sep	-10.4002
Tag	-10.4007
},	-10.4011
setting	-10.4036
'')	-10.4051
()))	-10.4052
selection	-10.408
destroy	-10.4087
disk	-10.4096
"/	-10.4115
transport	-10.4121
Function	-10.4122
Interface	-10.4134
notify	-10.4144
complete	-10.4152
▁SPACEwe	-10.416
''):	-10.416
layout	-10.4174
solution	-10.4178
factor	-10.4197
=1,	-10.4203
cr	-10.4203
snapshot	-10.4211
prepare	-10.4211
when	-10.4216
cleanup	-10.422
samples	-10.4224
Plugin	-10.4238
bot	-10.4254
unpack	-10.4257
generator	-10.4258
switch	-10.4262
mac	-10.4267
Point	-10.4283
Instance	-10.429
plugins	-10.4299
sorted	-10.4305
serializer	-10.4314
iteritems	-10.4317
Color	-10.4356
POST	-10.4364
][	-10.4368
Token	-10.4374
unittest	-10.4376
quote	-10.4387
("%	-10.4393
Input	-10.4408
worker	-10.4417
allowed	-10.442
browser	-10.4429
On	-10.4442
flow	-10.446
en	-10.4474
isinstance	-10.4487
0.0	-10.4489
Device	-10.4501
short	-10.4503
sp	-10.4507
services	-10.4507
ptr	-10.4508
helper	-10.4517
-8')	-10.4518
static	-10.4525
kernel	-10.4534
choice	-10.4545
Result	-10.4552
Call	-10.4555
)])	-10.4563
redirect	-10.4564
ascii	-10.4564
allow	-10.4585
locale	-10.4608
Run	-10.4608
usage	-10.461
Number	-10.461
where	-10.4613
visit	-10.4616
cpu	-10.4617
Warning	-10.4622
controller	-10.463
3,	-10.4646
Parser	-10.4652
condition	-10.4661
Cache	-10.4664
cert	-10.4666
internal	-10.4697
de	-10.4703
Serializer	-10.4704
amount	-10.4706
loss	-10.4713
states	-10.4715
serialize	-10.4722
js	-10.4733
Count	-10.4746
vals	-10.4748
{}".	-10.475
family	-10.4758
Thread	-10.4785
rc	-10.4786
ax	-10.4801
round	-10.4809
Enum	-10.481
zero	-10.4822
previous	-10.4852
Process	-10.4862
series	-10.4867
escape	-10.487
DIR	-10.4874
channels	-10.4888
Read	-10.4889
screen	-10.4898
locator	-10.4901
tr	-10.4905
Mode	-10.4935
editor	-10.4939
proto	-10.494
Content	-10.4942
found	-10.4942
runner	-10.4948
16	-10.4956
parsed	-10.4971
================	-10.4974
clone	-10.4974
sc	-10.4979
cat	-10.5002
Widget	-10.5014
prev	-10.5022
mesh	-10.5029
IP	-10.5035
visible	-10.5044
schedule	-10.5083
down	-10.5086
ar	-10.5089
rest	-10.5104
chain	-10.5104
sim	-10.5108
ms	-10.5123
rb	-10.5158
identity	-10.5159
forward	-10.5178
instances	-10.5189
support	-10.5205
Unknown	-10.5224
Block	-10.5245
integer	-10.5269
fake	-10.527
selector	-10.528
▁SPACEare	-10.5299
[])	-10.53
timer	-10.5302
Write	-10.5307
functions	-10.5308
ly	-10.5317
should	-10.5326
unused	-10.533
center	-10.5354
dictionary	-10.5361
pad	-10.5369
Array	-10.5375
Configuration	-10.5389
enum	-10.5432
days	-10.5437
sign	-10.5442
devices	-10.5459
setUp	-10.5459
Template	-10.5467
Py	-10.5468
shutdown	-10.5469
null	-10.547
''.	-10.5475
begin	-10.5482
Un	-10.5499
Column	-10.5547
reduce	-10.5558
hosts	-10.5562
Attribute	-10.5584
low	-10.5605
ord	-10.5606
endswith	-10.5607
partition	-10.5609
initClass	-10.5619
tools	-10.5645
Address	-10.5646
Delete	-10.5647
DATA	-10.5647
calc	-10.5651
members	-10.5659
grad	-10.5673
ast	-10.569
Dir	-10.5694
▁SPACEsetUp	-10.5697
)[0]	-10.5702
rec	-10.5709
revision	-10.571
area	-10.5748
cookie	-10.575
person	-10.5772
dummy	-10.5775
matches	-10.5786
Entry	-10.5808
getClassType	-10.5814
'}	-10.5825
slots	-10.5828
sh	-10.5832
<<	-10.5833
ERROR	-10.5844
Vector	-10.5853
Property	-10.586
price	-10.5873
private	-10.5878
Record	-10.5878
layers	-10.5883
'-	-10.5894
back	-10.5905
Output	-10.5906
exceptions	-10.592
serial	-10.5925
program	-10.5927
1.0	-10.5932
Re	-10.5945
game	-10.595
▁SPACEfound	-10.5965
components	-10.5969
configure	-10.5976
Parameter	-10.5993
signature	-10.6008
go	-10.6008
second	-10.601
archive	-10.6035
unknown	-10.6066
NotFound	-10.6072
rel	-10.6087
basic	-10.6101
basename	-10.6125
Stream	-10.6125
Start	-10.6127
50	-10.6133
al	-10.6142
jobs	-10.6144
subject	-10.6145
Proxy	-10.615
TEST	-10.6164
3)	-10.6171
operator	-10.6171
high	-10.6176
suite	-10.6193
Source	-10.6195
records	-10.6203
me	-10.6206
kill	-10.6245
FILE	-10.625
Meta	-10.626
'--	-10.626
'''	-10.6262
rgb	-10.63
cached	-10.6303
metrics	-10.6307
targets	-10.6328
listener	-10.6342
free	-10.6342
outputs	-10.6345
edges	-10.6346
pair	-10.6368
1):	-10.6373
forms	-10.6375
std	-10.639
▁SPACEhave	-10.6393
cc	-10.6445
={'	-10.6449
exclude	-10.6453
like	-10.6456
an	-10.6462
>'	-10.6466
rpc	-10.647
//	-10.647
digest	-10.6473
Frame	-10.6477
inst	-10.6481
1]	-10.6492
"],	-10.6493
library	-10.6494
ports	-10.654
upload	-10.6548
period	-10.6552
steps	-10.6569
inner	-10.6587
▁TABelse	-10.6603
pred	-10.6611
dialog	-10.6627
expand	-10.6637
({'	-10.6648
connected	-10.6674
Layer	-10.6679
threshold	-10.6686
SI	-10.6687
resolve	-10.67
Default	-10.6703
detail	-10.6707
lineno	-10.6708
urls	-10.672
keep	-10.6723
chars	-10.6727
repository	-10.6728
override	-10.6733
Int	-10.675
Link	-10.6759
times	-10.6761
mu	-10.6782
virtual	-10.6783
Project	-10.6784
Schema	-10.6787
blocks	-10.6791
{})	-10.6803
scheme	-10.6837
using	-10.6861
flatten	-10.6865
("/	-10.6872
definition	-10.6875
disconnect	-10.6883
handlers	-10.6887
fix	-10.6893
normal	-10.6908
Str	-10.691
Return	-10.6911
theta	-10.6912
▁SPACEdoes	-10.6926
try	-10.6937
ValidationError	-10.6942
pb	-10.6951
ueue	-10.6953
Options	-10.696
cl	-10.6966
bounds	-10.697
trigger	-10.6972
translate	-10.6976
credentials	-10.6977
world	-10.6978
Container	-10.6985
origin	-10.6985
primary	-10.6987
permissions	-10.7012
timedelta	-10.7018
Settings	-10.702
glob	-10.7026
slice	-10.7048
freq	-10.7051
speed	-10.7058
ec	-10.706
dns	-10.7069
[:	-10.7071
=1	-10.7072
props	-10.7077
machine	-10.708
100	-10.7091
updated	-10.7095
Channel	-10.7096
obs	-10.7105
cv	-10.7115
App	-10.7117
work	-10.7118
hide	-10.7123
loader	-10.7125
comp	-10.7135
ne	-10.714
Tree	-10.7147
Abstract	-10.7152
blob	-10.7152
."""	-10.7166
segment	-10.7168
"),	-10.7172
href	-10.7179
abspath	-10.7181
impl	-10.7181
Document	-10.7185
Admin	-10.7186
board	-10.7188
enter	-10.7226
By	-10.7238
failure	-10.7249
gt	-10.7261
priority	-10.7263
co	-10.7278
libvlc	-10.7301
lat	-10.7304
Bad	-10.7313
rect	-10.7315
deleted	-10.7316
dirs	-10.7331
packages	-10.7335
uint	-10.7356
processor	-10.736
Sub	-10.736
author	-10.7365
Collection	-10.7369
Matrix	-10.7369
sec	-10.7371
SON	-10.7371
pipeline	-10.7377
issue	-10.7382
XML	-10.7386
direction	-10.7388
subprocess	-10.7389
div	-10.7411
12	-10.7428
mem	-10.7464
sensor	-10.7468
Port	-10.7469
Format	-10.7475
coord	-10.7483
ver	-10.7487
external	-10.7498
accept	-10.75
prompt	-10.7502
Date	-10.7517
]))	-10.7552
coords	-10.7559
scalar	-10.7561
Header	-10.7567
timezone	-10.7584
entities	-10.7595
pin	-10.7604
[:]	-10.7606
some	-10.7611
constants	-10.7615
Failed	-10.7617
=0)	-10.7647
marker	-10.7649
compare	-10.7676
sigma	-10.7678
cloud	-10.7679
tile	-10.768
scene	-10.7687
super	-10.7695
Location	-10.7708
axes	-10.7723
cast	-10.7737
hidden	-10.7756
Label	-10.7761
future	-10.7768
callable	-10.7788
radius	-10.7812
Network	-10.7821
LOG	-10.7832
two	-10.7835
[1:]	-10.7836
ls	-10.7837
And	-10.7841
backup	-10.7853
tk	-10.7874
rev	-10.7879
DEBUG	-10.7892
loaded	-10.7897
rm	-10.7898
absolute	-10.7909
1))	-10.7926
slot	-10.7929
4,	-10.7951
tb	-10.7952
tables	-10.7952
security	-10.7955
tx	-10.7958
Open	-10.7965
nn	-10.7971
expect	-10.7978
Url	-10.7979
cols	-10.7987
partial	-10.8002
rank	-10.8013
##	-10.8022
age	-10.8028
generic	-10.803
STATE	-10.805
iterator	-10.8075
simulation	-10.8098
__(*	-10.8103
Api	-10.8108
IN	-10.8109
'',	-10.8117
asset	-10.8123
Search	-10.8128
Window	-10.8143
reload	-10.8149
orig	-10.8153
ind	-10.8162
room	-10.8164
setattr	-10.8168
codes	-10.8177
sources	-10.8177
ping	-10.8183
New	-10.8186
related	-10.8189
3.	-10.8191
rand	-10.8195
traceback	-10.8217
modified	-10.8228
phi	-10.8235
epoch	-10.8267
const	-10.8298
java	-10.8319
Range	-10.8326
decorator	-10.8332
ctypes	-10.8335
</	-10.8336
errno	-10.8349
linear	-10.8352
validator	-10.8365
Condition	-10.8367
▁SPACEcan	-10.8372
span	-10.8373
ea	-10.8379
maps	-10.8382
require	-10.8389
Missing	-10.8414
NO	-10.842
actual	-10.8422
notification	-10.8424
nt	-10.8444
("\	-10.8468
con	-10.8473
System	-10.8477
roles	-10.8478
play	-10.8489
reshape	-10.849
Component	-10.8502
locals	-10.8508
evaluate	-10.8522
End	-10.8527
▁SPACExrange	-10.853
son	-10.8535
Simple	-10.8561
projects	-10.8579
reply	-10.8586
calculate	-10.861
disabled	-10.8613
strings	-10.8613
ws	-10.8617
▁SPACEsetattr	-10.8628
pending	-10.8632
dispatch	-10.8649
answer	-10.867
without	-10.8677
ready	-10.868
choices	-10.8692
relative	-10.8694
changes	-10.8713
audio	-10.8717
Option	-10.8717
fh	-10.8721
Button	-10.8772
side	-10.8784
activate	-10.8787
redis	-10.8793
same	-10.8793
deprecated	-10.8795
Operation	-10.8803
restart	-10.8812
best	-10.8821
restore	-10.8825
pages	-10.8827
destination	-10.8835
us	-10.8851
','	-10.8854
klass	-10.8857
peer	-10.8871
ssh	-10.8872
tz	-10.8882
inv	-10.8891
pointer	-10.8892
iface	-10.8902
strftime	-10.8902
cost	-10.8914
django	-10.8919
keyword	-10.8926
lt	-10.8932
arch	-10.8932
Wrapper	-10.8933
Multi	-10.8953
padding	-10.8954
book	-10.8961
cm	-10.8967
cp	-10.8988
sent	-10.8991
assertIn	-10.8995
200	-10.9005
png	-10.9005
isdir	-10.9019
conv	-10.9038
perm	-10.904
Profile	-10.9044
collections	-10.9049
INFO	-10.9052
router	-10.9056
Packet	-10.9079
▁SPACEpragma	-10.9084
activity	-10.9089
cos	-10.9093
Remove	-10.91
Build	-10.9103
walk	-10.9104
monitor	-10.9106
20	-10.9111
seek	-10.9112
deepcopy	-10.9115
dom	-10.9125
colors	-10.9126
statement	-10.9144
existing	-10.9169
etools	-10.9186
false	-10.919
started	-10.9197
pickle	-10.9203
▁SPACEbreak	-10.9207
tc	-10.9209
isfile	-10.921
echo	-10.9225
StringIO	-10.9233
gui	-10.9238
=2)	-10.924
phase	-10.9266
reactor	-10.9269
▁SPACEyet	-10.9269
Empty	-10.9272
fun	-10.9276
Tests	-10.9279
"<	-10.9282
wrapped	-10.9295
ct	-10.9296
prob	-10.9304
extensions	-10.9327
mp	-10.9342
exist	-10.9343
trans	-10.9352
shift	-10.9372
Variable	-10.9377
finish	-10.9384
vs	-10.9402
(2,	-10.9403
Storage	-10.9403
card	-10.9412
nb	-10.9416
abstract	-10.9417
poll	-10.943
dims	-10.9431
Application	-10.9435
latest	-10.9439
KeyError	-10.9442
Target	-10.9443
ED	-10.9443
pause	-10.9444
:]	-10.9448
qs	-10.9451
tmpdir	-10.9454
Prop	-10.9462
CONFIG	-10.9468
ident	-10.9484
interfaces	-10.9485
acl	-10.9489
problem	-10.949
quit	-10.9492
pf	-10.9494
pd	-10.9513
typ	-10.9527
MAX	-10.9531
frames	-10.9552
Reader	-10.9554
rename	-10.9555
0.5	-10.9556
cs	-10.9557
StatusCode	-10.9563
Length	-10.9567
correct	-10.9574
Sequence	-10.9578
comments	-10.9582
bundle	-10.9583
4)	-10.9583
console	-10.9589
'})	-10.959
ratio	-10.9597
Structure	-10.96
hexdigest	-10.9608
iso	-10.9614
publish	-10.9618
Graph	-10.9619
Select	-10.9625
VERSION	-10.9627
requires	-10.9635
Local	-10.9686
[0,	-10.969
lldb	-10.9695
geo	-10.9704
ps	-10.9704
DELETE	-10.971
Rule	-10.9724
kwds	-10.975
bound	-10.9761
ir	-10.977
▁SPACEwill	-10.9789
counts	-10.9799
received	-10.9803
apps	-10.9806
encoded	-10.9812
versions	-10.9814
more	-10.9817
5,	-10.9819
threads	-10.9821
until	-10.9823
Store	-10.9825
▁SPACEsubprocess	-10.9827
USER	-10.983
################	-10.984
adapter	-10.9841
fixed	-10.9849
warnings	-10.9849
cwd	-10.9874
3:	-10.9883
constant	-10.9886
le	-10.9889
turn	-10.9894
Box	-10.9894
flat	-10.99
Lock	-10.9971
Control	-10.9975
descriptor	-10.9987
sin	-10.9999
Shape	-11.0015
mgr	-11.0017
acquire	-11.0017
Msg	-11.0023
setdefault	-11.0027
({	-11.0032
2))	-11.0033
Of	-11.0035
5)	-11.0039
native	-11.0042
hello	-11.0044
If	-11.0046
xy	-11.0076
many	-11.0078
docs	-11.008
chr	-11.0088
finished	-11.0094
cmp	-11.0098
rstrip	-11.0107
pipe	-11.0109
templates	-11.0128
=['	-11.0137
callbacks	-11.0159
vol	-11.0169
Account	-11.0192
abort	-11.0195
1/	-11.0196
Any	-11.02
dependencies	-11.0203
strict	-11.0207
country	-11.0217
Protocol	-11.0231
generation	-11.0233
My	-11.0238
dx	-11.0239
Dummy	-11.024
3_	-11.024
'__	-11.0244
Directory	-11.0252
pairs	-11.0253
resize	-11.0267
installed	-11.0271
ssl	-11.0272
PY	-11.0274
Load	-11.0279
dl	-11.0296
8)	-11.0304
{0}	-11.0314
Stop	-11.0323
dep	-11.034
sw	-11.0347
clip	-11.0349
structure	-11.0355
bus	-11.0358
multiple	-11.036
▁SPACEMeta	-11.0366
-1)	-11.0372
UNIMPLEMENTED	-11.0379
over	-11.0381
11	-11.0384
Host	-11.039
NS	-11.0392
▁TABraise	-11.0397
Failure	-11.04
canvas	-11.0406
define	-11.0411
makedirs	-11.0427
Order	-11.0442
NOT	-11.0443
256	-11.0454
tail	-11.0498
stage	-11.0498
utc	-11.0505
Max	-11.0521
SELECT	-11.0525
gamma	-11.0532
]]	-11.0539
Package	-11.0542
vocab	-11.0562
focus	-11.0579
▁SPACEFIXME	-11.0606
ON	-11.0609
Obj	-11.0609
▁TABpass	-11.0616
Register	-11.0622
rs	-11.0632
Root	-11.0633
▁SPACEshutil	-11.0639
Changed	-11.064
red	-11.0646
docker	-11.0653
double	-11.0666
randint	-11.0671
toggle	-11.0673
windows	-11.0684
Post	-11.0686
logout	-11.0689
retry	-11.0702
numbers	-11.071
Use	-11.0715
abc	-11.0716
once	-11.0718
bbox	-11.0726
IO	-11.0727
▁SPACEwant	-11.0735
formatter	-11.074
BASE	-11.074
▁SPACEwas	-11.0741
wb	-11.0743
sentence	-11.0744
Dialog	-11.0745
metaclass	-11.0748
defined	-11.0771
distribution	-11.0785
retrieve	-11.0797
mail	-11.0806
60	-11.0809
testing	-11.0823
mount	-11.0829
temperature	-11.0837
terms	-11.0843
ap	-11.0849
ma	-11.0857
Generator	-11.0859
Logger	-11.0871
working	-11.0884
mass	-11.089
serializers	-11.0891
pub	-11.0894
training	-11.0896
calls	-11.0898
needs	-11.0904
logs	-11.0905
32)	-11.0912
added	-11.0919
▁SPACEctypes	-11.0926
dec	-11.0941
collect	-11.0941
contact	-11.096
mk	-11.0975
Parse	-11.0989
mi	-11.1004
Handle	-11.1008
24	-11.1016
symbols	-11.1018
SET	-11.102
"")	-11.1025
manage	-11.1031
share	-11.1039
Auth	-11.1045
▁SPACEcover	-11.1049
...")	-11.1049
1),	-11.1063
assign	-11.1069
break	-11.1071
Comment	-11.1075
inc	-11.1075
sa	-11.1082
Callback	-11.1085
globals	-11.1109
dc	-11.111
validation	-11.112
pc	-11.1124
dn	-11.114
final	-11.1143
bb	-11.1147
Hash	-11.1154
ones	-11.1162
0]	-11.1162
se	-11.1163
named	-11.1181
consumer	-11.1182
boolean	-11.1183
Ref	-11.1195
}'.	-11.1195
▁SPACEplt	-11.1196
TO	-11.12
▁SPACErv	-11.1203
maximum	-11.1204
mkdir	-11.1208
camera	-11.1227
background	-11.123
bottom	-11.1244
Integer	-11.1258
cond	-11.1266
[1,	-11.1269
Spec	-11.1277
NotFoundError	-11.1289
submit	-11.1302
▁SPACEany	-11.1306
grpc	-11.1306
td	-11.1307
lr	-11.1308
locked	-11.1323
alt	-11.1324
ipv	-11.1326
too	-11.1329
lon	-11.1344
categories	-11.1345
OrderedDict	-11.136
Signal	-11.1362
pdf	-11.1363
Agent	-11.1367
18	-11.1387
Role	-11.1399
tenant	-11.1416
hparams	-11.144
ent	-11.1441
('/')	-11.1451
▁SPACEnoqa	-11.1462
daemon	-11.1464
tp	-11.1472
Position	-11.1483
cells	-11.1495
initialized	-11.1501
00	-11.1501
staff	-11.1506
nums	-11.1524
workflow	-11.1534
setitem	-11.1534
ALL	-11.154
Change	-11.156
Reference	-11.1562
caller	-11.1572
syntax	-11.1587
Values	-11.1594
prog	-11.1594
Or	-11.1607
5(	-11.1609
Names	-11.161
views	-11.1618
receive	-11.1619
▁SPACEimplement	-11.1624
astype	-11.1628
gid	-11.1631
patterns	-11.1648
pixel	-11.1655
curr	-11.166
renderer	-11.1664
analysis	-11.1669
Tuple	-11.1673
Auto	-11.1675
question	-11.1675
One	-11.1678
catalog	-11.1682
As	-11.1692
unlink	-11.1702
since	-11.1703
xs	-11.171
Unit	-11.171
Metadata	-11.1712
]['	-11.1721
average	-11.1728
resolver	-11.175
pretty	-11.1752
hooks	-11.1757
place	-11.1763
stmt	-11.1763
Extension	-11.1764
given	-11.1764
rmtree	-11.1768
CONF	-11.1776
ali	-11.1786
scores	-11.1789
sess	-11.1791
pull	-11.1798
Close	-11.1807
Op	-11.183
bridge	-11.183
###	-11.1837
connections	-11.1841
nr	-11.1847
3(	-11.1867
th	-11.188
▁TABtry	-11.188
finalize	-11.1883
atoms	-11.1886
cd	-11.1889
Level	-11.1895
constructor	-11.1897
instrument	-11.191
sections	-11.1911
▁SPACEhere	-11.192
Entity	-11.1932
objs	-11.1943
nick	-11.1948
po	-11.1953
lo	-11.1954
nx	-11.1954
encoder	-11.1959
act	-11.1969
executable	-11.1972
geometry	-11.1973
keywords	-11.1979
clock	-11.198
Cannot	-11.1982
certificate	-11.1987
CharField	-11.1989
gl	-11.2001
cov	-11.2002
Args	-11.2014
listdir	-11.2016
ca	-11.2019
sicd	-11.2023
Provider	-11.2024
200)	-11.2035
Policy	-11.205
Report	-11.2051
mc	-11.2052
predicate	-11.2065
align	-11.2071
STATUS	-11.2074
▁SPACEretval	-11.2081
so	-11.2088
paper	-11.2089
(2)	-11.209
review	-11.2092
OS	-11.2097
seen	-11.2107
(3,	-11.2107
br	-11.2113
Buffer	-11.2113
transpose	-11.2114
Controller	-11.2116
yield	-11.2117
▁SPACEOSError	-11.2125
▁TABexcept	-11.2138
blank	-11.215
Database	-11.2151
Script	-11.216
Parameters	-11.2173
Out	-11.2174
Dataset	-11.2175
▁SPACEwhich	-11.2184
Files	-11.2184
tcp	-11.2187
tm	-11.2188
0))	-11.2196
lists	-11.2207
ROOT	-11.2207
alive	-11.2212
detect	-11.222
ticket	-11.2223
▁TABprint	-11.2225
widgets	-11.2237
cross	-11.2245
CMD	-11.2245
Only	-11.2246
amp	-11.2258
01	-11.2261
surface	-11.2262
[3]	-11.2269
poly	-11.227
=""	-11.2294
less	-11.2294
dust	-11.23
good	-11.2311
asarray	-11.2312
face	-11.2313
Python	-11.2318
standard	-11.2319
pkt	-11.2325
NProperty	-11.2327
IS	-11.233
known	-11.2334
limits	-11.2338
1000	-11.2341
recursive	-11.2342
complex	-11.2358
sets	-11.2366
major	-11.2366
about	-11.2377
1',	-11.2389
libsbol	-11.2398
Binary	-11.2406
LIST	-11.2411
rotate	-11.242
assertIsInstance	-11.2423
Feature	-11.2428
servers	-11.2439
LOGGER	-11.2447
pr	-11.2448
vertex	-11.2455
perform	-11.2466
▁SPACEFROM	-11.2469
github	-11.2471
modify	-11.2488
▁TABassert	-11.2507
Init	-11.2513
Domain	-11.2516
ordered	-11.2526
phone	-11.2527
/'	-11.2554
[2])	-11.2555
()[0]	-11.2557
calendar	-11.2559
execution	-11.2561
li	-11.2565
frequency	-11.2569
▁SPACEcontinue	-11.258
tick	-11.2591
acc	-11.2593
live	-11.2599
Params	-11.2605
band	-11.2607
Var	-11.2619
void	-11.2621
6,	-11.2633
Site	-11.2634
removed	-11.2635
magic	-11.2638
ac	-11.2639
registered	-11.2645
localhost	-11.2656
▁SPACEalready	-11.268
percent	-11.2684
PREFIX	-11.2692
"--	-11.2695
30	-11.2703
boot	-11.2704
gateway	-11.271
today	-11.2716
manifest	-11.2717
Volume	-11.2717
notes	-11.2719
www	-11.2725
rotation	-11.2734
recipe	-11.2735
figure	-11.2743
pm	-11.2761
Writer	-11.2763
stdin	-11.2766
ep	-11.2769
ll	-11.2771
ndim	-11.2776
translation	-11.2777
light	-11.2779
indexes	-11.2788
Helper	-11.2792
Custom	-11.2795
precision	-11.2801
pg	-11.2801
Show	-11.2806
▁SPACEso	-11.2816
runtime	-11.282
mag	-11.2822
Web	-11.2833
saved	-11.284
capture	-11.2853
ra	-11.286
optional	-11.2861
rep	-11.2866
theme	-11.287
ING	-11.287
[2],	-11.2873
'{	-11.2874
40	-11.2879
alert	-11.2903
workspace	-11.2904
transition	-11.2912
Types	-11.2914
filenames	-11.2926
enc	-11.2926
are	-11.2928
Timeout	-11.2941
oid	-11.2944
Backend	-11.2947
"].	-11.295
Style	-11.2956
Enabled	-11.2957
wrong	-11.2961
Row	-11.2961
exe	-11.2962
findall	-11.2965
strategy	-11.297
inf	-11.297
nan	-11.2975
Generic	-11.2978
Send	-11.298
plan	-11.298
Unsupported	-11.2987
mo	-11.2988
▁SPACEbeen	-11.2989
zoom	-11.2995
Twilio	-11.3004
effect	-11.3005
dy	-11.3006
Current	-11.3006
plain	-11.3012
seg	-11.3014
cover	-11.3019
noise	-11.3022
"-	-11.3042
positions	-11.3043
reversed	-11.3045
mouse	-11.3045
readline	-11.3047
Pattern	-11.3049
xpath	-11.3054
attrib	-11.3059
vim	-11.3063
nested	-11.3064
Child	-11.3067
subnet	-11.3078
Float	-11.308
0),	-11.3088
Step	-11.3089
HttpResponse	-11.309
boxes	-11.3096
▁SPACEinstead	-11.3097
terminate	-11.31
inspect	-11.3101
square	-11.3102
levels	-11.3102
wx	-11.3103
special	-11.3104
minimum	-11.3106
mol	-11.3107
information	-11.3117
chart	-11.3131
Save	-11.3131
Transform	-11.3132
wiki	-11.3132
ad	-11.3133
rt	-11.3137
which	-11.3141
02	-11.3141
Find	-11.3145
mm	-11.3146
article	-11.3159
completed	-11.3184
Basic	-11.32
mx	-11.3202
TIME	-11.3202
cycle	-11.3208
configs	-11.3216
updates	-11.3218
builtin	-11.3232
ndarray	-11.3232
arange	-11.3244
getLogger	-11.3249
chat	-11.3252
increment	-11.3258
sym	-11.3259
jid	-11.327
Cell	-11.3273
At	-11.3278
aws	-11.328
inventory	-11.3281
star	-11.3283
▁SPACEbut	-11.3287
pow	-11.3289
signals	-11.3293
logical	-11.3302
minor	-11.3302
man	-11.3303
dll	-11.3303
Deprecation	-11.3311
Password	-11.3313
ATTR	-11.3324
rf	-11.3335
▁SPACEhashlib	-11.3336
oauth	-11.334
geom	-11.3341
refs	-11.3346
Fake	-11.335
comm	-11.3362
▁SPACEtearDown	-11.3377
/{	-11.3397
chunks	-11.34
song	-11.3401
-1,	-11.3402
bias	-11.3405
cookies	-11.3406
repeat	-11.3406
constraint	-11.3413
[:-1]	-11.3416
ci	-11.3417
fast	-11.3417
dp	-11.3422
uniform	-11.3424
"".	-11.3447
manual	-11.3449
negative	-11.3452
entropy	-11.3458
construct	-11.3459
gs	-11.3465
16)	-11.3475
thing	-11.3478
__['	-11.348
']))	-11.3481
Cursor	-11.3486
demo	-11.3496
Transaction	-11.3496
END	-11.3512
coordinates	-11.3515
HTML	-11.3544
URI	-11.3545
rp	-11.3546
maybe	-11.3549
separator	-11.3552
ha	-11.3556
Counter	-11.3562
Section	-11.3566
vertices	-11.3567
Http	-11.3571
ldap	-11.3584
ic	-11.3588
Match	-11.3597
nd	-11.36
curve	-11.3606
topics	-11.3615
UI	-11.3615
fr	-11.362
'/'	-11.3625
mapper	-11.3625
'")	-11.3626
mid	-11.3632
Import	-11.3633
>"	-11.3647
sparse	-11.3662
parents	-11.3665
Email	-11.3666
ify	-11.367
Required	-11.3674
proj	-11.3678
scroll	-11.3681
checksum	-11.3687
formula	-11.369
addresses	-11.3691
annotation	-11.3691
Do	-11.3692
segments	-11.371
Tab	-11.3714
upgrade	-11.3714
Registry	-11.3726
Pos	-11.373
DoesNotExist	-11.3741
robot	-11.3747
ST	-11.3748
Rate	-11.3751
Environment	-11.3752
=2,	-11.3767
creation	-11.3777
sel	-11.3782
Non	-11.3789
hours	-11.379
panel	-11.3791
Notification	-11.3804
green	-11.3814
hint	-11.3815
OP	-11.3819
else	-11.3824
TypeId	-11.3824
dirty	-11.3825
ev	-11.3827
Num	-11.3832
Has	-11.384
wraps	-11.384
TODO	-11.3841
scheduler	-11.3844
leaf	-11.3851
namespaces	-11.3852
Edit	-11.3854
relation	-11.3861
Can	-11.3874
▁SPACEbasestring	-11.3888
vlan	-11.3893
cut	-11.3904
fileName	-11.3904
confirm	-11.3906
usr	-11.391
logfile	-11.3911
dimension	-11.3912
splitlines	-11.3914
32(	-11.3921
currency	-11.3926
tar	-11.3931
00\	-11.3953
Category	-11.3953
mul	-11.396
assertIsNone	-11.3968
playlist	-11.3972
optimizer	-11.3977
Param	-11.3979
returns	-11.3983
UEST	-11.3988
8,	-11.3994
am	-11.3998
chan	-11.4001
inverse	-11.4005
tzinfo	-11.4007
eps	-11.4008
digits	-11.4009
workers	-11.4017
attach	-11.4019
MODE	-11.4019
Expr	-11.4019
={	-11.4021
sudo	-11.4033
checker	-11.4033
-1):	-11.4037
et	-11.4039
8(	-11.4041
populate	-11.4052
-1:	-11.4058
IOError	-11.4063
avg	-11.4065
Access	-11.4067
market	-11.4071
algorithm	-11.4072
gp	-11.4074
utcnow	-11.4078
Word	-11.4091
dic	-11.4092
Prefix	-11.4101
ack	-11.4106
Print	-11.411
Selection	-11.4113
guess	-11.4114
Stack	-11.4115
10)	-11.4116
/"	-11.4121
mappings	-11.4145
specs	-11.4152
pp	-11.4153
Cmd	-11.4166
variant	-11.4173
Space	-11.418
createInstance	-11.418
ask	-11.4183
positive	-11.4197
AT	-11.4203
Details	-11.4209
xyz	-11.421
Cluster	-11.4211
corpus	-11.4221
[],	-11.4221
Flag	-11.4235
cnt	-11.4236
Formatter	-11.4237
Stats	-11.4247
sk	-11.4248
requirements	-11.425
AF	-11.4257
Builder	-11.4261
domains	-11.4264
Grid	-11.4272
preview	-11.4272
Random	-11.4285
invoke	-11.4286
MAP	-11.4288
▁SPACEIndexError	-11.4301
ttl	-11.4301
cap	-11.4309
receiver	-11.434
Properties	-11.4347
Sample	-11.4351
Flags	-11.4353
dat	-11.4372
lazy	-11.4377
sm	-11.4378
sizes	-11.4386
dynamic	-11.4401
1')	-11.4408
EX	-11.4413
TEMPLATE	-11.4413
quantity	-11.4416
ib	-11.4422
Note	-11.4427
big	-11.4442
__))	-11.4445
needed	-11.4447
assignment	-11.4451
lc	-11.4486
examples	-11.4487
deps	-11.4489
character	-11.449
terminal	-11.4502
Reset	-11.4504
par	-11.4523
spaces	-11.4523
Foo	-11.4526
CODE	-11.4531
aliases	-11.4536
\\	-11.454
{},	-11.4542
direct	-11.4542
logged	-11.4542
charset	-11.4544
bs	-11.4549
nc	-11.4549
13	-11.4562
Bytes	-11.4567
discovery	-11.4567
union	-11.4568
taobao	-11.4575
stub	-11.4579
must	-11.4581
Func	-11.4582
hour	-11.4582
linalg	-11.4585
unregister	-11.4585
baba	-11.4587
google	-11.4595
)}	-11.46
literal	-11.4611
Null	-11.4612
fc	-11.4612
connector	-11.4625
DataFrame	-11.4625
Engine	-11.4632
ER	-11.4636
except	-11.464
prod	-11.4643
fig	-11.4648
instruction	-11.4661
▁SPACEmandatory	-11.4662
03	-11.4666
De	-11.4668
deserialize	-11.467
2]	-11.4672
>')	-11.4674
lvs	-11.4682
launch	-11.4683
Expected	-11.4685
shard	-11.4687
Loader	-11.4688
itervalues	-11.4688
compiler	-11.469
rho	-11.4691
signed	-11.4692
ss	-11.4694
Region	-11.47
fact	-11.4705
neg	-11.471
-8")	-11.4713
80	-11.4715
gc	-11.4716
PIPE	-11.4717
accounts	-11.4718
FLAGS	-11.472
ImportError	-11.4721
Description	-11.4741
UUID	-11.4756
userid	-11.4763
Offset	-11.4764
Setting	-11.4778
15	-11.4783
}".	-11.4785
('<	-11.4795
Constant	-11.4803
Arg	-11.4806
▁SPACErhs	-11.4806
Title	-11.4807
Doc	-11.4807
supports	-11.4822
modes	-11.4827
te	-11.4828
Pool	-11.4839
tokenize	-11.4843
"]["	-11.4848
APP	-11.485
Raw	-11.4851
gtk	-11.4859
SP	-11.4863
ml	-11.4866
ParseError	-11.4875
delimiter	-11.4876
Authentication	-11.4879
kv	-11.4881
experiment	-11.4882
bug	-11.4885
']]	-11.4893
datasets	-11.4895
customer	-11.4899
executor	-11.49
verbosity	-11.49
flask	-11.49
dm	-11.4903
gene	-11.4907
ks	-11.4908
tracker	-11.4909
contract	-11.492
/')	-11.4927
bulk	-11.4929
checks	-11.4929
CLASS	-11.4938
decoder	-11.4938
Validator	-11.4952
take	-11.4969
matching	-11.4972
}'	-11.4979
definitions	-11.4985
pl	-11.4987
Remote	-11.4989
deg	-11.4994
Folder	-11.5
regions	-11.5006
deploy	-11.5012
Menu	-11.5015
TYPES	-11.5016
fg	-11.5023
always	-11.5025
hi	-11.5028
dimensions	-11.5031
bins	-11.5034
25	-11.5036
mime	-11.5038
▁SPACEthreading	-11.5045
minutes	-11.5046
0-	-11.5049
DOMAIN	-11.5054
tup	-11.5054
64(	-11.5055
ranges	-11.506
diag	-11.5063
pod	-11.5072
FS	-11.5079
plus	-11.5093
Tensor	-11.5098
actor	-11.5098
helpers	-11.5105
secs	-11.5108
('.')	-11.5109
ro	-11.5112
dd	-11.512
[1].	-11.513
authenticated	-11.5146
numeric	-11.5153
ab	-11.5157
tt	-11.5158
14	-11.5161
swap	-11.5161
Sync	-11.5175
:\	-11.5178
Course	-11.5178
ta	-11.518
}/	-11.5181
docstring	-11.5185
FORMAT	-11.5191
ty	-11.5195
crc	-11.5202
History	-11.5204
shuffle	-11.5208
Batch	-11.5209
ul	-11.521
license	-11.5212
ation	-11.5218
yes	-11.5221
guid	-11.5223
rollback	-11.5226
pose	-11.5245
statistics	-11.5251
idle	-11.5253
1",	-11.5255
classmethod	-11.5263
Permission	-11.5264
ion	-11.5268
splitext	-11.5269
subscription	-11.5277
4.	-11.5281
Copy	-11.5281
404	-11.5285
hit	-11.5287
episode	-11.5287
chdir	-11.5288
etc	-11.5297
organization	-11.5298
Media	-11.5299
Product	-11.53
64.	-11.53
ai	-11.53
Could	-11.5302
Fields	-11.5303
Parent	-11.5304
You	-11.5305
(["	-11.5306
Adapter	-11.531
sr	-11.5312
ize	-11.5316
cf	-11.5322
material	-11.5325
Plot	-11.5344
energy	-11.5355
heap	-11.5357
Global	-11.5357
binding	-11.5362
rot	-11.5363
OR	-11.5373
HOST	-11.5373
()])	-11.5374
AssertionError	-11.5377
inline	-11.5378
Display	-11.5383
OB	-11.5393
checked	-11.5393
byref	-11.5401
candidate	-11.5407
')]	-11.5411
cleaned	-11.5415
todo	-11.5416
lexer	-11.5426
na	-11.5426
Export	-11.543
▁SPACELOG	-11.5443
clusters	-11.5448
benchmark	-11.5449
bc	-11.546
Override	-11.5463
additional	-11.5464
touch	-11.5464
6)	-11.5469
{0}'.	-11.5472
Feed	-11.5474
nl	-11.5475
4(	-11.5476
Login	-11.5477
album	-11.5483
coverage	-11.5487
▁SPACEendDate	-11.5491
compress	-11.5492
alarm	-11.5494
Body	-11.5495
quiet	-11.5496
predictions	-11.5502
Driver	-11.5503
resolution	-11.5504
▁SPACEwarnings	-11.5504
Items	-11.5506
notebook	-11.5506
501	-11.5506
▁SPACEtorch	-11.5515
Switch	-11.5523
Argument	-11.5523
ee	-11.5525
orders	-11.5525
gradient	-11.5527
▁SPACEurllib	-11.5528
encrypt	-11.5532
inp	-11.5534
Popen	-11.5544
'"	-11.5545
UN	-11.5553
compat	-11.5557
cmds	-11.556
artist	-11.5563
▁SPACEconstruct	-11.5566
▁SPACEneed	-11.5577
physical	-11.5584
purge	-11.5595
UTF	-11.5596
annotations	-11.56
sqlite	-11.5607
Timer	-11.5612
Clear	-11.5616
colour	-11.5627
implementation	-11.5638
bp	-11.5644
FileName	-11.5651
small	-11.5656
datastore	-11.5657
clients	-11.5673
Unicode	-11.5679
XmlElement	-11.5685
04	-11.5691
aa	-11.5692
rad	-11.5693
shapes	-11.5699
quota	-11.5711
smart	-11.5712
Equal	-11.5714
qt	-11.5719
way	-11.5721
authenticate	-11.5723
gpu	-11.5728
▁SPACEIOError	-11.5729
stopped	-11.5741
Make	-11.5741
pylint	-11.5743
Namespace	-11.5745
fragment	-11.5751
First	-11.5753
('',	-11.5768
decimal	-11.5769
rhs	-11.5775
exchange	-11.5781
Mapping	-11.5783
converter	-11.5789
clicked	-11.579
grp	-11.5793
Must	-11.5796
filtered	-11.5797
><	-11.5804
locations	-11.5806
does	-11.5809
published	-11.582
Hello	-11.5831
Please	-11.5831
Person	-11.584
hist	-11.5846
Env	-11.5852
transfer	-11.5852
▁SPACEbeginDate	-11.5854
Geo	-11.5861
ECT	-11.5865
ips	-11.5867
Coordinate	-11.5874
getData	-11.5881
what	-11.5882
listeners	-11.5882
▁SPACEpd	-11.5883
fan	-11.5886
Iterator	-11.5895
markdown	-11.5901
tGui	-11.5907
ctrl	-11.5908
Keys	-11.5913
broker	-11.5921
linux	-11.5922
aux	-11.5925
Definition	-11.5926
nm	-11.593
la	-11.593
Game	-11.5933
floor	-11.5946
repos	-11.5948
vectors	-11.596
sheet	-11.5963
2.0	-11.597
bl	-11.5976
creator	-11.5979
describe	-11.5979
assets	-11.598
photo	-11.5985
Tool	-11.5988
Initialize	-11.5989
iterations	-11.599
health	-11.5998
fileno	-11.6005
watch	-11.6005
partner	-11.6014
epsilon	-11.6026
ng	-11.6026
flip	-11.6051
Windows	-11.6082
placeholder	-11.6083
()),	-11.6089
rdf	-11.6092
TAG	-11.6092
':'	-11.6102
broadcast	-11.6115
bindings	-11.6122
bg	-11.6126
invert	-11.6131
projection	-11.6131
Socket	-11.6131
soup	-11.6133
({"	-11.6136
tok	-11.6146
dao	-11.6149
▁SPACEhparams	-11.6152
Single	-11.6155
4_	-11.6157
normalized	-11.6158
Video	-11.6165
orientation	-11.6165
Series	-11.6166
readlines	-11.6169
boto	-11.6177
follow	-11.6183
Layout	-11.6184
▁SPACEactual	-11.6188
checkpoint	-11.6189
__(**	-11.6192
em	-11.6194
▁SPACEdoesn	-11.6199
processes	-11.62
capacity	-11.6201
Unable	-11.6202
prior	-11.6202
Net	-11.6203
containers	-11.6212
specific	-11.6212
tCore	-11.6224
Geometry	-11.6224
wf	-11.6225
then	-11.6227
pts	-11.6232
tid	-11.6241
Width	-11.6242
constraints	-11.6242
Results	-11.6255
nu	-11.6259
protected	-11.6261
10,	-11.6267
▁SPACEdon	-11.6267
sl	-11.6268
have	-11.6271
parallel	-11.6271
guest	-11.6272
wavelength	-11.6272
conditions	-11.6278
each	-11.6279
coordinate	-11.628
boundary	-11.6283
fileobj	-11.6284
mimetype	-11.6293
()}	-11.6299
RGB	-11.6303
Flow	-11.6308
Attr	-11.6331
uv	-11.6332
Pre	-11.6348
sf	-11.6353
blue	-11.6354
testcase	-11.6364
Optional	-11.6367
lb	-11.6372
subclasses	-11.6375
pw	-11.6375
Segment	-11.6377
press	-11.6388
Constraint	-11.6391
basis	-11.6397
bases	-11.6401
'][	-11.6402
Char	-11.6406
VM	-11.6414
secure	-11.6415
Events	-11.6418
26	-11.6418
resume	-11.6419
balance	-11.6421
DateTime	-11.6422
sequences	-11.6423
operations	-11.6423
INT	-11.6431
[1:])	-11.6435
isnan	-11.6439
Instruction	-11.6439
Transport	-11.644
pa	-11.6441
Pipeline	-11.6444
"{	-11.6447
subset	-11.6447
ff	-11.6451
reward	-11.6452
"]:	-11.647
got	-11.6473
student	-11.6475
profiles	-11.6478
aggregate	-11.6481
Db	-11.6487
=[]	-11.6487
snap	-11.6487
ix	-11.649
adj	-11.65
iteration	-11.6502
sessions	-11.6503
drive	-11.6504
story	-11.651
Identity	-11.6513
volumes	-11.6524
agents	-11.6528
Col	-11.6532
pwd	-11.6542
functools	-11.6543
Async	-11.6544
SystemExit	-11.6549
concat	-11.6551
processing	-11.6559
listen	-11.6562
addon	-11.6563
regexp	-11.6563
compatible	-11.6564
setText	-11.6564
ignored	-11.6566
Core	-11.6567
learning	-11.6573
expired	-11.6578
outer	-11.6579
Received	-11.6579
Memory	-11.658
deferred	-11.6585
32,	-11.6587
rx	-11.6594
Install	-11.6594
ge	-11.6596
getcwd	-11.66
est	-11.6604
serve	-11.6607
visibility	-11.6609
requested	-11.661
TEXT	-11.6611
queries	-11.662
scanner	-11.6621
rng	-11.6622
funcs	-11.6628
**2	-11.6628
iv	-11.6629
tell	-11.6629
rl	-11.6632
hs	-11.6638
"",	-11.6659
runs	-11.6667
dependency	-11.6683
indicID	-11.6683
▁SPACEindicName	-11.6683
tbl	-11.6695
Part	-11.6695
formatted	-11.6698
IPv	-11.6698
▁SPACElibxml	-11.6701
TABLE	-11.6703
initializer	-11.6707
'.'	-11.6715
tracks	-11.6715
most	-11.6716
fl	-11.6717
consume	-11.6718
between	-11.672
US	-11.6726
ant	-11.673
ii	-11.6733
need	-11.6735
possible	-11.6744
([])	-11.6748
activation	-11.6758
="",	-11.6762
2),	-11.6763
Bar	-11.6765
undo	-11.6767
delegate	-11.677
observed	-11.6772
ordering	-11.6778
handles	-11.6782
goal	-11.6788
margin	-11.6788
att	-11.6793
printer	-11.6794
unlock	-11.6802
▁SPACEexist	-11.6814
_2_	-11.6819
Release	-11.682
Nodes	-11.6822
dataframe	-11.6825
rv	-11.6832
equals	-11.6835
networks	-11.6837
CC	-11.6838
NODE	-11.6858
Worker	-11.6862
into	-11.6865
latent	-11.6871
Language	-11.6871
)[1]	-11.6873
Debug	-11.6889
Xml	-11.6892
4:	-11.6908
Lib	-11.6929
ABCMeta	-11.6933
42	-11.6934
markup	-11.6937
Up	-11.6939
invalidate	-11.6945
CACHE	-11.6951
ld	-11.6954
sd	-11.6955
ln	-11.6955
Decimal	-11.6958
Redirect	-11.697
spawn	-11.6973
validators	-11.6977
▁SPACEWHERE	-11.6988
journal	-11.6988
mongo	-11.6993
ffi	-11.6995
6(	-11.7014
▁SPACEjust	-11.7014
fx	-11.7026
passed	-11.7031
▁SPACEyou	-11.7041
Setup	-11.7042
ViewSet	-11.7043
adjust	-11.7044
UTC	-11.7048
let	-11.7049
flavor	-11.7049
▁SPACEbecause	-11.7053
Usage	-11.7056
subscribe	-11.7057
Identifier	-11.706
qname	-11.7062
▁SPACEpickle	-11.7068
Cfunction	-11.7076
expanduser	-11.7078
('-	-11.7081
completion	-11.7083
Library	-11.7086
attachment	-11.7088
▁SPACEWe	-11.7088
{1}	-11.7095
Struct	-11.7097
Repo	-11.7098
Main	-11.7105
Symbol	-11.7106
letter	-11.7127
pick	-11.7128
prep	-11.7134
MP	-11.7139
fullname	-11.7145
CS	-11.7147
mf	-11.7154
dialect	-11.7164
than	-11.717
tpl	-11.7194
Hook	-11.7195
documents	-11.7196
Edge	-11.7197
degree	-11.7205
unix	-11.7207
ini	-11.7213
lhs	-11.7214
crypto	-11.7216
dashboard	-11.7218
VALUE	-11.7226
0.0,	-11.7237
solver	-11.7248
stride	-11.725
deep	-11.7257
shot	-11.7268
Common	-11.7269
Font	-11.7269
observer	-11.7279
pixels	-11.7297
parsers	-11.7307
8')	-11.7311
SE	-11.7311
fallback	-11.7321
formats	-11.7321
nav	-11.7334
anchor	-11.7336
dr	-11.7349
Skip	-11.7351
velocity	-11.736
torch	-11.7364
hub	-11.7364
stamp	-11.7375
nonzero	-11.7378
][0]	-11.7386
Render	-11.7387
cube	-11.7387
_1(	-11.7391
IntEnum	-11.7394
dates	-11.7402
strptime	-11.7413
gr	-11.7414
dbus	-11.7417
txn	-11.7418
notifications	-11.7419
setValue	-11.7424
getter	-11.7429
estimator	-11.7429
modifier	-11.7429
misc	-11.7434
Utils	-11.7435
0.0)	-11.7441
we	-11.7443
Mesh	-11.7447
Running	-11.7448
distinct	-11.7453
combine	-11.7455
Term	-11.7455
2',	-11.7456
characters	-11.7458
pip	-11.7462
Case	-11.7471
1])	-11.7472
Next	-11.7472
[('	-11.7479
longitude	-11.748
ie	-11.7484
Lookup	-11.7488
feedback	-11.7494
conversion	-11.7503
GROUP	-11.7504
ers	-11.7521
(3)	-11.7522
></	-11.7522
Certificate	-11.7525
400	-11.7529
quality	-11.7532
[3])	-11.7533
Summary	-11.7533
languages	-11.7545
partitions	-11.7545
Inline	-11.7546
something	-11.7547
Multiple	-11.755
Normal	-11.7564
STRING	-11.7572
audit	-11.7574
opcode	-11.7579
overwrite	-11.758
mtime	-11.7587
palette	-11.759
logits	-11.7591
torrent	-11.7595
cannot	-11.7608
cpp	-11.7611
Member	-11.7612
34	-11.7613
management	-11.7615
assertIsNotNone	-11.7616
station	-11.7622
Exit	-11.7625
","	-11.763
='')	-11.7635
Editor	-11.7637
cipher	-11.7639
Min	-11.764
detach	-11.7641
dispatcher	-11.7646
Boolean	-11.7653
sensitive	-11.7658
[0]]	-11.7658
Split	-11.7669
retcode	-11.7675
duplicate	-11.7679
▁SPACEyour	-11.7687
pref	-11.7691
XY	-11.7694
"/"	-11.7694
INET	-11.7694
(1))	-11.7695
'{}	-11.7696
multiply	-11.7696
portal	-11.7699
+1)	-11.771
solve	-11.771
hdr	-11.7717
leave	-11.7727
difference	-11.7727
23	-11.7729
2')	-11.7729
brightness	-11.7737
waiting	-11.7738
10):	-11.7747
heartbeat	-11.7751
extended	-11.777
Descriptor	-11.7774
StopIteration	-11.7779
assertIs	-11.7779
trim	-11.7781
ke	-11.7794
▁SPACEinspect	-11.7797
sound	-11.7803
bank	-11.7805
topology	-11.7819
Platform	-11.782
Attributes	-11.7825
replicas	-11.7831
255	-11.7833
=100)	-11.7835
ies	-11.784
kargs	-11.784
Rect	-11.7842
routes	-11.7846
credential	-11.7851
128	-11.7865
observation	-11.7865
urllib	-11.787
cuda	-11.7877
defaultdict	-11.7884
ticks	-11.7889
Bit	-11.789
representation	-11.7894
serialized	-11.7894
af	-11.7898
il	-11.79
arm	-11.7904
outfile	-11.7915
_404(	-11.7915
Chain	-11.7917
recent	-11.7922
Val	-11.7927
Timestamp	-11.7929
▁SPACEInform	-11.7934
scripts	-11.7942
readonly	-11.7942
Download	-11.7944
"+	-11.795
MD	-11.7951
Active	-11.7951
continue	-11.7956
pressure	-11.7959
polygon	-11.7963
rating	-11.7968
sanitize	-11.7989
sites	-11.7991
>\	-11.7992
wave	-11.7995
Area	-11.7998
-8'))	-11.7999
cam	-11.8001
Power	-11.8001
plural	-11.8005
mult	-11.8012
young	-11.8016
TIMEOUT	-11.8016
SSL	-11.8018
addCallback	-11.8024
trial	-11.8031
▁SPACEsure	-11.8033
season	-11.8041
PORT	-11.8042
Convert	-11.8044
peek	-11.8058
2*	-11.8059
spin	-11.8061
mysql	-11.8062
SERVICE	-11.807
('--	-11.807
lex	-11.8075
slave	-11.8077
realpath	-11.8083
()['	-11.8083
fid	-11.8083
mt	-11.8086
finder	-11.8089
Objects	-11.8093
Generate	-11.8094
generated	-11.8095
anonymous	-11.8101
appliance	-11.8101
density	-11.8101
Exists	-11.8103
1024	-11.8107
[-1].	-11.8108
iterate	-11.8111
dry	-11.8111
dicts	-11.8113
Scale	-11.8115
/<	-11.8124
LINK	-11.8128
highlight	-11.8131
Static	-11.8137
Loop	-11.8145
cy	-11.8147
ero	-11.8149
START	-11.8158
submission	-11.8163
("<	-11.8163
border	-11.8164
gain	-11.8166
0.1	-11.8168
[0-	-11.8171
discard	-11.8172
Scene	-11.8173
endpoints	-11.818
ES	-11.8184
UID	-11.8191
classifier	-11.8196
expire	-11.8199
authentication	-11.8201
Icon	-11.8203
ph	-11.8203
ForeignKey	-11.8215
intersection	-11.8219
backward	-11.822
Enable	-11.8223
}"	-11.8229
Last	-11.8233
/',	-11.8234
stored	-11.8243
registration	-11.8249
rd	-11.8251
truncate	-11.8252
StringField	-11.8257
latitude	-11.8258
WARNING	-11.8273
cases	-11.8279
sentences	-11.8281
hat	-11.8281
getvalue	-11.8285
compose	-11.8286
plist	-11.8289
si	-11.8294
crash	-11.8294
Trace	-11.83
Gen	-11.8302
svg	-11.8307
{0}".	-11.8311
contextmanager	-11.8321
Renderer	-11.8322
COMMAND	-11.8329
tearDown	-11.8331
monkeypatch	-11.8332
xff	-11.8343
tester	-11.8345
6_	-11.8345
31	-11.8349
etree	-11.8349
issues	-11.8359
Users	-11.8366
▁SPACEtempfile	-11.8373
=["	-11.8376
white	-11.8376
general	-11.8378
hashes	-11.8388
defs	-11.8389
px	-11.8393
Full	-11.8394
"}	-11.8395
attempt	-11.8396
unset	-11.8398
ENV	-11.84
nonce	-11.8408
Bool	-11.8409
[-	-11.8409
was	-11.8414
cmap	-11.8417
Height	-11.8419
mb	-11.842
32_	-11.8423
[3],	-11.8433
▁SPACEPython	-11.8439
OSError	-11.8442
tls	-11.8442
rpm	-11.8445
UNKNOWN	-11.8448
managed	-11.8452
alignment	-11.8454
Tags	-11.8455
500	-11.8461
vendor	-11.8463
digit	-11.8464
trade	-11.8466
lp	-11.8468
pe	-11.8469
(...)	-11.8482
newline	-11.8485
firewall	-11.8486
))]	-11.8489
ConnectionError	-11.8492
pdb	-11.8495
Interval	-11.8501
ssfr	-11.851
SyntaxError	-11.8525
degrees	-11.8535
={}):	-11.8539
AUTH	-11.854
lab	-11.8541
inplace	-11.8547
PUT	-11.8549
ceil	-11.8551
hold	-11.8553
Encoder	-11.8555
Contact	-11.8557
exact	-11.856
arc	-11.8562
1.0)	-11.8563
capabilities	-11.8567
mirror	-11.8571
crop	-11.8571
[3,	-11.8574
Scope	-11.8575
Limit	-11.8577
inter	-11.8577
Alias	-11.8581
whitespace	-11.8584
particle	-11.8586
Connect	-11.8587
fw	-11.8589
macro	-11.8589
('')	-11.8589
baz	-11.8594
(4,	-11.8598
MIN	-11.8598
texture	-11.8599
relpath	-11.8601
ys	-11.8602
responses	-11.8606
cid	-11.8606
Mask	-11.861
Endpoint	-11.861
minute	-11.8611
stock	-11.8612
readable	-11.8615
front	-11.8622
dis	-11.8623
Internal	-11.8626
External	-11.8628
delitem	-11.8635
Distribution	-11.8642
led	-11.8645
frozen	-11.8647
Repository	-11.8649
▁SPACEOptional	-11.8651
AND	-11.8654
invoice	-11.8662
lstrip	-11.8663
Co	-11.8664
Ids	-11.8665
fire	-11.8668
wsgi	-11.867
wire	-11.8671
remaining	-11.8672
BytesIO	-11.8672
[[	-11.8674
Selector	-11.8674
clause	-11.8678
100)	-11.8679
Validate	-11.8682
backends	-11.8689
elt	-11.869
Topic	-11.8694
pat	-11.8695
ua	-11.87
Valid	-11.8702
-2	-11.8703
64)	-11.8705
>',	-11.8709
▁SPACEsubclass	-11.8713
▁SPACEcannot	-11.8713
SERVER	-11.8722
pem	-11.8722
ser	-11.8724
AL	-11.8724
hot	-11.8728
policies	-11.8732
soft	-11.8733
earth	-11.8734
sz	-11.8744
candidates	-11.8751
perms	-11.8754
due	-11.8756
NONE	-11.8756
Cloud	-11.8762
PRO	-11.8771
evt	-11.8771
normpath	-11.8779
Groups	-11.8781
ce	-11.8781
modifiers	-11.879
Detail	-11.8794
cn	-11.8794
Union	-11.8795
MS	-11.8795
Annotation	-11.8799
mute	-11.88
]*	-11.8801
ctxt	-11.8806
integration	-11.8808
TARGET	-11.8808
cutoff	-11.8809
▁SPACEsee	-11.8811
bitmap	-11.8812
letters	-11.8822
Deferred	-11.8822
logic	-11.8825
instructions	-11.883
3]	-11.8831
feat	-11.8833
canonical	-11.8839
probe	-11.884
csrf	-11.8843
LIB	-11.8846
chi	-11.8853
86	-11.8854
AS	-11.8863
Byte	-11.8867
[0:	-11.8869
decrypt	-11.8871
measure	-11.8871
matcher	-11.8874
dlg	-11.8875
__),	-11.8889
median	-11.8904
loading	-11.8905
under	-11.8908
alphabet	-11.8911
2",	-11.8923
teardown	-11.8928
ft	-11.8949
arrays	-11.8951
deployment	-11.8954
-1]	-11.8963
study	-11.8977
gate	-11.8978
1],	-11.8985
staticmethod	-11.8986
MSG	-11.8989
FilePath	-11.8993
bootstrap	-11.8993
urlparse	-11.9017
'+	-11.9023
Progress	-11.9023
variance	-11.9024
Git	-11.9024
fails	-11.9028
gzip	-11.9035
GL	-11.9039
SUCCESS	-11.904
jinja	-11.904
NotSupported	-11.9042
interactive	-11.9057
filesystem	-11.9059
processed	-11.9064
probs	-11.9068
rst	-11.907
compression	-11.907
company	-11.9072
Statement	-11.9083
Down	-11.9084
NULL	-11.9088
MESSAGE	-11.9101
ctype	-11.9107
BaseException	-11.9108
fft	-11.9123
decoded	-11.913
descr	-11.913
36	-11.9131
week	-11.9133
Processor	-11.9134
assertNotEqual	-11.9135
that	-11.9136
Track	-11.9142
hasattr	-11.9143
migrate	-11.9146
Success	-11.9155
(-1,	-11.9167
objectPlayer	-11.917
elapsed	-11.9182
Console	-11.9197
zones	-11.9199
▁TABplay	-11.9201
CLI	-11.9203
mon	-11.9208
lm	-11.9219
prediction	-11.9222
oc	-11.9225
own	-11.9229
Stub	-11.9229
hw	-11.923
passwd	-11.9234
\'	-11.9239
emails	-11.9253
48	-11.9258
Win	-11.9277
voice	-11.9286
fetchall	-11.9288
bi	-11.9289
={"	-11.9291
regs	-11.9291
[0]))	-11.9292
EVENT	-11.9293
interp	-11.9295
Append	-11.9297
READ	-11.9301
thumbnail	-11.9302
Found	-11.9303
prime	-11.9304
buttons	-11.9305
superuser	-11.9309
TLS	-11.931
Analysis	-11.9311
10(	-11.9311
Route	-11.9314
tier	-11.9332
artifact	-11.9334
bt	-11.9349
expires	-11.9353
city	-11.9358
infile	-11.9369
configured	-11.937
buckets	-11.9371
approx	-11.9374
estimate	-11.9386
"})	-11.9388
Authorization	-11.939
tau	-11.9391
IF	-11.9393
ql	-11.9395
faceon	-11.9397
desired	-11.9407
blackbox	-11.9407
fm	-11.9421
HEAD	-11.9423
streams	-11.9426
Browser	-11.9426
vcs	-11.9432
reports	-11.9433
spam	-11.9433
grade	-11.944
cont	-11.9444
foobar	-11.9447
large	-11.9452
Iter	-11.9458
browse	-11.9465
tgt	-11.9479
sg	-11.948
jobject	-11.948
ET	-11.9484
getAll	-11.9485
Left	-11.9488
Information	-11.9488
rq	-11.9493
="%	-11.9495
declaration	-11.9497
extent	-11.9497
replacement	-11.9498
viewer	-11.9499
starting	-11.9502
Program	-11.9503
Execute	-11.9504
Html	-11.9504
22	-11.9505
28	-11.9507
stem	-11.9512
tap	-11.9515
heading	-11.9523
overrides	-11.9525
pix	-11.9529
realm	-11.9532
products	-11.9539
ring	-11.954
expanded	-11.954
Filename	-11.9546
measurement	-11.9546
udp	-11.9547
invite	-11.9548
tensors	-11.9549
based	-11.955
==============	-11.9552
different	-11.9553
tg	-11.9562
already	-11.9563
Runner	-11.9567
eye	-11.9572
agg	-11.9572
phrase	-11.9574
extras	-11.9575
Verify	-11.9581
verb	-11.9585
arrow	-11.9591
ba	-11.9596
payment	-11.9596
subclass	-11.9598
Ip	-11.9601
▁SPACEIMPL	-11.9605
apikey	-11.9607
fetchone	-11.961
zap	-11.9622
MAC	-11.9623
blueprint	-11.963
Suite	-11.9631
urlopen	-11.9635
vid	-11.9636
decay	-11.9636
HTTPError	-11.9639
pandas	-11.964
▁SPACEjsonify	-11.9647
Bucket	-11.9653
'},	-11.9656
spark	-11.9656
OFF	-11.9659
[1]]	-11.966
]])	-11.9664
hard	-11.9666
tuples	-11.9668
Stat	-11.9669
STR	-11.967
preprocess	-11.9676
Upload	-11.9686
1")	-11.9689
both	-11.9693
ag	-11.9693
ctl	-11.9703
IMAGE	-11.9717
sampling	-11.9718
xFF	-11.9719
intervals	-11.9722
tabs	-11.9733
33	-11.9736
IndexError	-11.9737
Sum	-11.9746
Move	-11.9746
▁SPACErval	-11.9747
Done	-11.9748
Children	-11.975
([],	-11.9754
fingerprint	-11.9755
Per	-11.9758
58	-11.976
dct	-11.9762
scopes	-11.9763
encrypted	-11.9771
pv	-11.9772
critical	-11.9789
Sensor	-11.9793
mic	-11.9798
Axis	-11.9801
Help	-11.9803
ArgumentParser	-11.9805
UP	-11.9808
queues	-11.9819
persistent	-11.9821
authorized	-11.9824
=4	-11.9827
ModelAdmin	-11.983
population	-11.983
genome	-11.9831
Blob	-11.9839
Machine	-11.9851
Fail	-11.9857
Shell	-11.9857
tol	-11.9862
prec	-11.9864
[2,	-11.9871
ajax	-11.9871
PC	-11.9877
inside	-11.9883
=1.0	-11.9888
returncode	-11.9895
providers	-11.9898
An	-11.9898
2/	-11.99
neighbors	-11.99
expiration	-11.9905
sink	-11.9909
xblock	-11.992
It	-11.9922
embed	-11.9922
Linear	-11.9929
'-'	-11.9933
closing	-11.9939
mini	-11.9941
5.	-11.9941
ModelSerializer	-11.9946
popup	-11.9948
Logging	-11.9957
uses	-11.9959
OUT	-11.9965
ti	-11.9965
Compute	-11.9972
repl	-11.998
coll	-11.9988
jpg	-11.9994
softmax	-11.9995
subs	-11.9996
recipient	-12.0001
enums	-12.0005
sv	-12.0006
INDEX	-12.0008
black	-12.0016
startup	-12.0019
combo	-12.0025
▁SPACEgot	-12.0028
Vec	-12.0029
16(	-12.0029
our	-12.003
lu	-12.0032
Long	-12.0035
circuit	-12.0036
qos	-12.0041
folders	-12.0042
quick	-12.0043
SUB	-12.0048
itertools	-12.005
▁SPACEFake	-12.0054
Checker	-12.0057
means	-12.0061
human	-12.0066
infos	-12.0066
rr	-12.0066
Monitor	-12.007
EC	-12.0074
calculation	-12.0077
lin	-12.0079
indexer	-12.0087
Points	-12.0093
=10,	-12.0094
Activity	-12.0095
preferred	-12.0095
datatype	-12.0102
ny	-12.0102
dirpath	-12.0102
Operator	-12.0105
MagicMock	-12.0108
isoformat	-12.0109
mutex	-12.011
directories	-12.0111
Should	-12.0112
Home	-12.0115
fits	-12.0117
within	-12.0117
der	-12.0119
det	-12.012
stroke	-12.0123
roll	-12.013
ga	-12.0133
producer	-12.0133
um	-12.0139
("")	-12.0143
-4	-12.0143
#--------------	-12.0146
half	-12.0152
av	-12.0153
imp	-12.0163
▁SPACEXXX	-12.0169
parametrize	-12.0175
dag	-12.0176
grammar	-12.0182
gz	-12.0185
fltr	-12.0185
Pointer	-12.0187
Scan	-12.019
Listener	-12.0192
ness	-12.0199
vel	-12.02
Metric	-12.0207
resnet	-12.0216
linter	-12.0218
BY	-12.022
VAR	-12.0224
SSH	-12.0225
sed	-12.0247
}}	-12.0248
={},	-12.0255
3))	-12.026
AM	-12.0264
HEADER	-12.0268
accuracy	-12.027
Complete	-12.0277
transformer	-12.0285
▁SPACEmay	-12.0286
creds	-12.0287
pitch	-12.0287
leptonica	-12.0288
ModelViewSet	-12.0296
CONTENT	-12.0299
("""	-12.0302
pools	-12.0307
ri	-12.0308
overlap	-12.0308
nic	-12.0311
prefixes	-12.0314
'':	-12.0315
pen	-12.0316
scenario	-12.0317
Security	-12.0318
TOKEN	-12.0339
sdk	-12.0341
ML	-12.0344
argmax	-12.0351
etag	-12.0357
flash	-12.0358
0],	-12.0363
SoGL	-12.0367
64_	-12.0375
Strategy	-12.0376
Pass	-12.0379
desktop	-12.0395
avatar	-12.0395
ilwis	-12.0395
SS	-12.0395
inet	-12.0401
cmdline	-12.0402
da	-12.0402
AP	-12.0409
see	-12.0412
Dynamic	-12.0412
▁SPACEspecified	-12.0415
Master	-12.0416
allclose	-12.0417
{}>'	-12.0418
Unexpected	-12.0419
Duplicate	-12.0423
asyncio	-12.0435
posts	-12.0439
":"	-12.0445
tv	-12.0445
freeze	-12.0451
Lines	-12.0453
Card	-12.0455
EN	-12.0456
ftp	-12.0456
reading	-12.0457
Credentials	-12.046
sprite	-12.0461
silent	-12.0466
CONTROLLER	-12.0466
vis	-12.0468
faces	-12.0474
scaling	-12.0478
publisher	-12.048
ram	-12.0483
ModelForm	-12.0492
"{}	-12.0497
#---------------	-12.0497
vpc	-12.0498
Cookie	-12.0503
clipboard	-12.0503
]+	-12.0506
fa	-12.0507
Validation	-12.0507
memo	-12.0511
circle	-12.0515
Diff	-12.0518
fin	-12.0519
authorization	-12.0521
rse	-12.0522
')])	-12.0524
statuses	-12.0525
fraction	-12.0526
linked	-12.0537
▁SPACEthere	-12.0537
Example	-12.0537
World	-12.0538
nickname	-12.0544
AWS	-12.0555
ity	-12.0559
logo	-12.0559
mapped	-12.056
intent	-12.056
posix	-12.0561
=2):	-12.0562
requester	-12.0564
21	-12.0565
Already	-12.0568
cx	-12.0569
Assert	-12.0573
COLOR	-12.0573
catch	-12.0575
Player	-12.0589
banner	-12.0593
flux	-12.0596
plane	-12.0597
svc	-12.0601
irc	-12.0604
threading	-12.0607
eta	-12.0608
Refresh	-12.0612
oin	-12.0615
Seq	-12.0616
▁SPACEMagicMock	-12.0616
classname	-12.0617
ClientError	-12.062
factors	-12.0629
popen	-12.0637
Def	-12.0641
Fetch	-12.0643
ut	-12.0648
tokenizer	-12.065
derived	-12.0652
Back	-12.066
hits	-12.0665
LENGTH	-12.0667
namedtuple	-12.067
DC	-12.0676
histogram	-12.0679
05	-12.068
ATION	-12.0681
EOF	-12.0682
Free	-12.0685
[4]	-12.0686
[-1])	-12.0686
undefined	-12.0688
grant	-12.0702
NUM	-12.0704
paused	-12.0704
almost	-12.0704
Available	-12.0705
tl	-12.0707
persist	-12.0708
visitor	-12.0708
tostring	-12.0721
tic	-12.0721
mdl	-12.0737
[1]))	-12.0738
maxsize	-12.074
Wrong	-12.0741
legend	-12.0742
200,	-12.0742
vertical	-12.0744
vt	-12.0744
drag	-12.0747
RequestHandler	-12.0752
Snapshot	-12.0753
tempfile	-12.0754
ur	-12.076
Trigger	-12.0764
decorated	-12.0764
references	-12.0764
gdata	-12.0767
Util	-12.0767
PER	-12.0767
wise	-12.0768
issuer	-12.0772
101	-12.0773
({})	-12.0781
compressed	-12.0785
'').	-12.0788
successful	-12.0789
greater	-12.0796
Proto	-12.0796
explicit	-12.0796
meter	-12.0799
cal	-12.0812
vtk	-12.0814
reject	-12.0815
unsigned	-12.0816
RPC	-12.082
Conv	-12.0824
UPDATE	-12.0833
temporary	-12.0834
uerySet	-12.084
exam	-12.084
hr	-12.0841
CF	-12.0843
Kernel	-12.0848
Named	-12.0849
cart	-12.0849
blacklist	-12.0861
motion	-12.0869
=3)	-12.087
Disk	-12.0877
slow	-12.0882
every	-12.089
Article	-12.089
180	-12.0893
Screen	-12.0896
isdigit	-12.09
CR	-12.0905
44	-12.0905
Mod	-12.0905
corr	-12.091
overlay	-12.0922
Force	-12.0924
DNS	-12.0929
Lazy	-12.0932
Len	-12.0936
(',')	-12.0938
operand	-12.0942
getenv	-12.0948
kl	-12.0949
spacing	-12.0953
(10,	-12.0955
latex	-12.0956
'0'	-12.0957
ListView	-12.0957
Merge	-12.0959
Uri	-12.0962
Patch	-12.0965
fault	-12.0975
dead	-12.098
through	-12.098
horizontal	-12.0985
accepted	-12.0988
(1.0	-12.0989
preferences	-12.099
TCP	-12.0991
Dump	-12.0996
embedding	-12.0999
Literal	-12.1004
prepend	-12.1005
gap	-12.1005
3],	-12.1006
svn	-12.1007
getName	-12.1019
METHOD	-12.102
Virtual	-12.1022
Headers	-12.1033
cause	-12.1035
1.1	-12.1035
blog	-12.1037
LINE	-12.1041
merged	-12.1043
ByName	-12.1046
wcs	-12.1047
Wait	-12.1048
opened	-12.1049
imports	-12.1054
contacts	-12.1054
Signature	-12.106
hardware	-12.1061
tri	-12.1064
reboot	-12.1067
subdir	-12.1072
fo	-12.1073
reserved	-12.1077
Short	-12.108
gather	-12.108
dense	-12.1083
Backup	-12.1086
')[0]	-12.109
snippet	-12.1094
Revision	-12.1099
framework	-12.1105
tmpl	-12.111
deactivate	-12.1113
=0.	-12.1113
Top	-12.1114
Classes	-12.1121
2])	-12.1122
netloc	-12.1123
toolbar	-12.1124
256(	-12.1129
▁SPACEthan	-12.1137
communicate	-12.1138
ionizing	-12.1138
Workflow	-12.1138
percentage	-12.1138
retries	-12.1139
bytearray	-12.1143
Double	-12.1146
Audio	-12.1147
}')	-12.1148
srv	-12.1151
tweet	-12.1152
principal	-12.1152
BaseTest	-12.1155
hl	-12.1158
algo	-12.116
atomic	-12.116
Errors	-12.1177
USE	-12.118
bold	-12.1183
lam	-12.1189
whitelist	-12.119
ticker	-12.1191
gdb	-12.1193
CH	-12.1194
survey	-12.1196
snmp	-12.1197
urn	-12.1199
("--	-12.1205
OPEN	-12.1207
air	-12.1213
places	-12.1213
rates	-12.1214
getValue	-12.1214
legacy	-12.1214
psi	-12.1216
Some	-12.1218
Messages	-12.1219
Constants	-12.1224
displayed	-12.1225
Implement	-12.1233
footer	-12.1234
Resolver	-12.1239
>")	-12.124
floating	-12.124
car	-12.1243
_2(	-12.1243
codec	-12.1247
pretrained	-12.1254
(5)	-12.1255
radians	-12.1256
(10)	-12.1259
▁SPACEtestV	-12.1264
setEnabled	-12.1268
challenge	-12.1269
btn	-12.1269
migration	-12.1269
unsubscribe	-12.1276
matched	-12.1277
INVALID	-12.1278
pubkey	-12.1279
[0]['	-12.128
singleton	-12.1293
lg	-12.1295
▁SPACEbuff	-12.1301
08	-12.1312
3),	-12.1312
Problem	-12.1313
daily	-12.1313
stanza	-12.1313
aspect	-12.1313
alloc	-12.1314
disks	-12.1314
analyze	-12.1316
chmod	-12.1318
Accept	-12.1331
Const	-12.1342
IR	-12.1346
offsets	-12.1346
getNum	-12.1348
ary	-12.1352
ator	-12.1354
fe	-12.1355
Archive	-12.1361
35	-12.1364
caption	-12.1368
regular	-12.1372
coeff	-12.1374
vote	-12.1378
say	-12.139
fps	-12.1391
Writing	-12.1392
twisted	-12.1392
toc	-12.1392
Be	-12.1394
ive	-12.1399
individual	-12.1407
tablename	-12.1409
tempdir	-12.1414
(-1)	-12.1418
campaign	-12.1427
56	-12.1428
Arguments	-12.1441
{}).	-12.1442
LEVEL	-12.1449
('''	-12.1459
mox	-12.1464
meth	-12.1467
tex	-12.1468
AFunc	-12.147
players	-12.1471
incoming	-12.1472
bash	-12.1473
choose	-12.1478
Distance	-12.1482
preset	-12.1483
(4)	-12.1484
batches	-12.1491
neutron	-12.1491
Cancel	-12.1493
SoXt	-12.1493
eth	-12.1493
MA	-12.1494
noop	-12.1497
forum	-12.1498
zmq	-12.1513
vi	-12.1515
3])	-12.1515
84	-12.1517
(5,	-12.1518
201	-12.1521
Draw	-12.1527
concatenate	-12.1531
texts	-12.1532
▁SPACEabjad	-12.1545
kb	-12.1548
xc	-12.1555
edgeon	-12.1558
fromstring	-12.1559
Right	-12.1563
claim	-12.1565
ONE	-12.1566
(':')	-12.1571
Chunk	-12.1572
fold	-12.1574
=[],	-12.1578
blk	-12.158
disp	-12.1582
jvm	-12.1586
even	-12.159
()[1]	-12.1595
timed	-12.1598
Gtk	-12.1605
Camera	-12.1608
▁SPACEcould	-12.1608
mobile	-12.1611
Safe	-12.1611
tolerance	-12.1612
▁SPACEkubernetes	-12.1616
__':	-12.1619
Chart	-12.1619
MODEL	-12.1619
OAuth	-12.1626
urlencode	-12.1628
timing	-12.1628
[%	-12.1629
▁SPACEMake	-12.1631
[0][0]	-12.1631
verification	-12.1632
endian	-12.1633
=-1)	-12.1639
ABC	-12.1642
LTE	-12.1645
traj	-12.1646
NameError	-12.1648
After	-12.1648
magnitude	-12.1648
robots	-12.1658
-3	-12.166
distro	-12.1666
Regex	-12.1668
wd	-12.1669
Partition	-12.1671
Reg	-12.1678
styles	-12.1685
builtins	-12.1688
Actions	-12.1693
sigmoid	-12.1693
beam	-12.1696
Ext	-12.1701
NAMESPACE	-12.1711
vo	-12.1716
delivery	-12.1723
('>	-12.1724
nest	-12.1727
motor	-12.1732
middleware	-12.1734
Converter	-12.1735
63	-12.1736
123	-12.1737
▁SPACEDUT	-12.1738
he	-12.1741
Metrics	-12.1743
Public	-12.1744
recording	-12.1748
POINTER	-12.1754
5_	-12.1762
fb	-12.1762
([1,	-12.1763
Statistics	-12.1764
Choice	-12.1764
2000	-12.1767
compiled	-12.1769
Real	-12.1771
veh	-12.1778
AD	-12.1784
ava	-12.1786
TimeoutError	-12.1792
editable	-12.1798
('/',	-12.18
dpi	-12.1805
Factor	-12.1807
arn	-12.1807
32.	-12.1808
Encoding	-12.1811
squared	-12.1812
ConfigError	-12.1813
expiry	-12.1816
Iterable	-12.1817
optimize	-12.1822
ia	-12.1824
iam	-12.1825
▁SPACEeach	-12.1826
▁SPACEGtk	-12.1826
xmlrpc	-12.183
truth	-12.1832
decl	-12.1835
META	-12.1836
proxies	-12.1837
works	-12.1839
='/	-12.1845
unload	-12.1847
lv	-12.1851
dup	-12.1851
squeeze	-12.1857
doctest	-12.1857
Work	-12.186
PAGE	-12.1867
COUNT	-12.1869
bag	-12.1876
datum	-12.1878
news	-12.188
erase	-12.188
fdd	-12.1882
never	-12.1882
REGEX	-12.1886
keyboard	-12.1894
60)	-12.1895
Wrap	-12.1898
assistant	-12.1898
Scalar	-12.1899
pro	-12.1914
di	-12.1915
buy	-12.192
Mail	-12.1922
VALUES	-12.1924
worktree	-12.1925
pprint	-12.1931
001	-12.1936
Relation	-12.194
parsing	-12.1941
06	-12.1947
▁SPACEargparse	-12.195
Tile	-12.1952
VALID	-12.1954
cron	-12.1959
quotes	-12.196
ub	-12.1961
routing	-12.1961
kit	-12.1968
PI	-12.1973
Unique	-12.198
('.',	-12.1981
SESSION	-12.1982
writable	-12.1982
teams	-12.1985
Instrument	-12.1986
401	-12.2003
Calendar	-12.2003
android	-12.2003
documentation	-12.2004
ReadOnly	-12.2006
courses	-12.2014
nat	-12.2014
msgs	-12.2017
implicit	-12.2019
ravel	-12.202
snapshots	-12.2023
mkdtemp	-12.2024
multiplier	-12.2024
Fixed	-12.2028
revert	-12.2031
peers	-12.2034
SM	-12.2034
Returns	-12.205
buff	-12.2051
Total	-12.2052
xx	-12.2053
('{}={}	-12.206
=10)	-12.2067
Issue	-12.2067
collector	-12.207
ang	-12.2073
**2)	-12.2074
abstractmethod	-12.208
NAMES	-12.208
Panel	-12.208
unquote	-12.2082
2],	-12.2083
art	-12.2089
moves	-12.2101
Exp	-12.2102
qubits	-12.2102
'"'	-12.2104
another	-12.2106
Depth	-12.2107
listing	-12.2109
secondary	-12.2109
oxt	-12.211
EMAIL	-12.2115
masked	-12.2122
annotate	-12.2124
Material	-12.2125
{}\	-12.2126
signum	-12.2127
RESOURCE	-12.2128
16,	-12.2129
HOME	-12.2133
CA	-12.2134
unsupported	-12.2135
Shared	-12.2136
POP	-12.2141
'/')	-12.2145
prefs	-12.2148
DEVICE	-12.2149
sentinel	-12.2152
badge	-12.2154
branches	-12.2154
Callable	-12.2155
tor	-12.2158
PA	-12.2166
▁TABresult	-12.2169
0.2	-12.2169
verified	-12.2173
STOP	-12.2174
00,	-12.2178
fetcher	-12.2179
ve	-12.2181
fut	-12.2181
20)	-12.2185
ERR	-12.2188
12,	-12.219
written	-12.2194
upstream	-12.2195
10000	-12.2197
jd	-12.2206
includes	-12.2211
cons	-12.2212
Undefined	-12.2212
WRITE	-12.2215
OUTPUT	-12.2216
capitalize	-12.2217
SB	-12.2219
infer	-12.2222
[:2]	-12.2231
om	-12.2232
Modified	-12.2236
Other	-12.2237
blocking	-12.2238
65	-12.2243
clf	-12.2247
45	-12.225
REF	-12.225
osc	-12.2253
reporter	-12.2256
parms	-12.2258
stellar	-12.2259
jwt	-12.226
deriv	-12.2268
("/")	-12.2281
Notify	-12.2283
1)[0]	-12.2284
ddt	-12.2294
ann	-12.2294
Translation	-12.23
Commit	-12.2311
eof	-12.2312
1-	-12.2314
transactions	-12.2315
lengths	-12.232
=4)	-12.2322
ig	-12.2322
Marker	-12.2323
grab	-12.2324
stddev	-12.2324
tracer	-12.2329
here	-12.233
20,	-12.2333
Secret	-12.2335
revoke	-12.2339
MB	-12.2351
citation	-12.236
syn	-12.2363
Replace	-12.2364
0])	-12.2371
uni	-12.2377
NEW	-12.2382
online	-12.2382
fpath	-12.2383
modname	-12.2384
rendered	-12.2385
Payload	-12.2386
mix	-12.2386
ComponentItem	-12.2391
diagnostics	-12.2394
Bot	-12.2396
below	-12.2398
coroutine	-12.24
','.	-12.2403
MEDIA	-12.2411
SETTINGS	-12.2412
nfvi	-12.2412
analyzer	-12.2422
FIELD	-12.2425
learn	-12.2425
instantiate	-12.2426
counters	-12.2433
rack	-12.2435
▁SPACEcodecs	-12.2436
mpi	-12.2436
LOCAL	-12.2439
mv	-12.2442
dbapi	-12.2445
(0))	-12.2447
PS	-12.2448
'.'.	-12.2454
Drop	-12.2455
trailing	-12.2455
asm	-12.2456
Conf	-12.2456
subtract	-12.2456
setLevel	-12.2457
validated	-12.2458
5:	-12.2463
/{}/	-12.2464
proba	-12.2466
"":	-12.2467
patches	-12.2469
urljoin	-12.247
away	-12.2471
PmmlBinding	-12.2477
Curve	-12.2477
ackIndex	-12.248
Play	-12.2484
Chat	-12.249
uit	-12.249
sfr	-12.2493
Binding	-12.2494
ClassSt	-12.2494
Push	-12.2499
Linux	-12.2499
chrom	-12.25
Collector	-12.25
joint	-12.2501
TP	-12.2504
BAD	-12.2515
Numeric	-12.2517
Created	-12.2517
scheduled	-12.2519
bond	-12.2519
1000)	-12.252
failures	-12.2521
Implementation	-12.2521
hop	-12.2523
"."	-12.2529
subscriber	-12.253
bid	-12.2531
inherit	-12.2532
=5)	-12.2533
charge	-12.2539
az	-12.254
webhook	-12.2544
profiler	-12.2548
enqueue	-12.2551
IT	-12.2555
[:-1])	-12.2555
reddit	-12.2562
Registration	-12.2562
%02	-12.2563
CommandError	-12.2568
rid	-12.2573
[{'	-12.2573
nothing	-12.2579
000	-12.2579
ball	-12.2582
friendly	-12.2588
species	-12.2592
FROM	-12.2595
sms	-12.2598
cdf	-12.2598
frac	-12.26
Me	-12.2604
samp	-12.2607
GAS	-12.2608
RESPONSE	-12.261
'*'	-12.2611
'{}'"	-12.2613
replica	-12.2613
discover	-12.2616
checkout	-12.262
getDefault	-12.2622
inject	-12.2629
translations	-12.263
Router	-12.2631
goto	-12.2631
trunk	-12.2633
Cert	-12.2634
notifier	-12.2635
defer	-12.2636
throw	-12.2638
playing	-12.2652
via	-12.2656
alter	-12.266
iterkeys	-12.2662
[0]),	-12.2664
later	-12.2665
APIError	-12.2667
Dev	-12.267
Hex	-12.2671
cnf	-12.2671
Syntax	-12.2673
Atom	-12.2678
shader	-12.2678
HAS	-12.2679
brain	-12.268
Standard	-12.2684
rebuild	-12.2686
There	-12.2693
Click	-12.2698
sb	-12.27
exponent	-12.27
ry	-12.2702
Reactor	-12.2703
ao	-12.2709
PID	-12.2709
symlink	-12.2714
hand	-12.2717
ACTION	-12.2718
Mem	-12.2718
CI	-12.2718
[::-1]	-12.2719
rsa	-12.272
IntegerField	-12.2724
oo	-12.2729
46	-12.2733
SHA	-12.274
RS	-12.2741
imap	-12.2741
Book	-12.2742
""")	-12.2743
Abort	-12.2744
learner	-12.2744
ck	-12.2744
preserve	-12.2745
Transfer	-12.2745
STREAM	-12.2745
grep	-12.2747
jlink	-12.2747
SW	-12.2748
qr	-12.2756
hmac	-12.2759
opener	-12.2766
anything	-12.2768
inspection	-12.2768
Reply	-12.2769
NET	-12.2776
extractor	-12.2786
draft	-12.2789
evaluation	-12.2791
Super	-12.2791
dhcp	-12.2792
cidr	-12.28
gpio	-12.2803
Fill	-12.2819
glyph	-12.282
replay	-12.2828
Subscription	-12.2834
Support	-12.2834
libs	-12.2835
Direction	-12.2835
severity	-12.2836
stale	-12.2837
CREATE	-12.284
scaled	-12.2844
packed	-12.2845
5):	-12.2846
}\	-12.2849
SH	-12.2853
fsm	-12.2854
gray	-12.2858
AST	-12.2865
rsplit	-12.2865
depends	-12.2866
mgmt	-12.2868
stubs	-12.2869
Viewer	-12.2869
53	-12.2869
TB	-12.2874
gi	-12.2876
Dictionary	-12.2879
crs	-12.288
interrupt	-12.2881
Catalog	-12.2882
compatibility	-12.2882
slope	-12.2882
watcher	-12.2882
FOR	-12.2895
tWidgets	-12.2898
Two	-12.29
chapter	-12.2904
wav	-12.2904
Poly	-12.2907
CSS	-12.291
ian	-12.2913
FP	-12.2916
(".")	-12.2919
PASSWORD	-12.2929
wt	-12.2929
Used	-12.2929
MT	-12.293
stash	-12.2931
xi	-12.2932
ACL	-12.2933
FF	-12.2934
contexts	-12.2943
vehicle	-12.295
Include	-12.2951
people	-12.2951
delim	-12.2954
chk	-12.2955
SoTexture	-12.2956
Plugins	-12.2958
fixtures	-12.2961
ization	-12.2964
Light	-12.2974
skipped	-12.2975
fluxes	-12.2975
Room	-12.298
UserFactory	-12.2982
Paths	-12.2982
reads	-12.2982
authors	-12.2986
unescape	-12.2991
▁SPACEwhat	-12.2992
adb	-12.2993
fork	-12.2994
built	-12.2994
-8	-12.2996
Destroy	-12.2996
wheel	-12.2997
sublime	-12.2998
repositories	-12.2998
swagger	-12.2998
Classifier	-12.2998
Matches	-12.3007
FD	-12.3008
clientID	-12.3008
serv	-12.3013
fi	-12.3015
ndb	-12.3018
enrollment	-12.302
''))	-12.3025
100,	-12.3035
DUT	-12.3039
elems	-12.3039
Team	-12.3044
community	-12.3044
blobs	-12.3045
dose	-12.3049
zA	-12.3053
vms	-12.3055
instr	-12.3055
fuzz	-12.3059
+1]	-12.3066
cohort	-12.3067
deque	-12.3067
stuff	-12.3068
pic	-12.307
▁TABelif	-12.3073
flakes	-12.3075
wc	-12.3085
ans	-12.3089
contrib	-12.3091
CHECK	-12.3096
isValid	-12.3097
Off	-12.3101
'_')	-12.3102
Con	-12.3104
interpolate	-12.3108
SOCK	-12.3112
systems	-12.3112
">	-12.3113
indicator	-12.3114
broken	-12.3115
"-"	-12.3117
divide	-12.312
Native	-12.312
)**2	-12.3121
vert	-12.3122
coef	-12.313
▁TABwhile	-12.3134
conj	-12.3134
ment	-12.3136
mismatch	-12.3143
6:	-12.3156
passes	-12.3156
sq	-12.3159
twitter	-12.3162
Utility	-12.3162
)\	-12.3165
Plan	-12.3176
classification	-12.3177
0.5)	-12.3181
tax	-12.3182
{1}".	-12.3182
galaxy	-12.3185
foreign	-12.3185
OPTIONS	-12.3186
gender	-12.3186
[0	-12.3188
=3,	-12.3192
AC	-12.3198
ance	-12.3204
relu	-12.3208
implementer	-12.3212
migrations	-12.3214
resolved	-12.3217
IDs	-12.3222
dropout	-12.3226
secrets	-12.3229
Pin	-12.3231
Organization	-12.3233
▁SPACEavoid	-12.3235
uninstall	-12.3238
alg	-12.3244
gas	-12.3249
wallet	-12.3256
radio	-12.3257
mn	-12.3258
dtypes	-12.3259
statements	-12.326
Exporter	-12.326
OF	-12.3266
fieldname	-12.3268
hints	-12.3273
ter	-12.3273
virt	-12.3274
fasta	-12.3284
▁SPACEscipy	-12.3285
LIMIT	-12.3301
WS	-12.3302
SoMFVec	-12.3304
CLIENT	-12.3304
attached	-12.3307
rh	-12.3308
viewsets	-12.331
elm	-12.3312
answers	-12.3312
vc	-12.3313
Special	-12.3314
xf	-12.3319
Variant	-12.3322
proper	-12.3324
micro	-12.3324
Insert	-12.3327
redraw	-12.3331
toString	-12.3334
weighted	-12.3335
MM	-12.3338
UInt	-12.3339
FILES	-12.3341
weekday	-12.3341
rnd	-12.3343
thumb	-12.3345
Labels	-12.3351
Self	-12.3352
effective	-12.3352
=200)	-12.3356
pmf	-12.3359
']),	-12.3364
TF	-12.337
egg	-12.337
CO	-12.3373
combined	-12.3374
fnmatch	-12.3376
blocked	-12.338
passphrase	-12.3395
localtime	-12.3395
bn	-12.3396
omega	-12.3398
Calculation	-12.3401
Constructor	-12.3402
ae	-12.3405
{0:	-12.3405
LookupError	-12.3408
DE	-12.3415
Angle	-12.3415
Ignore	-12.3415
plaintext	-12.3416
tty	-12.3419
orm	-12.342
bv	-12.3425
EMPTY	-12.3425
requirement	-12.3425
hasher	-12.3426
bm	-12.3426
pulse	-12.3428
sn	-12.3428
bz	-12.3433
1234	-12.3434
qi	-12.3435
design	-12.3439
Services	-12.3439
Sort	-12.3446
Temp	-12.3446
expressions	-12.3448
ENABLE	-12.3454
relations	-12.3457
Encode	-12.3458
look	-12.346
Extra	-12.3463
lag	-12.3465
(0.0,	-12.3467
leaves	-12.3467
inds	-12.3468
FOUND	-12.3473
coerce	-12.3473
gdal	-12.3476
ssertAlmostEqual	-12.3477
tw	-12.3479
')))	-12.348
identifiers	-12.348
1)]	-12.3481
BLOCK	-12.3486
mailbox	-12.3493
Functions	-12.3493
ADDR	-12.3495
38	-12.3496
Unauthorized	-12.3498
transforms	-12.3498
Google	-12.3501
TestSuite	-12.3505
cg	-12.3507
caps	-12.3513
+1	-12.3515
gf	-12.3522
avail	-12.3522
Algorithm	-12.3522
enterprise	-12.3522
AUTO	-12.3522
questions	-12.3527
sol	-12.3529
▁SPACEissubclass	-12.3532
dargs	-12.3533
▁TABsuper	-12.3535
pkgs	-12.354
General	-12.3542
ResNet	-12.3544
Clean	-12.3544
hp	-12.3545
wp	-12.3548
DATE	-12.3557
tot	-12.3561
52	-12.3562
advance	-12.3565
gm	-12.3565
Dependency	-12.3567
subtitle	-12.357
CHOICES	-12.3571
Nested	-12.3571
▁SPACEprovided	-12.3575
CAN	-12.3576
wl	-12.358
--------------	-12.3582
distances	-12.3582
showcase	-12.3584
abi	-12.3584
Owner	-12.3588
Head	-12.359
68	-12.3593
Username	-12.3594
prim	-12.3596
'{0}	-12.3597
namespaced	-12.3598
4())	-12.3598
coeffs	-12.3602
Allow	-12.3605
conditional	-12.361
Comp	-12.3619
cas	-12.362
SECRET	-12.3621
sell	-12.3621
piece	-12.3621
primitive	-12.3621
Kind	-12.3628
dists	-12.3629
CSV	-12.363
Sim	-12.3638
=100,	-12.3638
Rows	-12.3639
cred	-12.3641
'{}'	-12.3643
Modifier	-12.3643
Finished	-12.3646
▁TABret	-12.365
cgi	-12.365
0.01	-12.365
81	-12.365
'][0]	-12.3652
Hit	-12.3655
ADD	-12.3658
ServerError	-12.3659
vault	-12.3661
Closed	-12.3668
Preview	-12.3669
slash	-12.367
linspace	-12.3671
specification	-12.3671
assertNotIn	-12.3672
specify	-12.3672
]+)	-12.3679
DataType	-12.3681
zipfile	-12.3683
nova	-12.3684
credit	-12.3688
{1}'.	-12.3697
reuse	-12.37
lease	-12.3704
▁SPACEbytearray	-12.3705
xor	-12.3706
releases	-12.3708
Private	-12.3713
parm	-12.3713
bo	-12.3713
TA	-12.3717
0')	-12.3719
pieces	-12.3719
NUMBER	-12.372
mr	-12.3721
membership	-12.3721
filt	-12.3722
disconnected	-12.3725
ConfigParser	-12.3728
slices	-12.3739
rfc	-12.3739
tagged	-12.3745
gramps	-12.3745
Texture	-12.375
kws	-12.3751
Mapper	-12.3759
\"	-12.3759
rss	-12.3764
suppress	-12.3767
comparison	-12.3771
vecs	-12.3779
rectangle	-12.378
ate	-12.3783
cu	-12.3787
defines	-12.3788
CPU	-12.3789
'1'	-12.3793
fitness	-12.3796
#@+	-12.3797
hdf	-12.3815
but	-12.3817
SCHEMA	-12.382
will	-12.3823
404)	-12.3823
PDF	-12.3824
dw	-12.3825
=4,	-12.383
Schedule	-12.3832
ho	-12.3834
intf	-12.3842
relationship	-12.3847
pan	-12.3847
DataTypes	-12.3849
GA	-12.3851
Visible	-12.3852
objective	-12.3852
Mean	-12.3853
))[0]	-12.3858
Disable	-12.3865
SoVRML	-12.387
Polygon	-12.3871
Middleware	-12.3871
three	-12.3871
Execution	-12.3871
2")	-12.3872
ancestor	-12.3872
dash	-12.3882
Fault	-12.3883
Dim	-12.3884
dbname	-12.3893
voltage	-12.3896
Norm	-12.3899
psz	-12.3899
sizeof	-12.3899
lint	-12.39
LOCK	-12.3915
rem	-12.3916
][1]	-12.3916
DS	-12.392
fib	-12.3923
skill	-12.3926
plt	-12.3929
dbg	-12.3934
roots	-12.3943
above	-12.3947
confidence	-12.3947
criteria	-12.3947
movie	-12.3948
randn	-12.3952
tiles	-12.3964
160	-12.3964
unwrap	-12.3964
DN	-12.3966
pressed	-12.3968
sso	-12.397
Score	-12.3972
software	-12.3973
Surface	-12.3973
3):	-12.3976
43	-12.3981
outside	-12.3984
iq	-12.3985
notice	-12.3987
BadRequest	-12.3992
duplicates	-12.3992
attachments	-12.3995
Ticket	-12.3996
RANGE	-12.3999
probability	-12.3999
SONEncoder	-12.3999
animation	-12.4
smooth	-12.4003
pytz	-12.4004
InternalError	-12.4007
tracking	-12.4007
Family	-12.4008
PEM	-12.4013
Center	-12.4014
contain	-12.4015
va	-12.402
buffers	-12.4026
Processing	-12.4026
[2:]	-12.4031
retval	-12.4034
epochs	-12.4037
sftp	-12.4039
operators	-12.4039
mocker	-12.4042
indexed	-12.4042
{2}	-12.4043
den	-12.4049
Coord	-12.405
wm	-12.4056
facts	-12.4063
osd	-12.4063
consts	-12.4064
outs	-12.4066
sensors	-12.4073
Vertex	-12.4075
Transition	-12.4076
RequestError	-12.4077
Bits	-12.408
pkl	-12.4088
Mc	-12.4091
converted	-12.4092
rfind	-12.4094
gh	-12.4096
paste	-12.4096
social	-12.4102
amplitude	-12.4102
doctype	-12.4106
deadline	-12.411
kml	-12.4111
Mark	-12.4121
ni	-12.4122
hashed	-12.4128
SYS	-12.4128
subreddit	-12.4131
Commands	-12.4137
4))	-12.4139
sampler	-12.4139
die	-12.414
Deleted	-12.4144
allocation	-12.4151
)],	-12.4152
UERY	-12.4154
myokit	-12.4154
opaque	-12.4154
slugify	-12.4155
PARAMS	-12.4156
genes	-12.4156
▁SPACEnewnode	-12.4157
LE	-12.416
kwarg	-12.4164
idxs	-12.4176
fromtimestamp	-12.4178
Scanner	-12.418
Duration	-12.418
Singleton	-12.418
▁SPACEidaapi	-12.4182
FILENAME	-12.4185
escaped	-12.4186
setUpClass	-12.4187
▁SPACEsuch	-12.4191
incr	-12.4192
Trans	-12.4199
joined	-12.42
inactive	-12.4201
Cleanup	-12.4202
usb	-12.4202
SOURCE	-12.4203
trees	-12.4204
contextlib	-12.4206
ACCESS	-12.4206
protein	-12.4206
Predicate	-12.4206
YAML	-12.4206
tokenSet	-12.4206
rw	-12.4209
well	-12.4212
predicted	-12.4213
typing	-12.4219
quoted	-12.4225
RSA	-12.4229
55	-12.423
SO	-12.4231
/")	-12.4236
importer	-12.4238
who	-12.4247
Retry	-12.4254
Solution	-12.4255
uc	-12.4255
FLAG	-12.4257
thresh	-12.4258
'/'.	-12.4258
simplify	-12.4259
operationMode	-12.4261
eng	-12.4268
hg	-12.4268
ProtocolError	-12.4275
strides	-12.4281
Board	-12.4284
GX	-12.4291
classify	-12.4296
trainable	-12.4306
aid	-12.431
azure	-12.4311
cancelled	-12.4312
Country	-12.4312
FromString	-12.4316
jar	-12.4323
prices	-12.4331
Bundle	-12.4336
ka	-12.4337
regression	-12.4338
correlation	-12.4339
Django	-12.4339
controls	-12.4342
Decoder	-12.4344
takes	-12.4344
mktemp	-12.4347
']}	-12.4348
FIELDS	-12.4348
...')	-12.436
▁SPACEitertools	-12.4362
Future	-12.4364
exploration	-12.4365
weakref	-12.4367
ber	-12.437
ins	-12.4374
bgp	-12.4375
offline	-12.4376
GLRender	-12.4378
Over	-12.438
Share	-12.4381
saveto	-12.439
hierarchy	-12.4391
Contents	-12.4391
pane	-12.4392
Sys	-12.4397
included	-12.4397
perf	-12.4401
tip	-12.4402
rooms	-12.4406
jump	-12.4406
masks	-12.4407
TS	-12.4408
512	-12.4415
gaussian	-12.4418
CURRENT	-12.4418
encryption	-12.4418
association	-12.4421
tion	-12.4421
groupby	-12.4424
INPUT	-12.4424
gw	-12.4428
authorize	-12.4428
Pair	-12.4429
ORDER	-12.4429
ht	-12.4431
+1,	-12.4437
filePath	-12.4437
(_("	-12.4442
DATABASE	-12.4443
bisect	-12.4444
knx	-12.4444
Pixel	-12.4447
ating	-12.4448
transformation	-12.4449
peak	-12.4449
AlreadyExists	-12.4451
Loss	-12.4453
DF	-12.4453
ele	-12.4455
403	-12.4455
ground	-12.4457
▁SPACEinto	-12.447
scatter	-12.4471
License	-12.4472
GUI	-12.4475
ud	-12.4478
HTTPException	-12.4479
apt	-12.4488
_1_	-12.4488
following	-12.449
bio	-12.449
php	-12.449
assigned	-12.449
pot	-12.4495
Priority	-12.4498
moment	-12.45
Reporter	-12.45
basedir	-12.4504
gif	-12.4507
byteorder	-12.4509
Define	-12.4511
hashlib	-12.4523
celery	-12.4526
denominator	-12.4526
ended	-12.4527
Workspace	-12.4528
zlib	-12.4529
pidfile	-12.4537
declare	-12.4546
decorate	-12.4546
=5,	-12.4548
Serial	-12.4552
spatial	-12.4552
Verification	-12.4553
wildcard	-12.4553
OG	-12.4556
▁SPACEpygame	-12.4557
ResponseError	-12.4559
Grad	-12.4565
lowercase	-12.4566
marked	-12.4566
locate	-12.4567
ContentType	-12.4569
ISO	-12.457
Clock	-12.4574
ssert	-12.4578
registers	-12.4578
uestion	-12.4578
tolist	-12.4578
periodic	-12.4579
Scheme	-12.458
music	-12.458
matplotlib	-12.458
DICT	-12.458
Weight	-12.4581
Connected	-12.4582
Asset	-12.4584
[0][1]	-12.4589
elbo	-12.4595
pol	-12.4596
nans	-12.4602
xp	-12.4605
PROTOCOL	-12.4607
▁SPACEasyncio	-12.4615
oArgsA	-12.4615
SR	-12.4623
Now	-12.4624
timeperiod	-12.4625
traverse	-12.4628
offer	-12.4629
Forbidden	-12.463
Forward	-12.463
trust	-12.4632
potential	-12.4633
mocked	-12.4633
Management	-12.4635
pars	-12.4636
Don	-12.4638
Transformer	-12.464
enumerate	-12.4653
(200,	-12.4653
vp	-12.4653
inference	-12.4662
exclusive	-12.4662
---	-12.4663
12)	-12.4665
__[	-12.4665
prefetch	-12.4666
detector	-12.4669
Old	-12.467
eb	-12.4672
viewport	-12.4673
lun	-12.4678
transitions	-12.4685
MODULE	-12.4687
ling	-12.4691
Keyword	-12.4691
cards	-12.4692
losses	-12.4692
}))	-12.4693
SITE	-12.4699
syslog	-12.4703
8")	-12.4704
discount	-12.4705
hyper	-12.4707
Resources	-12.471
MO	-12.4714
rnn	-12.4715
navigate	-12.4717
od	-12.4719
RUN	-12.4734
locs	-12.4736
writing	-12.4744
tornado	-12.4745
({},	-12.4756
cph	-12.4756
())]	-12.4758
ol	-12.4766
Docker	-12.4771
ship	-12.4772
hwnd	-12.4773
milestone	-12.4776
occ	-12.4777
"'"	-12.4777
Variables	-12.4782
▁TABtpl	-12.4794
Features	-12.4795
}/{	-12.4796
ROLE	-12.4799
discriminator	-12.48
redfish	-12.48
sky	-12.4805
Methods	-12.4814
programs	-12.482
Extended	-12.4823
uptime	-12.4825
eager	-12.4828
architecture	-12.4828
little	-12.4828
BaseModel	-12.4829
wind	-12.4831
queued	-12.4833
'_'	-12.4835
PR	-12.4835
Finder	-12.4839
msgid	-12.4839
Peer	-12.4843
preference	-12.4843
LEN	-12.4844
Req	-12.4845
Origin	-12.4852
"0"	-12.4854
Gradient	-12.4856
Exec	-12.4856
FileSystem	-12.4858
forever	-12.4859
starts	-12.4863
setter	-12.4863
ElementTree	-12.4872
observations	-12.4876
Break	-12.4878
Experiment	-12.488
closure	-12.4883
nearest	-12.4884
markers	-12.4884
corner	-12.4888
DataParticle	-12.4892
Mouse	-12.4892
Loading	-12.4894
)})	-12.4898
bf	-12.49
morph	-12.4902
Eval	-12.4903
vocabulary	-12.4912
factories	-12.4912
Pipe	-12.4917
production	-12.4917
oqt	-12.4917
subscriptions	-12.4919
DO	-12.4921
62	-12.4923
poller	-12.4926
IM	-12.4929
FormatError	-12.4929
errmsg	-12.4933
Extract	-12.4934
▁SPACEevt	-12.4937
subtree	-12.4938
COM	-12.4938
similarity	-12.494
RO	-12.4942
Consumer	-12.4943
Price	-12.4948
='%	-12.4952
processors	-12.4958
incorrect	-12.496
varname	-12.4965
ancestors	-12.4967
INSERT	-12.4968
Contains	-12.4969
gradients	-12.4974
lvl	-12.498
maxlen	-12.4982
await	-12.4987
BUILD	-12.4996
presence	-12.4997
spectral	-12.4998
Macro	-12.4998
ized	-12.5001
Escape	-12.5002
Face	-12.5002
csr	-12.5007
▁SPACEstacklevel	-12.5008
while	-12.5009
pecan	-12.5017
bookmarks	-12.5018
brush	-12.5025
Lexer	-12.5025
isnull	-12.5026
osp	-12.503
('-',	-12.5031
ADDRESS	-12.5033
:])	-12.5036
PublicKey	-12.5039
lua	-12.504
8_	-12.5043
ipython	-12.5045
IC	-12.5045
Conflict	-12.5049
Bound	-12.5049
://%	-12.505
256)	-12.5052
Exchange	-12.5052
Fix	-12.5053
SYSTEM	-12.5054
conversation	-12.5058
100.0	-12.506
sandbox	-12.5067
▁SPACEfcntl	-12.5068
caches	-12.5068
Mat	-12.507
▁SPACEnothing	-12.5072
Sign	-12.5079
PATTERN	-12.508
assertDictEqual	-12.5082
]',	-12.5084
fatal	-12.5084
ADMIN	-12.5087
ME	-12.5093
00'	-12.5095
getCurrent	-12.5099
Speed	-12.5104
DT	-12.5105
Fast	-12.511
sanity	-12.5111
0000	-12.5111
3')	-12.5112
du	-12.5114
ij	-12.5114
tournament	-12.5115
3',	-12.5126
COL	-12.5129
fileids	-12.5131
Capture	-12.5133
descriptions	-12.5135
=0.0	-12.5137
Publisher	-12.5139
toggled	-12.5139
origins	-12.514
fitting	-12.5141
soap	-12.5143
]}	-12.5144
0.4	-12.5148
St	-12.5148
Fn	-12.5161
minus	-12.5162
Dimension	-12.5166
httplib	-12.5167
ntp	-12.5168
verifier	-12.5168
splits	-12.517
lost	-12.5172
Try	-12.5173
Delta	-12.5175
360	-12.5175
Nx	-12.5175
CP	-12.5176
ordinal	-12.5177
websocket	-12.5183
Focus	-12.5185
15)	-12.5191
pagination	-12.5197
evidence	-12.5197
latin	-12.5204
([[	-12.5204
Apply	-12.5205
Matcher	-12.5206
1.0/	-12.521
qa	-12.521
10.0	-12.5212
PM	-12.5214
Observer	-12.522
rgba	-12.5222
battery	-12.5226
ToString	-12.5227
Slot	-12.5227
inherited	-12.5227
(1),	-12.5228
▁SPACEalso	-12.523
64,	-12.5232
rewrite	-12.5234
cores	-12.5236
redo	-12.5236
shp	-12.5242
bw	-12.5243
still	-12.5244
pins	-12.5244
nullable	-12.5244
webapp	-12.525
likelihood	-12.5252
ENTITY	-12.5254
▁SPACEdefer	-12.5255
RESULT	-12.5255
unary	-12.5255
multiprocessing	-12.5256
tunnel	-12.526
Locale	-12.5261
▁SPACEfrozenset	-12.5265
▁SPACEdct	-12.5267
Buff	-12.528
timeline	-12.5281
Character	-12.5283
availability	-12.5284
1}	-12.5285
▁SPACEour	-12.529
RC	-12.529
('{}	-12.5292
mtc	-12.5302
books	-12.5305
rg	-12.5307
Rotation	-12.531
oom	-12.531
SIG	-12.5312
respond	-12.5313
middle	-12.5314
sphinx	-12.5314
concept	-12.5317
bd	-12.5321
Ping	-12.5321
")]	-12.5323
urlsafe	-12.5326
articles	-12.5326
['-	-12.5331
''')	-12.5336
votes	-12.5336
numerator	-12.5337
Slice	-12.5337
Opt	-12.5337
schemas	-12.5338
mpl	-12.5338
Delay	-12.5342
identify	-12.5344
debugger	-12.5344
grads	-12.5344
ENABLED	-12.5345
intersect	-12.5347
mods	-12.5355
41	-12.5358
DateTimeField	-12.5363
Review	-12.5364
Go	-12.5367
11,	-12.5368
85	-12.5369
▁TAByield	-12.537
diagonal	-12.5372
Enter	-12.5372
LOW	-12.5373
Producer	-12.5375
midi	-12.5385
Day	-12.5388
dT	-12.539
did	-12.5392
spell	-12.5393
fqdn	-12.5399
envs	-12.5401
ski	-12.5404
▁TABf	-12.5407
(_('	-12.5409
mandatory	-12.541
screenshot	-12.5412
capi	-12.5412
sat	-12.5419
pn	-12.542
0.6	-12.5422
▁SPACEdid	-12.5424
Executor	-12.5429
dv	-12.5429
slide	-12.5429
curses	-12.543
adapt	-12.543
AR	-12.5434
/2	-12.5434
[1:-1]	-12.5436
boost	-12.5438
graphs	-12.544
bands	-12.544
gram	-12.5441
CL	-12.5442
________________	-12.5443
XBlock	-12.5446
owned	-12.5449
('_')	-12.545
ot	-12.5451
angles	-12.5457
-8',	-12.5457
saver	-12.5457
filled	-12.5459
Supported	-12.5459
hexlify	-12.546
CONTROL	-12.5461
interpreter	-12.5463
bounding	-12.5465
transcript	-12.5466
sibling	-12.5467
ros	-12.5469
modeling	-12.5474
tan	-12.5481
▁SPACEcompact	-12.5485
comma	-12.5487
composite	-12.5491
libraries	-12.5491
SC	-12.5494
behavior	-12.5497
smtp	-12.55
Permissions	-12.5502
zsock	-12.5507
▁SPACEurlparse	-12.5507
Live	-12.5509
futures	-12.5513
ARM	-12.5515
51	-12.5516
plots	-12.5518
memoize	-12.5519
Branch	-12.552
substitute	-12.5521
rdd	-12.5522
raster	-12.5522
yml	-12.5524
8:	-12.5532
su	-12.5538
[4])	-12.5545
pay	-12.5547
unexpected	-12.5548
suspend	-12.555
RUNNING	-12.5551
activities	-12.5551
Idx	-12.5551
urandom	-12.5553
javascript	-12.5559
▁SPACEleast	-12.5567
Codec	-12.557
outline	-12.5575
again	-12.5578
hm	-12.5578
tee	-12.5579
Gaussian	-12.558
cairo	-12.5581
Selected	-12.5582
▁SPACEans	-12.5582
quaternion	-12.5582
tanh	-12.5584
CM	-12.5586
Decode	-12.5586
GMT	-12.5588
Velocity	-12.5588
needle	-12.5589
pil	-12.5594
oz	-12.5601
weak	-12.5604
▁SPACEprovide	-12.5605
FRIENDLY	-12.5611
communication	-12.5611
ASCII	-12.5611
portfolio	-12.5611
Tools	-12.5615
utcoffset	-12.5616
DatabaseError	-12.5619
Phase	-12.5622
NL	-12.5631
-1))	-12.5633
databases	-12.5635
255)	-12.5637
bed	-12.5639
titles	-12.5642
keras	-12.5642
internet	-12.5642
mixed	-12.5642
Sender	-12.5645
approved	-12.5647
outcome	-12.5647
3600	-12.5648
quad	-12.5654
variants	-12.5659
simulate	-12.5665
AES	-12.5665
topo	-12.5666
enforce	-12.5667
LDAP	-12.5668
Decorator	-12.567
Alert	-12.5671
300	-12.5672
fobj	-12.5678
paragraph	-12.5678
Tasks	-12.5687
TextField	-12.5693
]["	-12.5699
Shift	-12.5702
[("	-12.5702
spot	-12.5705
tooltip	-12.5705
Connector	-12.5708
"{0}	-12.5709
restrict	-12.5709
xmin	-12.5715
Res	-12.5716
decorators	-12.5717
▁SPACEoutfile	-12.5721
dfs	-12.5722
▁TABx	-12.5724
others	-12.5724
detected	-12.5725
Attachment	-12.5726
Deprecated	-12.573
pids	-12.5731
capability	-12.5732
existent	-12.5733
Stage	-12.5734
subsystem	-12.5735
ray	-12.5741
StringProperty	-12.5746
DI	-12.5748
privileges	-12.5749
udf	-12.5758
gpg	-12.5759
disc	-12.5761
songs	-12.5762
Entries	-12.5762
complement	-12.5763
SUPPORTED	-12.5763
HTTPClientError	-12.5764
reconnect	-12.5767
Subject	-12.5769
xe	-12.577
pet	-12.5779
Di	-12.578
GS	-12.5783
microseconds	-12.5787
INSTANCE	-12.5791
Complex	-12.5792
ACTIVE	-12.5793
sector	-12.5794
ceph	-12.5794
coda	-12.5803
))))	-12.5806
2015	-12.5806
paint	-12.5811
asn	-12.5817
assoc	-12.5824
"\\	-12.5824
TEMP	-12.5825
TR	-12.5828
ial	-12.5829
microsecond	-12.5831
grains	-12.5832
▁SPACEits	-12.5834
des	-12.5841
("",	-12.5842
StringType	-12.5842
visa	-12.5845
excluded	-12.5845
Ch	-12.5846
eyboardInterrupt	-12.5851
HIGH	-12.5855
Answer	-12.5855
Threshold	-12.5855
baseline	-12.5856
BooleanField	-12.5857
subscribers	-12.5858
triggers	-12.586
monitoring	-12.586
picture	-12.5862
checking	-12.5866
ABLE	-12.5869
keypair	-12.5873
website	-12.5875
CFG	-12.588
priv	-12.5881
translator	-12.5886
VIEW	-12.5887
("{}	-12.5888
detection	-12.5893
Period	-12.5894
0.8	-12.5895
SELF	-12.5896
ust	-12.5903
pq	-12.5912
+\	-12.5916
SIGNAL	-12.5917
-5	-12.5918
Begin	-12.5918
bandwidth	-12.5926
__',	-12.5928
Wiki	-12.5935
wall	-12.5937
clang	-12.5939
Colors	-12.5939
Plane	-12.5946
[0]:	-12.5948
caching	-12.5948
Migration	-12.5948
increase	-12.5948
medium	-12.5948
chord	-12.5949
ddl	-12.5964
heads	-12.5967
Sh	-12.597
throttle	-12.5973
rica	-12.5978
Sa	-12.5979
STORAGE	-12.598
spectrum	-12.598
CONTEXT	-12.598
Leaf	-12.598
Markup	-12.598
pkcs	-12.5982
Need	-12.5983
..."	-12.5983
VB	-12.5984
proposal	-12.5987
imag	-12.5988
Dot	-12.599
}]	-12.599
eid	-12.599
CN	-12.5993
1.2	-12.5993
infohash	-12.5997
Daemon	-12.5998
pure	-12.6
▁SPACEetree	-12.6005
currentIndex	-12.6005
fully	-12.6007
NORMAL	-12.6011
sharing	-12.6012
quat	-12.6015
RED	-12.6017
mutation	-12.6018
Illegal	-12.6022
MC	-12.6022
ted	-12.6025
vg	-12.6027
getstate	-12.603
argparse	-12.6039
humidity	-12.6042
Put	-12.6048
circ	-12.6048
contour	-12.605
83	-12.605
plug	-12.6059
ami	-12.6059
Recipe	-12.6073
Links	-12.6074
fitted	-12.6074
▁SPACEbpy	-12.6075
VG	-12.6076
EEXIST	-12.6079
succeed	-12.608
packets	-12.608
▁SPACEteardown	-12.6081
bookmark	-12.6089
Without	-12.6091
DPT	-12.6091
EXT	-12.6092
moved	-12.6095
ability	-12.61
arp	-12.6103
allocate	-12.6105
third	-12.6105
Alpha	-12.6106
Summon	-12.6106
assertContains	-12.6108
rtnl	-12.6108
projected	-12.6111
ou	-12.6113
uniq	-12.6113
{1:	-12.6118
dtm	-12.6118
MOD	-12.6122
SCons	-12.6123
verts	-12.6125
pci	-12.6131
shadow	-12.6133
deposit	-12.6134
Owned	-12.6135
GLOBAL	-12.6137
maintenance	-12.6137
"]]	-12.6139
getpid	-12.6139
Pr	-12.6144
Bounds	-12.6147
Extensions	-12.6148
Instances	-12.6148
just	-12.6152
nowait	-12.6155
MetaData	-12.6156
tvm	-12.6158
Tr	-12.6159
PT	-12.6162
wh	-12.6164
subtype	-12.6165
elf	-12.6168
intrinsic	-12.6169
Payment	-12.6169
ansible	-12.6169
mavlink	-12.617
descendants	-12.6183
▁SPACENoSuch	-12.6185
ja	-12.619
balancer	-12.619
bare	-12.6194
compound	-12.62
3.0	-12.6201
Rest	-12.6201
SAMPLE	-12.6201
Shutdown	-12.6201
lattice	-12.6201
LEFT	-12.6201
certs	-12.6202
attribs	-12.6202
xmax	-12.6203
met	-12.6206
gb	-12.6207
Scheduler	-12.6209
LED	-12.621
simulations	-12.622
closest	-12.6229
relay	-12.6231
4),	-12.6233
leading	-12.6234
reqSeq	-12.6234
POS	-12.6236
maker	-12.6236
===============	-12.6239
_01(	-12.624
visited	-12.6241
molecule	-12.6241
few	-12.6242
tu	-12.6248
AN	-12.6249
Ok	-12.625
redirects	-12.6251
MyS	-12.6255
pixmap	-12.6256
=-1,	-12.6257
-6	-12.6258
continuous	-12.6259
intercept	-12.6263
Flush	-12.6265
ENCODING	-12.6265
clazz	-12.6265
BB	-12.627
nth	-12.627
getType	-12.6274
▁@	-12.6275
>",	-12.6275
netmask	-12.6277
ints	-12.6283
Columns	-12.6283
stages	-12.6285
eg	-12.629
ef	-12.629
Before	-12.6295
TASK	-12.6296
skin	-12.6297
Photo	-12.6297
twilio	-12.6298
Topology	-12.6298
DROP	-12.6298
DetailView	-12.6299
decompress	-12.63
2-	-12.6302
linesep	-12.6302
qualified	-12.6305
SUPPORT	-12.6306
pcap	-12.6312
Pi	-12.6314
wid	-12.6319
prune	-12.6324
permanent	-12.6327
WIDTH	-12.633
Gate	-12.633
strong	-12.633
openid	-12.6334
'\\	-12.6334
centroid	-12.6338
participant	-12.6338
Strings	-12.6341
solid	-12.6345
Direct	-12.6345
Addr	-12.6356
revisions	-12.6357
newlines	-12.636
Allowed	-12.6362
CLASSES	-12.6363
Subclasses	-12.6366
Crypto	-12.6366
frontend	-12.6367
frozenset	-12.6373
=4:	-12.6378
streaming	-12.6379
formset	-12.6388
mutate	-12.6388
SoSFVec	-12.6395
{:	-12.6396
zk	-12.6397
Nothing	-12.6399
really	-12.6399
bench	-12.6405
reqs	-12.6408
iadd	-12.6409
FT	-12.6411
heat	-12.6422
Destination	-12.6428
mw	-12.6431
memcache	-12.6432
seqs	-12.6442
breakpoint	-12.6442
yum	-12.6445
hd	-12.6447
scp	-12.6449
States	-12.6459
CB	-12.6459
FAIL	-12.646
concrete	-12.646
cherrypy	-12.6461
}")	-12.6463
blah	-12.6464
adjoint	-12.6465
structs	-12.6467
slack	-12.647
AB	-12.647
1.0,	-12.6471
refund	-12.6472
idurl	-12.6474
otSet	-12.6476
}{	-12.6478
CHAR	-12.6481
coro	-12.6482
Cached	-12.6482
uname	-12.6482
ogr	-12.6483
▁SPACEisn	-12.6483
PO	-12.6486
timestamps	-12.6487
pcm	-12.6489
lf	-12.6491
propagate	-12.6493
Requested	-12.6494
theano	-12.6494
properly	-12.6494
completeIfN	-12.6494
dg	-12.6494
ScopedCopyable	-12.6498
Std	-12.65
friend	-12.6502
ClientException	-12.6507
ump	-12.6509
ish	-12.6509
au	-12.6509
preprocessor	-12.6509
wide	-12.6509
▁SPACElmax	-12.6513
15,	-12.6514
oper	-12.6518
ipaddr	-12.6518
getattribute	-12.652
CLOSE	-12.6525
selenium	-12.6526
FAILED	-12.6526
▁SPACEdivmod	-12.6531
hug	-12.6531
ting	-12.6535
ko	-12.6535
ctr	-12.6539
We	-12.654
▁SPACEthem	-12.6542
Defaults	-12.6546
centers	-12.6546
400)	-12.6551
GP	-12.6556
outgoing	-12.6561
CT	-12.6562
TestLoader	-12.6564
="")	-12.6567
Starting	-12.6567
btc	-12.6574
fullpath	-12.6575
When	-12.6578
lut	-12.6584
Primitive	-12.6591
downloads	-12.6591
Poll	-12.6592
FOLDER	-12.6593
NA	-12.6594
playback	-12.6594
camel	-12.6596
servo	-12.6596
randrange	-12.66
ran	-12.6608
BE	-12.6611
mountpoint	-12.6611
installer	-12.6612
wr	-12.6615
((1,),)	-12.6615
Pop	-12.6616
PP	-12.6617
"_"	-12.6618
STATIC	-12.6626
addons	-12.6626
successfully	-12.6627
returned	-12.663
Math	-12.663
padded	-12.663
IsValid	-12.6637
ue	-12.6638
shards	-12.6638
winfo	-12.6639
tsv	-12.6639
RESET	-12.6646
▁SPACEtyping	-12.6649
="/	-12.6649
4')	-12.6653
///////////////	-12.6659
spider	-12.666
nonexistent	-12.666
1.5	-12.6662
functional	-12.6662
Echo	-12.6668
.".	-12.6676
outdir	-12.6679
CD	-12.668
ngram	-12.6681
separators	-12.6682
DataError	-12.6683
Dist	-12.6683
GIT	-12.6686
Author	-12.6691
▁TABglobal	-12.6693
newaxis	-12.6693
singular	-12.6693
DIRECTORY	-12.6693
Err	-12.6694
utility	-12.6694
ical	-12.6695
clamp	-12.6696
certificates	-12.6697
colorize	-12.6698
atan	-12.6698
stripped	-12.67
UserWarning	-12.6701
▁SPACEtestGet	-12.6701
personal	-12.6702
RT	-12.6703
atol	-12.6706
Locked	-12.6711
Desc	-12.6712
Assignment	-12.6714
ENTRY	-12.6715
ek	-12.6718
setstate	-12.6718
"]))	-12.6721
subnets	-12.6721
jit	-12.6726
WITH	-12.6727
traffic	-12.6727
replication	-12.6727
0")	-12.6727
['--	-12.6727
longest	-12.6728
neighbor	-12.6728
Hidden	-12.6729
Assign	-12.6733
lms	-12.6733
leader	-12.6735
configurations	-12.674
fee	-12.6742
updater	-12.6744
drivers	-12.6744
GPU	-12.6745
generators	-12.675
changeset	-12.6753
pdu	-12.6754
UE	-12.6754
stores	-12.6756
recursion	-12.676
coding	-12.676
marshal	-12.676
altitude	-12.676
SaltCloud	-12.6761
pixbuf	-12.6762
myObj	-12.6763
Tokens	-12.6763
symbolic	-12.6763
talib	-12.6764
uppercase	-12.6766
residual	-12.677
BaseError	-12.6774
Customer	-12.6774
([0,	-12.6781
Comments	-12.6785
reserve	-12.6785
RAW	-12.6787
dset	-12.6788
'-')	-12.679
libvirt	-12.6791
observers	-12.6791
remainder	-12.6794
CTRL	-12.6795
sqlalchemy	-12.6795
uris	-12.6806
toplevel	-12.6807
transformed	-12.6809
busy	-12.6819
Arch	-12.682
00')	-12.6827
equality	-12.6828
receipt	-12.6828
during	-12.6829
[:-	-12.6829
DOWN	-12.6832
around	-12.6834
dataReceived	-12.6834
problems	-12.684
recurse	-12.6841
"][	-12.6841
inclusion	-12.6844
66	-12.6847
Flat	-12.6852
PRE	-12.6855
(2))	-12.6859
dh	-12.686
FILTER	-12.686
UEUE	-12.6861
primitives	-12.6862
Disabled	-12.6862
Dragger	-12.6862
Manifest	-12.6862
Partial	-12.6863
=5).	-12.6863
VER	-12.6869
lead	-12.687
embeddings	-12.6872
Credential	-12.6872
shortcut	-12.6874
Amount	-12.6878
controllers	-12.688
implements	-12.688
bam	-12.688
water	-12.6885
residuals	-12.6887
[4],	-12.689
Bin	-12.6891
RA	-12.6891
alerts	-12.6891
tmpfile	-12.6894
visual	-12.6895
Background	-12.6896
Fixture	-12.6897
MCVirtException	-12.6897
-3.0.	-12.6897
Compiler	-12.6898
gfile	-12.6898
lineEdit	-12.69
episodes	-12.6905
directive	-12.6907
gcd	-12.6921
('"',	-12.6922
UA	-12.6922
("[	-12.6928
Ansible	-12.6929
CHANGE	-12.693
unk	-12.693
61	-12.693
SbVec	-12.6931
confirmation	-12.6931
▁SPACEcalend	-12.6932
VARIABLES	-12.6932
Like	-12.6934
5))	-12.6935
MASK	-12.6936
setParams	-12.6938
Rules	-12.694
=0.0,	-12.6945
Vm	-12.6948
ranks	-12.6948
tzname	-12.6949
GPIO	-12.6952
Tx	-12.6953
chip	-12.6954
54	-12.696
Dispatcher	-12.6964
wizard	-12.6966
Terminal	-12.6966
Deployment	-12.6966
utilities	-12.6966
painter	-12.6967
containing	-12.6968
que	-12.6969
sense	-12.6971
Testing	-12.6975
ssa	-12.6975
SMTP	-12.6981
(2*	-12.6986
lane	-12.6987
nice	-12.6987
Replay	-12.6997
PARAM	-12.6998
unicodedata	-12.6999
swigibpy	-12.7
sun	-12.7004
whole	-12.7004
activated	-12.7007
MessageBox	-12.7008
>/	-12.7008
lfn	-12.701
modification	-12.7011
modulestore	-12.7015
collapse	-12.7028
suggest	-12.7034
gauge	-12.7035
past	-12.7038
sem	-12.704
violations	-12.7044
prt	-12.7045
protocols	-12.7052
subjects	-12.7055
ban	-12.7057
('-')	-12.7058
aligned	-12.706
[-1,	-12.7062
prepared	-12.7066
approve	-12.7067
5000	-12.7067
SCRIPT	-12.7067
"%(	-12.707
Balance	-12.707
24)	-12.707
recall	-12.7077
mar	-12.7078
deref	-12.7078
0.3	-12.7083
dependent	-12.7085
UserError	-12.7089
16_	-12.7093
Words	-12.7093
Pen	-12.7095
1':	-12.7103
Initialization	-12.7105
Pending	-12.7107
translated	-12.7119
Impl	-12.7129
imported	-12.7132
MenuItem	-12.7133
Mongo	-12.7137
Lambda	-12.714
envelope	-12.714
gsToList	-12.714
UserProfile	-12.7143
xbmc	-12.7144
dico	-12.7146
"{}"	-12.7149
builds	-12.7149
lit	-12.7151
unbind	-12.7152
SA	-12.7154
ansi	-12.7159
Runtime	-12.7159
minion	-12.7162
icons	-12.7162
ipFile	-12.7169
pnt	-12.7171
blend	-12.7171
USB	-12.7172
Publish	-12.7173
▁SPACEconvertAr	-12.7175
consistency	-12.7175
embedded	-12.7175
thickness	-12.7175
[1]:	-12.718
ak	-12.7183
clr	-12.7188
ill	-12.7189
emission	-12.7192
5.0	-12.72
hf	-12.72
Redis	-12.7201
Conn	-12.7206
interpolation	-12.721
dingtalk	-12.721
evaluator	-12.721
applied	-12.721
-8"))	-12.7213
delattr	-12.7213
election	-12.7214
>%	-12.7217
ice	-12.7217
1:]	-12.7217
conflict	-12.7221
aggregation	-12.7222
figsize	-12.7225
ier	-12.7229
Gateway	-12.723
Strip	-12.7238
you	-12.7239
Locator	-12.7243
Launch	-12.7245
pyc	-12.7245
Comparison	-12.7246
Guest	-12.7247
fuzzer	-12.7249
NC	-12.7251
astroid	-12.7251
Started	-12.7251
lw	-12.7251
localize	-12.7253
ist	-12.7255
MessageType	-12.7256
gmtime	-12.7256
modal	-12.7259
mktime	-12.7265
30)	-12.7266
NB	-12.7268
pfn	-12.727
registerElement	-12.7274
provision	-12.7276
ENDPOINT	-12.7279
attenuation	-12.7281
denied	-12.7281
Extractor	-12.7284
TT	-12.7285
accel	-12.7285
yy	-12.7287
hue	-12.7292
Reason	-12.7293
Radius	-12.7294
configfile	-12.7294
UGen	-12.7294
trainer	-12.7301
tst	-12.7302
prof	-12.7303
Bus	-12.7303
venv	-12.7306
AppConfig	-12.731
CHANNEL	-12.7315
/{0}/	-12.7316
Aggregate	-12.7316
Expand	-12.7317
VegaLite	-12.7317
ble	-12.732
life	-12.7323
filelist	-12.7323
signing	-12.7328
qubit	-12.7329
rmdir	-12.7342
ovs	-12.7344
fu	-12.7346
Pack	-12.7347
km	-12.7351
reflect	-12.7352
Submit	-12.7352
imm	-12.7353
privacy	-12.7353
trajectory	-12.7353
PATCH	-12.7353
Using	-12.7353
Contract	-12.7353
Compare	-12.7353
8601	-12.7355
Solver	-12.7355
party	-12.7359
roi	-12.736
leo	-12.7364
recover	-12.7364
▁SPACEoverridden	-12.7367
("-	-12.7369
{{	-12.737
exitcode	-12.737
ler	-12.737
simu	-12.7376
hsv	-12.7378
differences	-12.738
ru	-12.7388
Square	-12.7389
BUFFER	-12.7389
loadTestsFrom	-12.7389
aptly	-12.7389
triggered	-12.7396
stmts	-12.7396
dont	-12.7397
Images	-12.7403
ioloop	-12.7404
elb	-12.7407
threaded	-12.7411
sendMessage	-12.7413
compact	-12.7414
KEYS	-12.7423
Small	-12.7424
120	-12.7425
Prompt	-12.7425
ALLOWED	-12.7425
handling	-12.7425
Specification	-12.7425
ND	-12.7425
UV	-12.7426
FUNC	-12.7427
kickstart	-12.743
guard	-12.7436
Packages	-12.7439
oy	-12.7439
give	-12.744
lvm	-12.7445
▁SPACEhow	-12.7446
ox	-12.7449
BaseHandler	-12.7452
descriptors	-12.7454
walker	-12.7457
navigation	-12.7461
REMOTE	-12.7461
basket	-12.7461
assertIdentical	-12.7462
xmlGetNode	-12.7462
stable	-12.7464
*\	-12.7469
coefficient	-12.7474
UL	-12.7474
cash	-12.7474
4.0	-12.7482
please	-12.7483
News	-12.7483
PG	-12.7484
LL	-12.7485
Initial	-12.7489
PFA	-12.7489
Voice	-12.7496
FLOAT	-12.7498
youtube	-12.7498
connectionLost	-12.7498
jpeg	-12.7498
initialization	-12.7498
BRMA	-12.7499
rsp	-12.7499
(.*)	-12.7499
hdfs	-12.75
signer	-12.7501
LC	-12.7505
getAttribute	-12.7506
aug	-12.751
sts	-12.7511
qual	-12.7513
PL	-12.7517
0',	-12.7524
▁TABmodel	-12.7531
interpret	-12.7533
wavelengths	-12.7535
bob	-12.754
overview	-12.7547
USERNAME	-12.7549
distributions	-12.7553
engines	-12.7559
Org	-12.7567
tir	-12.7568
foreground	-12.7571
handshake	-12.7571
SEARCH	-12.7571
lru	-12.7571
1_1	-12.7571
Uniform	-12.7572
=1.0,	-12.7572
[...,	-12.7573
chains	-12.7577
00)	-12.7579
Pa	-12.7579
loadbalancer	-12.7586
ending	-12.7588
8))	-12.7592
inbox	-12.7592
▁SPACEfout	-12.7593
wi	-12.7594
tn	-12.7597
rich	-12.7599
separate	-12.7601
High	-12.7601
LANGUAGE	-12.7605
AA	-12.7607
similar	-12.7607
firmware	-12.7607
bufsize	-12.7609
POINT	-12.7613
Boundary	-12.7614
'\033[	-12.7615
4):	-12.7616
extracted	-12.762
fld	-12.762
scm	-12.7622
('_',	-12.7623
Transformation	-12.7623
edProcessError	-12.7624
0123456	-12.7627
multipart	-12.7635
pseudo	-12.7636
getting	-12.7642
LP	-12.7643
INIT	-12.7644
subplot	-12.7644
Indices	-12.7644
GO	-12.7645
HASH	-12.7648
CALL	-12.7649
hive	-12.7649
devnull	-12.7649
arity	-12.765
Cap	-12.765
Salt	-12.7651
rn	-12.7655
viz	-12.766
RB	-12.7663
gx	-12.7665
preds	-12.7668
oint	-12.7668
facet	-12.7671
RDF	-12.7676
openstack	-12.7679
sketch	-12.7681
decision	-12.7681
institution	-12.7681
Staff	-12.7681
performance	-12.7682
METADATA	-12.7682
LOGIN	-12.7684
tries	-12.7688
diffs	-12.7688
deb	-12.7688
being	-12.7691
Stmt	-12.7698
Hi	-12.7701
_3(	-12.7703
attempts	-12.7705
checkbox	-12.7708
')),	-12.7711
ION	-12.7715
LABEL	-12.7716
(",")	-12.7717
hz	-12.7718
failUnless	-12.7718
Sequential	-12.7719
discrete	-12.7719
2'	-12.772
Configured	-12.7723
correction	-12.7724
Sql	-12.7729
(':',	-12.7729
atlas	-12.773
associated	-12.7732
crypt	-12.7733
vpn	-12.7734
[1]),	-12.7734
bounded	-12.7738
ekr	-12.7742
Pod	-12.7751
32),	-12.7752
calling	-12.7752
BACKEND	-12.7754
subparser	-12.7754
firefox	-12.7756
initiator	-12.7756
-1.0	-12.7757
ResponseBody	-12.7758
Primary	-12.776
Shader	-12.7763
0.5*	-12.7763
eig	-12.7763
pct	-12.7763
dyn	-12.7764
UDP	-12.7765
250	-12.7767
triple	-12.7769
80)	-12.7773
0.,	-12.7773
tagName	-12.7775
workdir	-12.7777
Mac	-12.7777
Frequency	-12.7783
Restart	-12.7784
nv	-12.7786
nodeName	-12.7788
assertion	-12.7789
placement	-12.7791
attention	-12.7793
=[])	-12.7797
reservation	-12.7807
",".	-12.781
▁SPACEcmdlist	-12.7811
interaction	-12.7811
▁SPACEimportlib	-12.7812
2.5	-12.7818
▁SPACENOTE	-12.7818
Final	-12.782
recs	-12.7823
={})	-12.7824
fade	-12.7827
Effect	-12.7831
Declaration	-12.7831
Temperature	-12.7831
-8"	-12.7831
Feedback	-12.7832
pong	-12.7833
Mass	-12.7835
Low	-12.7835
frag	-12.7836
▁SPACEwere	-12.7836
easy	-12.7838
SL	-12.7839
delayed	-12.7841
Big	-12.7841
unavailable	-12.7842
▁SPACEthey	-12.7845
----	-12.7845
2**	-12.7853
lim	-12.7853
xl	-12.7857
xrange	-12.7864
pep	-12.7864
determine	-12.7865
reindex	-12.7865
necessary	-12.7868
perspective	-12.7869
Operand	-12.7869
inheritance	-12.7869
qemu	-12.787
edited	-12.7872
interact	-12.7873
More	-12.7874
signup	-12.7874
Dispatch	-12.7879
drawing	-12.7879
provided	-12.7879
pragma	-12.788
204	-12.7884
Requests	-12.7888
least	-12.7889
Dis	-12.7896
readers	-12.7897
[{	-12.7899
PYTHON	-12.7905
executed	-12.7906
Ctrl	-12.7907
Alarm	-12.7907
virsh	-12.7907
downgrade	-12.7909
timestep	-12.7911
Creation	-12.7912
Projection	-12.7915
apk	-12.7921
areas	-12.7922
periods	-12.7926
doi	-12.7932
RH	-12.7937
Retrieve	-12.7938
adapters	-12.7939
Theme	-12.7941
Disconnect	-12.7943
apache	-12.7945
protobuf	-12.795
uploaded	-12.7957
Got	-12.7968
mutable	-12.797
Filters	-12.7973
backlog	-12.7973
}',	-12.7975
effects	-12.7976
LAST	-12.7977
mer	-12.7982
uota	-12.7982
Lower	-12.7983
DA	-12.7984
digital	-12.7984
-0.5	-12.7985
computer	-12.7988
tarfile	-12.799
▁SPACEthese	-12.7993
autocommit	-12.7995
discussion	-12.7997
Layers	-12.8003
5()	-12.8003
Checking	-12.8003
dj	-12.801
302	-12.801
vect	-12.801
nose	-12.8013
DEF	-12.8018
PASS	-12.802
RANDOM	-12.8021
Simulation	-12.8021
FAKE	-12.8021
transmit	-12.8021
ends	-12.8032
dock	-12.8034
dav	-12.8034
MI	-12.8036
xknx	-12.8039
Elements	-12.8039
recorder	-12.8042
bib	-12.805
shares	-12.8051
Records	-12.8052
gps	-12.8054
adm	-12.8056
scales	-12.8056
88	-12.8057
far	-12.8057
About	-12.8059
Canvas	-12.806
coefs	-12.806
patched	-12.8061
APIView	-12.8064
▁SPACEbinascii	-12.8065
fontsize	-12.8069
stopping	-12.807
Ordered	-12.8074
roc	-12.8076
assignments	-12.8076
truncated	-12.8078
differ	-12.808
Scroll	-12.808
fy	-12.808
inode	-12.808
cms	-12.8081
ccx	-12.8082
sku	-12.8087
Star	-12.8088
med	-12.8088
BaseEnum	-12.8088
WHERE	-12.8091
Modules	-12.8097
alternate	-12.8098
procedure	-12.8098
better	-12.8098
purpose	-12.8098
EV	-12.81
grok	-12.81
qibuild	-12.81
Removed	-12.8105
isabs	-12.8105
ens	-12.811
setVisible	-12.8113
FC	-12.8115
disco	-12.8117
forced	-12.8117
ApiError	-12.8119
IPAddress	-12.8129
odd	-12.8132
sam	-12.8132
vv	-12.8133
eff	-12.8134
FRAME	-12.8134
uantity	-12.8135
Logs	-12.8136
Unavailable	-12.8137
accessible	-12.8138
Dirty	-12.8138
0613	-12.8139
Temporary	-12.8142
tvdb	-12.8143
raised	-12.8144
uids	-12.8147
aes	-12.8148
TM	-12.8149
patcher	-12.8149
lite	-12.815
Conversion	-12.8153
[2]]	-12.8159
NN	-12.8159
(100,	-12.8159
provide	-12.817
Band	-12.817
----------	-12.8172
surf	-12.8176
TestDiveAir	-12.8176
▁SPACENDIM	-12.8176
1./	-12.8181
MX	-12.8184
+')	-12.8186
widths	-12.8196
setData	-12.8196
datadir	-12.8197
Wire	-12.8198
▁SPACEpprint	-12.8199
rights	-12.82
('[	-12.8212
REST	-12.8212
Measure	-12.8215
natural	-12.8215
strength	-12.8215
Creating	-12.8215
highest	-12.8216
RF	-12.822
cpus	-12.8225
4().	-12.8244
lxml	-12.8247
emb	-12.8247
computed	-12.8254
POSITION	-12.8254
studio	-12.8254
dedent	-12.8254
weather	-12.8254
normalization	-12.8255
Station	-12.8257
tearDownClass	-12.8259
lti	-12.826
ANY	-12.8263
5),	-12.8264
setCurrent	-12.8265
Cli	-12.8272
reporting	-12.8274
minimal	-12.8277
0}	-12.8278
Samples	-12.8289
BeautifulSoup	-12.8293
Malformed	-12.8293
NUMERIC	-12.8293
80,	-12.8294
keyring	-12.8294
tableName	-12.8297
5')	-12.8306
60,	-12.8308
fwhm	-12.8309
graphics	-12.8316
403)	-12.8321
gem	-12.8321
Sound	-12.8321
NP	-12.8323
menuw	-12.8324
asc	-12.8326
2014	-12.8331
ki	-12.8332
succ	-12.8333
telnet	-12.8333
sch	-12.8334
operate	-12.8334
rejected	-12.8335
addCleanup	-12.8341
fuzzy	-12.8341
###############	-12.8348
Units	-12.8348
Components	-12.835
Repr	-12.835
WORD	-12.8351
MatrixElement	-12.8354
Particle	-12.8355
signatures	-12.8359
codecs	-12.8363
Called	-12.8364
fk	-12.8365
CG	-12.8365
WebSocket	-12.8366
chroot	-12.8366
timers	-12.8366
cum	-12.8367
vb	-12.8367
getpass	-12.837
ay	-12.8371
Completion	-12.8373
Mirror	-12.8373
requestId	-12.8373
▁SPACEINTO	-12.8374
KeyModifier	-12.8374
bird	-12.8375
tensorflow	-12.8378
launcher	-12.8378
stars	-12.8378
2}	-12.8382
kvs	-12.8388
substring	-12.8391
invites	-12.8391
islice	-12.8393
timetuple	-12.8393
timeparse	-12.8394
hdu	-12.8397
Plist	-12.8397
ERO	-12.84
cycles	-12.8403
Inputs	-12.8404
hack	-12.8409
Loc	-12.8411
Specific	-12.8412
BUTTON	-12.8413
fabric	-12.8413
Digest	-12.8413
clipped	-12.8413
leak	-12.8414
Added	-12.8414
Rank	-12.8415
grib	-12.8416
repeated	-12.8417
//2	-12.8423
slider	-12.8425
XXX	-12.8425
cim	-12.8429
DL	-12.8429
exporter	-12.8435
PF	-12.8437
building	-12.8444
anchors	-12.8446
Pad	-12.8451
loglevel	-12.8451
RIGHT	-12.8452
Attempt	-12.8452
bulge	-12.8453
Horizontal	-12.8453
Alignment	-12.8453
Pt	-12.8455
instruments	-12.8458
chrome	-12.8459
llvm	-12.8462
VAL	-12.8463
MPI	-12.8467
gam	-12.8471
geojson	-12.8473
sio	-12.8474
chunksize	-12.8475
'][0]['	-12.8475
sdl	-12.8477
HI	-12.8478
commits	-12.848
)**2)	-12.8484
symmetric	-12.8489
'12	-12.849
allocated	-12.8492
SHORT	-12.8493
equivalent	-12.8493
MixIn	-12.8493
Visitor	-12.8493
phy	-12.8497
Highlight	-12.8498
apple	-12.8499
Attrs	-12.8509
speaker	-12.8509
inlist	-12.851
▁SPACEpayloads	-12.8513
▁SPACEdetermine	-12.8519
FA	-12.8522
LT	-12.8525
las	-12.8527
Pickle	-12.8529
ueries	-12.8531
sonResponse	-12.8533
Glyph	-12.8533
summaries	-12.8533
▁SPACEwould	-12.8533
▁SPACEReportItem	-12.8534
commission	-12.8537
RequestException	-12.8537
PIL	-12.8539
[0]*	-12.8544
polar	-12.8549
Gui	-12.855
sents	-12.8551
postfix	-12.8551
▁SPACEretVal	-12.8553
LO	-12.8554
[:1]	-12.8556
sip	-12.8557
TC	-12.8559
cPickle	-12.8566
(0.,	-12.8568
Os	-12.857
Finish	-12.8573
REGISTRY	-12.8573
SCOPE	-12.8573
ENOENT	-12.8573
failUnlessEqual	-12.8574
Smart	-12.8574
splitter	-12.8577
machines	-12.8577
anti	-12.8583
zoo	-12.8583
fonts	-12.8584
operands	-12.8585
feeds	-12.8585
represent	-12.8587
sFor	-12.8587
mechanism	-12.859
VR	-12.8591
1"	-12.8594
intensity	-12.8614
division	-12.8614
watchdog	-12.8614
everything	-12.8614
dispose	-12.8615
ible	-12.8615
swift	-12.8615
Noise	-12.8615
sched	-12.8615
colored	-12.8615
aff	-12.8616
aware	-12.8616
thermostat	-12.8617
ect	-12.8618
imdb	-12.862
Original	-12.8623
materials	-12.8624
routers	-12.8626
psutil	-12.8628
800	-12.864
DM	-12.8642
Normalize	-12.8645
6):	-12.8648
PLUGIN	-12.8652
sessionId	-12.8654
Deleting	-12.8655
gdk	-12.8658
sendCommand	-12.8661
PB	-12.8662
Span	-12.8662
marks	-12.8662
detailed	-12.8663
RES	-12.8665
abbr	-12.8667
assemble	-12.8673
ise	-12.8674
getNode	-12.8678
STORE	-12.8684
PROFILE	-12.869
CE	-12.8694
forecast	-12.8696
usable	-12.8698
InputError	-12.8699
videos	-12.8701
wifi	-12.8706
__":	-12.8706
stress	-12.8707
-10	-12.8707
OPT	-12.871
indentation	-12.8711
_200_	-12.8711
mbox	-12.8712
criterion	-12.8713
sta	-12.872
(">	-12.872
shop	-12.8721
Reading	-12.8722
Cur	-12.873
blocksize	-12.8733
correctly	-12.8734
prov	-12.8735
ik	-12.8736
relevant	-12.8737
Cross	-12.8737
yellow	-12.8737
creating	-12.8737
isatty	-12.8737
countries	-12.8738
Mo	-12.8742
managers	-12.8745
32')	-12.875
UsageError	-12.875
derivative	-12.8754
gg	-12.8755
oe	-12.8757
Keyboard	-12.8761
'%(	-12.8766
cor	-12.8767
[:3]	-12.8768
▁SPACEknow	-12.877
▁SPACErospy	-12.8771
Pro	-12.8771
relationships	-12.8776
Fit	-12.8777
TIMESTAMP	-12.8778
Vote	-12.8778
Overlay	-12.8779
callLater	-12.8779
Cron	-12.878
months	-12.8781
Radio	-12.8782
/{}'	-12.8788
CDL	-12.8789
virtualenv	-12.8794
{3}	-12.8796
10:	-12.8796
fcntl	-12.8799
underscore	-12.8801
/",	-12.8804
paginate	-12.8813
flavors	-12.8815
themes	-12.8816
sending	-12.8817
ellipse	-12.882
Absolute	-12.882
reduction	-12.882
pairwise	-12.882
Importer	-12.8823
IOLoop	-12.8825
[]))	-12.8826
Benchmark	-12.8827
ndims	-12.8829
organizations	-12.883
DEV	-12.883
late	-12.8832
Devices	-12.8834
Mismatch	-12.8834
Related	-12.8835
specifier	-12.8838
TRAIN	-12.8843
guide	-12.8852
esc	-12.8854
ite	-12.8855
procs	-12.8858
multiline	-12.8859
RATE	-12.8859
uaternion	-12.886
Physical	-12.8861
Skeleton	-12.8862
WebDAVElement	-12.8862
4]	-12.8862
10))	-12.8863
ckpt	-12.8864
Sig	-12.8866
Invoice	-12.8868
xxx	-12.8868
LOCATION	-12.8868
[0:2]	-12.8871
typed	-12.8871
holder	-12.8873
anim	-12.8873
Models	-12.8873
pivot	-12.8875
Fun	-12.8875
sError	-12.8877
recipients	-12.8878
BC	-12.888
pks	-12.888
provides	-12.8882
TestResult	-12.8887
])[0]	-12.8889
fuv	-12.8889
PDU	-12.8889
Blog	-12.8892
incomplete	-12.8899
RequestContext	-12.8902
Bottleneck	-12.8903
CHARS	-12.8906
Bind	-12.8906
freqs	-12.8907
setDefault	-12.891
pager	-12.891
prj	-12.8912
[1:],	-12.8913
hover	-12.8916
iters	-12.8917
unread	-12.8918
GT	-12.8922
UR	-12.8926
addrs	-12.893
eec	-12.8931
ymin	-12.8932
pwm	-12.8933
Pause	-12.894
OSC	-12.8943
moving	-12.8944
Inventory	-12.8945
accumulator	-12.8945
chassis	-12.8946
serialization	-12.8946
nltk	-12.8946
OrDefault	-12.8947
there	-12.8949
xmpp	-12.895
could	-12.8953
otp	-12.8955
gd	-12.8956
('\\',	-12.8958
REPO	-12.8963
particles	-12.8963
Your	-12.8964
2016	-12.8964
anon	-12.8967
mixin	-12.8968
scrape	-12.8971
DOC	-12.8978
either	-12.898
Drive	-12.898
PK	-12.8982
Different	-12.8987
itr	-12.8987
Spell	-12.8988
hypervisor	-12.8988
enough	-12.8988
AGENT	-12.8988
Observation	-12.8988
Stopped	-12.8988
submitted	-12.8988
DataParticleType	-12.899
grouped	-12.899
GB	-12.8991
phys	-12.8997
Cond	-12.8997
reaction	-12.8997
fish	-12.8999
FromFile	-12.9003
SRC	-12.9006
trunc	-12.9006
rat	-12.9007
accessor	-12.9008
50)	-12.9011
SPI	-12.9011
ipaddress	-12.9012
remember	-12.9014
school	-12.9014
Calculate	-12.9017
[5]	-12.9021
INTERVAL	-12.903
frequencies	-12.903
STDOUT	-12.903
Changes	-12.903
elasticsearch	-12.9031
Stdout	-12.9033
Actor	-12.9033
reactions	-12.9034
2010.	-12.9038
redefined	-12.9039
Im	-12.904
CON	-12.9042
=0.,	-12.9045
validity	-12.9048
currently	-12.9048
shlex	-12.9048
("'",	-12.9049
parseString	-12.9049
ensemble	-12.905
▁g	-12.9051
wo	-12.9058
Datetime	-12.9059
▁SPACEdirectly	-12.9062
Src	-12.9065
Orientation	-12.9073
restricted	-12.9074
Analyzer	-12.9075
Numpy	-12.9076
exprs	-12.9083
2']	-12.9088
3/	-12.9088
Subnet	-12.9091
11)	-12.9094
Globals	-12.9095
(404)	-12.9095
Year	-12.9095
emoji	-12.9098
▁SPACEnargs	-12.91
surname	-12.9102
=1))	-12.9105
para	-12.9106
kubernetes	-12.9107
specified	-12.9109
dig	-12.9111
Fragment	-12.9113
2)]	-12.9115
gauss	-12.9115
instructor	-12.9115
confusion	-12.9115
applications	-12.9117
edx	-12.9118
0001	-12.9119
Coordinates	-12.9122
BN	-12.9125
glfw	-12.9126
raid	-12.9126
255,	-12.9127
Cost	-12.9132
foia	-12.9133
bugs	-12.9134
APIException	-12.9135
TOP	-12.9137
Cast	-12.9139
▁SPACEkeepdims	-12.9141
1})	-12.9144
Cells	-12.9146
things	-12.9148
rolling	-12.915
Prepare	-12.9151
accepts	-12.9153
0.5,	-12.9155
Toggle	-12.9158
Month	-12.9158
MATCH	-12.9158
rtn	-12.9158
naive	-12.9158
darwin	-12.9159
getsockname	-12.9159
ARGS	-12.916
ioctl	-12.916
Training	-12.916
ago	-12.9161
/2)	-12.9164
}",	-12.9165
Receiver	-12.9165
analytics	-12.9168
Composite	-12.9168
Uni	-12.9169
restype	-12.9174
BBV	-12.9174
absorption	-12.9177
doAction	-12.9182
graphic	-12.9183
generics	-12.9185
years	-12.9187
stacks	-12.9189
ads	-12.9189
cmake	-12.9189
HttpError	-12.9191
(1.0,	-12.92
Train	-12.92
Too	-12.9201
InvalidArgument	-12.9201
Clause	-12.9201
divisor	-12.9201
probabilities	-12.9201
▁SPACEARIMA	-12.9201
utcfromtimestamp	-12.9202
className	-12.9202
UNIX	-12.9203
colon	-12.9206
Addon	-12.9208
4*	-12.9208
attack	-12.9212
▁SPACErobo	-12.922
deletion	-12.922
ade	-12.9224
RECORD	-12.9226
wake	-12.9231
sendall	-12.9237
Ad	-12.9237
{}))	-12.9239
23,	-12.9241
nets	-12.9241
Acceptable	-12.9242
Relationship	-12.9243
(0.1)	-12.9244
Anchor	-12.9245
cascade	-12.9245
punctuation	-12.9245
exempt	-12.9245
TITLE	-12.9245
against	-12.9245
▁SPACEmight	-12.9246
Signed	-12.9246
artists	-12.9252
declared	-12.9255
Sending	-12.9257
Kit	-12.9258
ACK	-12.9261
mtx	-12.9267
IL	-12.9267
▁TABfields	-12.9268
Cfg	-12.9273
stations	-12.9279
TH	-12.9285
aio	-12.9287
pth	-12.9288
orient	-12.9288
Placeholder	-12.9288
LOEA	-12.9289
argmin	-12.9289
Upgrade	-12.929
listening	-12.9291
-8'	-12.9298
▁TABconf	-12.9299
TAB	-12.9301
dog	-12.9304
NoSuch	-12.9309
qty	-12.9313
-2,	-12.9314
1[	-12.932
selectable	-12.9324
Artifact	-12.9327
qc	-12.9329
Enumeration	-12.9332
NON	-12.9332
pyramid	-12.9332
Closing	-12.9332
explanation	-12.9332
speech	-12.9332
Plus	-12.9332
Phone	-12.9332
Tracker	-12.9335
made	-12.934
lte	-12.934
Bug	-12.9341
matmul	-12.9342
hole	-12.9346
LCD	-12.9347
uality	-12.9349
ymax	-12.9351
bracket	-12.9351
subst	-12.9354
16))	-12.9355
__')	-12.9355
30,	-12.936
RequiredMixin	-12.9363
gcs	-12.9372
Clipboard	-12.9373
Parsed	-12.9374
caffe	-12.9376
contiguous	-12.9376
universal	-12.9376
Decl	-12.9376
kappa	-12.9376
▁SPACErunTest	-12.9382
fuel	-12.9382
REG	-12.9386
Todo	-12.9387
BIT	-12.9387
+1:]	-12.9387
crl	-12.9394
mainloop	-12.9396
stripe	-12.9398
sptr	-12.9398
Playlist	-12.9398
writelines	-12.9399
2[	-12.9402
rom	-12.9403
(*[	-12.9405
0.05	-12.9408
argsort	-12.9409
OC	-12.9414
how	-12.9414
fresh	-12.9418
basestring	-12.9419
alchemy	-12.9419
CLUSTER	-12.942
oracle	-12.942
Recording	-12.942
flex	-12.942
copyright	-12.942
covariance	-12.9422
FR	-12.9422
subtitles	-12.9423
ArgumentError	-12.9424
switches	-12.9424
dark	-12.9425
ONLY	-12.9426
advanced	-12.9432
testdir	-12.9432
costs	-12.9434
nuc	-12.9434
▁SPACEreturned	-12.9436
umask	-12.9439
bld	-12.9439
mro	-12.9439
rtol	-12.944
Po	-12.9443
uck	-12.9444
wn	-12.9444
ucs	-12.9445
Seed	-12.9453
terminated	-12.9454
captured	-12.9455
hid	-12.9456
mono	-12.9459
legal	-12.9462
Sets	-12.9463
sockets	-12.9463
synth	-12.9463
postgres	-12.9464
TestBase	-12.9464
Cycle	-12.9464
scratch	-12.9464
PermissionDenied	-12.9464
cumsum	-12.9465
referenced	-12.9468
logdir	-12.9468
Act	-12.9469
ei	-12.947
mimetypes	-12.947
-->	-12.9473
600	-12.9474
stylesheet	-12.9474
pump	-12.9475
ctime	-12.948
224	-12.949
fq	-12.9498
locks	-12.9501
110	-12.9501
FMT	-12.9507
platforms	-12.9507
deck	-12.9508
('/'):	-12.9508
Parallel	-12.9508
obsolete	-12.9508
Modification	-12.9508
[1:	-12.9519
Div	-12.952
MAIN	-12.9526
treeview	-12.9538
returnValue	-12.954
scenes	-12.9544
ecc	-12.9544
BA	-12.9547
nbytes	-12.955
nz	-12.955
welcome	-12.9553
Episode	-12.9553
produce	-12.9555
keystone	-12.9556
Pages	-12.9557
integers	-12.9558
isChecked	-12.9558
Pkg	-12.9559
basicConfig	-12.9559
IV	-12.9559
150	-12.9564
2)))	-12.9564
Channels	-12.9566
CIM	-12.9567
linewidth	-12.957
Editing	-12.957
RP	-12.9576
mess	-12.9576
GObject	-12.958
hosting	-12.9581
lng	-12.9582
race	-12.9582
Seconds	-12.9584
Same	-12.9584
subcommand	-12.9586
strand	-12.9586
Rename	-12.9592
Story	-12.9594
slip	-12.9596
Separator	-12.9598
IGNORECASE	-12.9598
boundaries	-12.9598
occurred	-12.9598
trusted	-12.9599
Updated	-12.9601
Red	-12.9601
maxval	-12.9604
environments	-12.9606
setName	-12.9613
loseConnection	-12.9615
fout	-12.9616
artifacts	-12.962
follower	-12.9621
GR	-12.9626
atexit	-12.9626
tune	-12.9628
facets	-12.963
remotes	-12.9631
2.0)	-12.9631
DHCP	-12.9638
DISABLE	-12.9641
Comm	-12.9641
FULL	-12.9643
Stopping	-12.9644
Proc	-12.9645
DataSource	-12.9646
expandtab	-12.9648
leg	-12.9653
Market	-12.9658
Restore	-12.9659
stor	-12.9662
loggers	-12.9664
([0-	-12.9665
'-',	-12.9666
FILETYPE	-12.967
taken	-12.9674
tabstop	-12.9675
hyp	-12.9679
minimize	-12.9681
Vars	-12.9683
Weights	-12.9683
grading	-12.9687
Rep	-12.9687
DISPLAY	-12.9688
Creator	-12.9688
Previous	-12.9688
SPEED	-12.9688
Axes	-12.9688
billing	-12.9689
plotter	-12.9689
lemma	-12.9692
formatting	-12.9695
0.001	-12.9696
getChild	-12.9703
CONNECTION	-12.9706
(100)	-12.971
vhost	-12.9714
Callbacks	-12.9714
vlans	-12.9714
pofile	-12.9716
BIN	-12.9718
TestModel	-12.9718
RFC	-12.972
bpy	-12.9727
BINARY	-12.9734
Ensure	-12.9734
voucher	-12.9734
Removing	-12.9734
reached	-12.9734
filetype	-12.9736
gold	-12.9739
:%02	-12.9742
CreateView	-12.9746
games	-12.9751
autoscale	-12.9757
seriesList	-12.9761
PrivateKey	-12.9764
want	-12.9766
downloader	-12.9769
'#/	-12.9772
birth	-12.9774
Bulk	-12.9779
Activation	-12.9779
Always	-12.9779
denom	-12.978
plotting	-12.978
mixer	-12.9782
Expired	-12.9782
Nu	-12.9782
fragments	-12.9786
VS	-12.9788
"_")	-12.9794
very	-12.9794
3",	-12.9794
spi	-12.9795
oos	-12.9795
resample	-12.9795
Cut	-12.9801
variation	-12.9801
LD	-12.9802
four	-12.9817
20.	-12.982
binascii	-12.9825
ACCEPT	-12.9825
gallery	-12.9825
1']	-12.9826
quot	-12.9827
000000	-12.9828
LANGUAGES	-12.9828
0",	-12.9829
pixelscale	-12.9831
risk	-12.9831
Ready	-12.9832
ine	-12.9833
kern	-12.9836
ned	-12.9838
[-2]	-12.984
isSame	-12.9841
[1][0]	-12.9843
GetAll	-12.9844
kk	-12.9844
jobid	-12.9845
'0',	-12.9845
mention	-12.9847
▁SPACEpywikibot	-12.9853
breaks	-12.9855
getInstance	-12.9857
bytecode	-12.9858
ile	-12.9859
shown	-12.986
OL	-12.9861
▁TABres	-12.9864
xmlns	-12.9867
"1"	-12.9867
pformat	-12.9871
Executable	-12.9871
eroDivisionError	-12.9871
invitation	-12.9871
sweep	-12.9871
Bridge	-12.9872
Coverage	-12.9872
IntegrityError	-12.9872
alice	-12.9872
mediator	-12.9873
Dumper	-12.9873
spinner	-12.9874
inverted	-12.9875
GLib	-12.9875
childNodes	-12.9875
▁SPACElonger	-12.9877
HA	-12.9882
cnn	-12.9885
LY	-12.9886
BR	-12.9888
dq	-12.9889
LA	-12.9889
dur	-12.9892
shots	-12.9894
LONG	-12.9896
ObjectType	-12.9908
nf	-12.9909
=20,	-12.9909
scipy	-12.991
Indexed	-12.991
Relative	-12.9913
('./	-12.9914
ace	-12.9915
'\\'	-12.9915
Perm	-12.9916
10),	-12.9917
BitField	-12.992
flops	-12.992
shrink	-12.992
contained	-12.992
ped	-12.9923
taxon	-12.9924
serving	-12.9924
=[_('	-12.9924
why	-12.9925
vf	-12.9925
muted	-12.9925
StreamHandler	-12.9931
Generation	-12.9932
indx	-12.9933
('{	-12.9933
[\	-12.9934
distutils	-12.9937
1)))	-12.994
department	-12.994
permutation	-12.994
izing	-12.9941
bk	-12.9944
1000,	-12.9944
flows	-12.9945
macros	-12.9946
nrows	-12.9948
▁SPACEassume	-12.9952
synchronous	-12.9953
Dom	-12.9957
expose	-12.9959
Capabilities	-12.9962
sphere	-12.9963
Mount	-12.9963
angular	-12.9964
WAIT	-12.9964
announce	-12.9964
moderator	-12.9964
tutorial	-12.9964
SIGTERM	-12.9964
Directive	-12.9964
SIGINT	-12.9964
skype	-12.9964
PhoneNumber	-12.9965
demand	-12.9965
sequential	-12.9965
Ts	-12.9968
Mapped	-12.9968
")[0]	-12.9969
Hide	-12.9969
Sparse	-12.9971
bonds	-12.9972
▁SPACEcurrently	-12.9973
adding	-12.9974
Tester	-12.9976
})'	-12.9978
etype	-12.9978
["--	-12.9978
'"%	-12.9979
AU	-12.9981
toolkit	-12.9983
playbook	-12.9985
fastq	-12.9986
such	-12.9988
dz	-12.9989
sTo	-12.9989
1_0	-12.9992
fac	-12.9994
backwards	-12.9995
ById	-12.9997
trie	-12.9998
)[-1]	-12.9998
▁TABimport	-12.9999
Operations	-13
▁SPACESee	-13.0007
Configure	-13.0007
'1',	-13.0008
setAttribute	-13.0008
Dashboard	-13.0011
ten	-13.0011
behaviour	-13.0011
Brush	-13.0011
pwndbg	-13.0011
forbidden	-13.0011
Connections	-13.0012
blur	-13.0012
nodelist	-13.0014
imread	-13.0015
subsection	-13.0017
feats	-13.0018
mins	-13.0019
AUTHORI	-13.0022
EnvironmentError	-13.0023
{})".	-13.0024
Raise	-13.0026
())))	-13.0027
'=',	-13.0032
emitter	-13.0034
Margin	-13.0034
0\	-13.0035
ses	-13.0036
rva	-13.0037
backoff	-13.0039
ified	-13.0039
getHost	-13.0039
8',	-13.0041
ale	-13.0043
aw	-13.0046
Inner	-13.0049
▁SPACEgxapi	-13.0053
autocomplete	-13.0056
vrf	-13.0056
rewards	-13.0057
Association	-13.0058
garbage	-13.0058
paginator	-13.0058
calculator	-13.0058
SHOW	-13.0058
ournal	-13.0059
confirmed	-13.0061
mpfr	-13.0063
PNG	-13.0063
)[0])	-13.0066
NF	-13.0068
25)	-13.0072
Second	-13.0072
)/(	-13.0073
wipe	-13.0075
lh	-13.0075
nil	-13.0076
TestData	-13.0078
('.')[0]	-13.0079
3*	-13.0079
Tokenizer	-13.0081
mangle	-13.0083
WebDriver	-13.0085
bom	-13.0085
underline	-13.0086
Sent	-13.0088
UIT	-13.009
imgs	-13.0095
AuthError	-13.0096
centre	-13.0096
Robot	-13.0098
captcha	-13.0099
Updates	-13.0099
Authenticated	-13.0101
Determin	-13.0101
DjangoModel	-13.0102
Freq	-13.0104
Regexp	-13.0104
Corpus	-13.0105
ENEMY	-13.0105
momentum	-13.0105
SkipTest	-13.0106
cent	-13.0108
gpus	-13.011
()})	-13.0111
AX	-13.0113
Communication	-13.0114
Typed	-13.0117
privilege	-13.0119
diet	-13.0122
nmap	-13.0129
}:{	-13.0131
Waiting	-13.0134
FileNotFound	-13.0135
Mini	-13.0136
mine	-13.0136
Abs	-13.0142
-1')	-13.0142
Accounts	-13.0145
Sentence	-13.0151
conjugate	-13.0152
KiwiError	-13.0152
UNICODE	-13.0152
NamedTuple	-13.0153
NaN	-13.0153
vd	-13.0153
publication	-13.0154
Clone	-13.0154
IDField	-13.0155
outReal	-13.0158
METHODS	-13.0158
yr	-13.016
ProtocolState	-13.0162
mongodb	-13.0163
Interaction	-13.0163
11(	-13.0164
'</	-13.0164
unsafe	-13.0166
getClass	-13.0172
intermediate	-13.0176
suggestion	-13.0176
("{	-13.0179
Indent	-13.0181
BGR	-13.0182
grouping	-13.0184
_02(	-13.0184
subdomain	-13.0186
tox	-13.0186
outcomes	-13.0191
1000.0	-13.0195
'#'	-13.0196
WINDOW	-13.0197
Sphinx	-13.0199
applicable	-13.02
carrier	-13.02
mkstemp	-13.02
[5])	-13.02
affine	-13.02
SparkContext	-13.02
jacobian	-13.0201
POWER	-13.0201
{0.	-13.0202
fromString	-13.0206
1024.0	-13.0208
Roles	-13.0211
Guid	-13.0215
▁SPACECT	-13.0219
popitem	-13.022
Sec	-13.0222
extents	-13.0223
east	-13.0223
4])	-13.0225
'{0}/	-13.0235
locales	-13.024
constrain	-13.0241
currentframe	-13.0242
ELEMENT	-13.0245
ana	-13.0247
presentation	-13.0247
Dependencies	-13.0248
opacity	-13.0248
▁SPACEKiwi	-13.0248
RAMSTK	-13.0248
snake	-13.0248
exponential	-13.0248
acute	-13.0248
automat	-13.0248
skipIf	-13.025
InvalidRequest	-13.0253
symlinks	-13.0253
fullscreen	-13.0257
FatalError	-13.0258
NG	-13.0262
mixins	-13.0275
getUser	-13.0276
SD	-13.0277
stdev	-13.0279
coefficients	-13.028
'.')	-13.0282
Matching	-13.0282
frappe	-13.0284
▁SPACEndb	-13.0286
2012	-13.029
PlainText	-13.0291
Repeat	-13.0294
Threads	-13.0296
assembly	-13.0296
Android	-13.0296
jenkins	-13.0296
FEATURES	-13.0297
Extent	-13.0298
oct	-13.03
prefixlen	-13.0302
Te	-13.0302
SubElement	-13.0302
-----	-13.0306
exports	-13.0306
uk	-13.0306
derive	-13.0307
ell	-13.0307
Subscriber	-13.0307
{0	-13.0307
passive	-13.0309
BAR	-13.0314
PING	-13.0315
DR	-13.0315
▁parser	-13.032
]+',	-13.0324
implement	-13.0325
zfill	-13.0325
"""\	-13.0327
40)	-13.0327
near	-13.0336
Pixmap	-13.0336
synchronize	-13.0337
tiny	-13.034
thr	-13.0341
supply	-13.0341
augment	-13.0343
Indicator	-13.0344
FAILURE	-13.0344
Improperly	-13.0344
abbrev	-13.0344
MediaPlayer	-13.0344
immutable	-13.0345
waf	-13.0347
Toolbar	-13.0348
ppc	-13.0349
curdir	-13.035
ema	-13.035
LU	-13.0351
iloc	-13.0352
+',	-13.0356
ated	-13.036
Ratio	-13.0362
OptionParser	-13.0363
▁SPACEfollowing	-13.0364
FileError	-13.0365
PROP	-13.037
Ver	-13.037
netbox	-13.037
mpstate	-13.0371
dismiss	-13.0371
1\	-13.0372
incremental	-13.0372
KB	-13.0375
blip	-13.0375
stopwords	-13.0376
mission	-13.0379
▁TABos	-13.0385
Preferences	-13.039
Broker	-13.0393
addHandler	-13.0393
facebook	-13.0394
thin	-13.0394
changelog	-13.0394
BEGIN	-13.0396
GetValue	-13.0399
Printer	-13.04
▁SPACESolution	-13.04
MethodsMixinDeco	-13.04
3")	-13.0403
vgg	-13.0405
printable	-13.0407
downloaded	-13.0411
noun	-13.0411
vat	-13.0412
Badge	-13.0412
anc	-13.0412
izip	-13.0413
Sp	-13.0413
TRACE	-13.0414
bypass	-13.0414
getmtime	-13.0415
collision	-13.0417
mq	-13.0418
Blocks	-13.042
WT	-13.0423
=[1,	-13.0426
participants	-13.0429
overload	-13.0429
Ports	-13.0433
PUBLIC	-13.0441
LooseVersion	-13.0441
removal	-13.0441
HELP	-13.0441
Markdown	-13.0441
rescue	-13.0442
impact	-13.0443
Extend	-13.0451
Encoded	-13.0455
DeleteView	-13.0456
consumers	-13.046
LoginRequired	-13.0462
isub	-13.0463
ime	-13.0464
saml	-13.0465
Place	-13.0465
aList	-13.0466
supplier	-13.0466
subplots	-13.0476
8000	-13.0476
Hyper	-13.0479
eol	-13.0479
calculated	-13.0479
Sheet	-13.0485
'*.	-13.0485
-------------	-13.0486
rxn	-13.0486
WEB	-13.0487
protect	-13.0489
svd	-13.0489
packer	-13.049
dikt	-13.049
euclidean	-13.049
segmentation	-13.0491
couple	-13.0492
SEC	-13.0494
proof	-13.0496
Are	-13.0499
passthrough	-13.05
zz	-13.0502
Side	-13.0505
://'	-13.0513
▁SPACEpyr	-13.0514
routine	-13.0514
rup	-13.0514
dnf	-13.0515
Incorrect	-13.0521
ijk	-13.0523
(":")	-13.0526
82	-13.0526
gte	-13.053
]\	-13.0531
Activate	-13.0533
_0(	-13.0534
Parsing	-13.0534
elec	-13.0535
Registered	-13.0536
elastic	-13.0537
monitors	-13.0538
HTTPServer	-13.0538
Conditional	-13.0538
assertListEqu	-13.0538
coupon	-13.054
pagure	-13.054
posterior	-13.054
terminator	-13.054
agency	-13.054
physics	-13.054
Disconnected	-13.0541
Bag	-13.0547
Desktop	-13.0549
pickled	-13.0552
DOM	-13.0553
RD	-13.0554
rowCount	-13.0559
ciphertext	-13.0559
released	-13.0559
cds	-13.0566
cpe	-13.0567
UnicodeDecode	-13.0567
strain	-13.0569
=30	-13.0571
ger	-13.0574
bill	-13.0575
completer	-13.0578
syms	-13.0582
rvs	-13.0582
readme	-13.0589
Average	-13.0589
SHIFT	-13.0589
assertRedirects	-13.0589
together	-13.0589
AUDIO	-13.0589
OpenSSL	-13.0591
▁SPACEactually	-13.0591
office	-13.0595
Interactive	-13.0596
sect	-13.0604
og	-13.0606
halt	-13.0611
▁SPACEGPIO	-13.0611
21,	-13.0612
-2)	-13.0613
rdfvalue	-13.0617
boards	-13.0619
DD	-13.0619
SYNC	-13.0619
dna	-13.0621
2048	-13.0624
EventType	-13.0626
sup	-13.0631
ner	-13.0635
Construct	-13.0638
Density	-13.0639
categorical	-13.0639
MINIONS	-13.064
Resize	-13.0642
islink	-13.0644
Notebook	-13.0644
hstack	-13.0645
hc	-13.0646
alarms	-13.0649
deny	-13.0649
EM	-13.0649
Templates	-13.065
pu	-13.0658
---------	-13.0659
LANG	-13.0661
receivers	-13.0663
comb	-13.067
Under	-13.0671
lic	-13.0672
hh	-13.0673
textwrap	-13.0678
FRE	-13.0679
tle	-13.0681
0/	-13.0681
Reverse	-13.0682
...]	-13.0683
Rpc	-13.0687
Delegate	-13.0688
invocation	-13.0689
Chem	-13.0689
retain	-13.069
Beta	-13.069
tagname	-13.069
MOVE	-13.0691
fifo	-13.0692
Tracking	-13.0692
gan	-13.0692
recovery	-13.0696
scans	-13.0697
ufl	-13.0702
Entities	-13.0702
rois	-13.0705
Raises	-13.0714
Checksum	-13.0714
Hosts	-13.0718
floatingip	-13.0718
Compile	-13.0721
NI	-13.0723
san	-13.0723
Tri	-13.0723
cors	-13.0723
zh	-13.0724
zf	-13.0726
▁SPACEfrappe	-13.0728
addTest	-13.0728
NT	-13.0731
dTemporaryFile	-13.0736
Defined	-13.0736
mav	-13.0736
directed	-13.0738
<%	-13.0739
Modify	-13.074
Com	-13.074
[-1],	-13.074
atleast	-13.074
lockfile	-13.0741
windll	-13.0742
pkey	-13.0742
DBus	-13.0743
yaw	-13.0746
)[:	-13.0747
ftype	-13.0747
('/')[-1]	-13.0747
remap	-13.075
itemgetter	-13.0753
fluid	-13.0754
sprites	-13.0754
DAY	-13.0757
bla	-13.0765
worksheet	-13.0766
followers	-13.0767
.""")	-13.0768
bars	-13.0771
nfs	-13.0773
CAP	-13.0777
BYTES	-13.0787
writers	-13.0789
NodekitCatalog	-13.0789
BUCKET	-13.079
Promise	-13.079
Fraction	-13.079
searcher	-13.079
meetup	-13.079
identical	-13.079
mamm	-13.079
crontab	-13.0793
ASN	-13.0796
aborted	-13.0797
shutil	-13.0797
Alt	-13.0797
jac	-13.0803
FileEntry	-13.0805
getPath	-13.0806
Datastore	-13.0806
DAV	-13.0806
getElementsByTag	-13.0809
Img	-13.081
covar	-13.0811
}})	-13.0811
mounts	-13.0816
percentile	-13.0816
ah	-13.0817
OU	-13.0819
fam	-13.082
oapi	-13.0825
Builtin	-13.0828
Anonymous	-13.0829
+1):	-13.0829
"</	-13.0832
waiter	-13.0835
fine	-13.0838
THREAD	-13.0838
hadoop	-13.084
ESCAPE	-13.084
haystack	-13.084
circular	-13.0841
urwid	-13.0841
unitary	-13.0843
lowest	-13.0844
balls	-13.0846
FM	-13.0847
pillar	-13.0848
mmap	-13.0848
Equals	-13.0849
house	-13.0849
GetFile	-13.085
ERS	-13.0852
grids	-13.0853
vstack	-13.0861
Rel	-13.0861
meters	-13.0863
25,	-13.0863
00"	-13.0866
langs	-13.0868
fds	-13.0869
/1/	-13.087
Mgr	-13.087
argtypes	-13.0871
1.3	-13.0872
mtu	-13.0872
sorting	-13.0873
myP	-13.0873
vr	-13.0876
izer	-13.0876
TestClass	-13.0879
recipes	-13.0883
Pixels	-13.0885
crm	-13.0885
negate	-13.0886
bundles	-13.089
Cipher	-13.0891
calibration	-13.0891
exposure	-13.0891
bogus	-13.0892
ubuntu	-13.0892
Restriction	-13.0892
PaginatedList	-13.0893
Broken	-13.0893
MsgHandler	-13.0895
README	-13.0895
Optimizer	-13.0897
StandardError	-13.0902
replaced	-13.0902
202	-13.0903
Lo	-13.0905
"12	-13.0909
onchange	-13.091
isVisible	-13.091
▁TABevents	-13.0912
lap	-13.0914
uote	-13.0918
rId	-13.0919
Indexer	-13.0921
osm	-13.0922
zfs	-13.0923
structures	-13.0926
generations	-13.0928
▁SPACEdatalines	-13.093
PWM	-13.093
1.)	-13.0932
arglist	-13.0934
}}}	-13.0934
Lite	-13.0937
Flask	-13.0942
Enterprise	-13.0943
MISSING	-13.0943
permitted	-13.0943
universe	-13.0943
pilot	-13.0943
Keep	-13.0943
authority	-13.0943
reviews	-13.0944
HERO	-13.0944
employee	-13.0945
strike	-13.0946
RequestPayload	-13.0948
microsite	-13.0949
Breakpoint	-13.095
corrected	-13.095
dsn	-13.0953
newer	-13.0955
"/")	-13.0956
0.0:	-13.0957
▁SPACErescode	-13.0958
vlm	-13.0961
che	-13.0966
LB	-13.0969
chooser	-13.097
mnt	-13.097
cartesian	-13.0973
GEN	-13.0986
observe	-13.0986
Heat	-13.0987
Immutable	-13.0989
handled	-13.099
(11,	-13.0991
DONE	-13.0992
dof	-13.0992
families	-13.0994
Categories	-13.0994
Describe	-13.0994
[-2:]	-13.0994
postgresql	-13.0994
shelf	-13.0995
factorial	-13.0995
EXISTS	-13.0995
datasource	-13.0996
ATTRIBUTES	-13.0997
UNIT	-13.0998
explorer	-13.0998
NotAvailable	-13.0998
ylabel	-13.0999
/>'	-13.0999
xmlInit	-13.1001
finditer	-13.1002
0.00	-13.1003
inbound	-13.1005
mcs	-13.1007
spy	-13.1007
▁TABsys	-13.1009
baseurl	-13.101
Unix	-13.1011
tmall	-13.1017
replacements	-13.1019
bytestring	-13.102
NE	-13.1022
rus	-13.1022
12(	-13.1022
jail	-13.1023
useful	-13.1025
Initializer	-13.1026
(8,	-13.1027
kp	-13.1028
Ro	-13.1029
XX	-13.1029
'1')	-13.103
directives	-13.1031
vers	-13.1033
RR	-13.1037
13,	-13.104
deco	-13.104
interest	-13.1045
subgraph	-13.1045
INTERNAL	-13.1046
Behavior	-13.1046
Avatar	-13.1046
stories	-13.1046
business	-13.1046
referer	-13.1047
bootloader	-13.1048
scf	-13.1048
BV	-13.1049
MANAGER	-13.1049
[2].	-13.105
EnabledElement	-13.1051
EXP	-13.1051
▁TABfrom	-13.1063
▁SPACEresstr	-13.1063
FloatField	-13.1065
sale	-13.1067
extraction	-13.1067
xdg	-13.1069
Inter	-13.1074
'{}/	-13.1075
128)	-13.1076
corp	-13.1079
Dec	-13.108
tweets	-13.1082
LS	-13.1083
gcc	-13.1083
▁SPACESUPPORT	-13.1084
friends	-13.1084
CU	-13.1086
AV	-13.1087
PART	-13.109
Compound	-13.1097
affinity	-13.1098
poisson	-13.1098
65535	-13.1098
SKIP	-13.1098
groupname	-13.11
tagger	-13.1102
Le	-13.1102
BaseTestCase	-13.1103
scoped	-13.1103
{}:	-13.1103
restag	-13.1107
KW	-13.1108
traces	-13.1108
asdf	-13.1111
lum	-13.1111
Combo	-13.1113
CV	-13.1113
ert	-13.1114
Dep	-13.1116
OT	-13.1118
Framework	-13.112
blockchain	-13.112
owners	-13.1121
Hy	-13.1121
Demo	-13.1124
1.4	-13.1125
unzip	-13.1126
early	-13.1126
dbm	-13.1132
'0')	-13.1132
shortcuts	-13.1135
annot	-13.1139
://"	-13.1143
Loaded	-13.1146
RI	-13.1149
2':	-13.1149
Figure	-13.115
authenticator	-13.1151
FINISHED	-13.1151
matrices	-13.1151
connectivity	-13.1151
LIGHT	-13.1151
SF	-13.1152
tarball	-13.1152
Rectangle	-13.1153
PTR	-13.1153
ParserError	-13.1154
hb	-13.1156
central	-13.1157
GPS	-13.1158
Invite	-13.1159
LogLevel	-13.116
docnum	-13.1162
bu	-13.1164
'{"	-13.1166
[]).	-13.1168
''),	-13.1172
colname	-13.1173
Chi	-13.1175
copyFrom	-13.1176
issubclass	-13.1178
allows	-13.1178
Requirement	-13.1179
200:	-13.1184
Visibility	-13.1184
UT	-13.119
getFile	-13.1195
finger	-13.1198
50,	-13.1198
vcf	-13.1199
rorp	-13.1201
trash	-13.1203
VOLUME	-13.1203
Serializable	-13.1203
protection	-13.1203
crawl	-13.1204
Listing	-13.1205
ErrorMessage	-13.1206
Based	-13.1208
ode	-13.1208
Good	-13.1208
superclass	-13.1209
exposed	-13.1211
throws	-13.1212
1_2	-13.1212
pubsub	-13.1215
writeln	-13.1215
Ptr	-13.1216
UpdateView	-13.1216
qsize	-13.1218
curl	-13.1221
TD	-13.1225
[5],	-13.1226
declarations	-13.1228
Ui	-13.1231
Del	-13.1231
octet	-13.1232
Dimensions	-13.1236
ldb	-13.1237
reorder	-13.1238
.0.0.1',	-13.1239
stringify	-13.1239
toolchain	-13.124
sBy	-13.124
flt	-13.1241
OpenError	-13.1245
Fatal	-13.1245
sList	-13.125
0)]	-13.1253
Vertical	-13.1254
"[%	-13.1254
PENDING	-13.1255
strategies	-13.1256
Energy	-13.1256
beginning	-13.1256
Measurement	-13.1256
SOCKET	-13.1256
MF	-13.1258
PIN	-13.1262
BasePermission	-13.1263
collected	-13.1263
focused	-13.1263
pygame	-13.1264
Mol	-13.1264
been	-13.1265
*3*	-13.1266
exclusions	-13.1268
imshow	-13.1271
imt	-13.1272
thresholds	-13.1272
cachedir	-13.1272
getUniversal	-13.1273
'@'	-13.1275
▁TABp	-13.1277
renamed	-13.1277
prio	-13.128
director	-13.1282
approval	-13.1285
nbr	-13.1286
Codes	-13.1286
arctan	-13.1287
nam	-13.129
sertRaisesRegexp	-13.1296
tim	-13.1296
PathSpec	-13.1298
WIN	-13.13
Confirmation	-13.1303
Se	-13.1303
vy	-13.1304
FUNCTION	-13.1307
COMMENT	-13.1309
gjtk	-13.1309
Hardware	-13.1309
GREEN	-13.1309
ohlc	-13.1309
Kill	-13.131
replies	-13.131
Encrypted	-13.131
loops	-13.1312
Installer	-13.1314
Yum	-13.1314
(0),	-13.1315
groupId	-13.1318
KeyValue	-13.1321
solr	-13.1324
Adding	-13.1328
COMP	-13.1331
unparse	-13.1332
NM	-13.1333
poster	-13.1335
accum	-13.1336
gobject	-13.134
Probe	-13.1341
Numbers	-13.1347
ach	-13.135
accumulate	-13.1356
ug	-13.136
[4,	-13.136
energies	-13.1363
BaseOxmlElement	-13.1363
malformed	-13.1363
providing	-13.1363
budget	-13.1363
GASLL	-13.1363
Movie	-13.1364
zope	-13.1364
Hub	-13.1364
TAGS	-13.1365
2\	-13.1365
wkt	-13.1366
iscsi	-13.137
genre	-13.1371
ew	-13.1373
tra	-13.1374
deprecation	-13.1378
joints	-13.138
NumberOf	-13.1384
xref	-13.1387
Maker	-13.1389
32))	-13.1391
archived	-13.1394
sitemap	-13.1396
edu	-13.1398
txid	-13.1398
6.	-13.14
▁TABlog	-13.1405
inputfile	-13.1405
fil	-13.1407
1101	-13.1408
HL	-13.1409
vn	-13.141
Pick	-13.1411
Interpreter	-13.1417
alembic	-13.1417
kafka	-13.1417
Survey	-13.1417
getframe	-13.1417
probably	-13.1417
Secure	-13.1417
UIRED	-13.1418
NOTE	-13.142
Man	-13.1423
((1,	-13.1425
blit	-13.1427
DNSException	-13.1429
1024)	-13.1431
Receive	-13.1433
lbl	-13.1433
ally	-13.1434
Design	-13.1435
EventData	-13.1437
exif	-13.1437
ever	-13.1442
Pose	-13.1445
combination	-13.1446
actors	-13.1447
bios	-13.1449
dem	-13.1451
slaves	-13.1454
TX	-13.1454
THE	-13.1458
posting	-13.1459
statusbar	-13.1465
3\	-13.1465
street	-13.1467
shortname	-13.1468
Audit	-13.1468
getText	-13.1469
FIRST	-13.1471
Frozen	-13.1471
weka	-13.1471
Encryption	-13.1471
sion	-13.1471
Contacts	-13.1472
qtbot	-13.1472
gym	-13.1472
(0.5)	-13.1473
guild	-13.1474
termination	-13.1475
Upper	-13.1477
Interrupt	-13.1477
ence	-13.1477
COLORS	-13.1478
decimals	-13.1478
Getter	-13.1478
simulated	-13.1483
'8	-13.1483
getLast	-13.1484
wv	-13.1487
AccessToken	-13.1488
deregister	-13.1489
Servers	-13.1489
dumper	-13.1492
combinations	-13.1495
1[1]	-13.1498
▁SPACEnullable	-13.15
mdp	-13.1506
sessconfig	-13.1506
42)	-13.1509
ifaces	-13.151
▁SPACEattribs	-13.1512
GC	-13.1512
Cube	-13.1513
Versions	-13.1513
Wave	-13.1515
atr	-13.152
Estimator	-13.1524
rake	-13.1525
executing	-13.1525
penalty	-13.1525
acquisition	-13.1525
english	-13.1525
jitter	-13.1525
SELECTOR	-13.1526
]]:	-13.1526
))])	-13.1527
Padding	-13.1528
expandvars	-13.1529
tilt	-13.1529
...'	-13.1531
[1][1]	-13.1537
Completed	-13.1539
Persistent	-13.1539
planet	-13.1542
HTMLParser	-13.1542
'+'	-13.1543
256,	-13.1543
uuids	-13.1544
land	-13.1547
Lang	-13.1548
popleft	-13.1551
mel	-13.1551
pbar	-13.1553
admins	-13.1553
Bi	-13.1554
descendant	-13.1556
AMP	-13.156
mutations	-13.156
ABI	-13.1561
jsonify	-13.1563
6.0	-13.1565
amt	-13.1569
lookups	-13.157
kick	-13.1573
submodule	-13.1574
vl	-13.1575
2.0,	-13.1575
quant	-13.1577
ITEM	-13.1577
Align	-13.1579
docid	-13.1579
skeleton	-13.158
appropriate	-13.158
scrub	-13.158
3-	-13.158
crawler	-13.1581
MainWindow	-13.1581
rle	-13.1582
Getting	-13.1582
SourceNotFound	-13.1586
Turn	-13.1587
unblock	-13.1591
privatekey	-13.1593
iptables	-13.1594
keymap	-13.1595
BOX	-13.1597
ARCH	-13.1597
editing	-13.1597
Webhook	-13.1598
rms	-13.1603
uistate	-13.1604
rendering	-13.1605
NAX	-13.1607
0.)	-13.1608
vmax	-13.1608
acct	-13.161
8]	-13.1612
finite	-13.1612
(['--	-13.1614
vif	-13.1615
002	-13.1615
reduced	-13.1616
666	-13.1617
unpickle	-13.1618
()[0].	-13.1621
Manage	-13.1622
numerical	-13.1622
Integration	-13.1624
128,	-13.1626
SENSOR	-13.1632
Tenant	-13.1635
memories	-13.1635
iot	-13.1638
Serialize	-13.1638
Limits	-13.164
':'.	-13.1641
sympy	-13.1643
1000000	-13.1643
Graphics	-13.1644
ities	-13.1644
[0.0,	-13.1647
semi	-13.1648
Incomplete	-13.1649
Finalize	-13.1652
dtc	-13.166
its	-13.1662
scal	-13.167
oleon	-13.167
backups	-13.1673
fitz	-13.1673
erializeToString	-13.1673
jsonrpc	-13.1673
verse	-13.1675
dtd	-13.1676
Watch	-13.1681
ari	-13.1682
=============	-13.1684
Spatial	-13.169
SUFFIX	-13.169
Continue	-13.169
Legacy	-13.169
league	-13.169
saturation	-13.169
Artist	-13.169
saving	-13.169
optimization	-13.169
vmware	-13.169
bottle	-13.169
OFFSET	-13.169
durable	-13.169
drbd	-13.1692
------	-13.1692
Soft	-13.1693
ModelIndex	-13.1693
workbook	-13.1693
Trade	-13.1697
Times	-13.1698
2013	-13.1699
Gain	-13.1702
VersionError	-13.1703
bone	-13.1703
<>	-13.1705
frm	-13.1705
(404,	-13.1715
**3	-13.1716
beat	-13.1717
usec	-13.1717
STEP	-13.1724
arq	-13.1725
mis	-13.1727
=50,	-13.1729
barD	-13.173
He	-13.173
matter	-13.1735
Raster	-13.1739
Boot	-13.174
Mi	-13.1744
bullet	-13.1744
nginx	-13.1745
Epoch	-13.1745
COURSE	-13.1745
hypothesis	-13.1745
ENGINE	-13.1745
Darwin	-13.1745
Suffix	-13.1745
INTEGER	-13.1745
VLAN	-13.1746
VO	-13.1746
Heap	-13.1746
Virt	-13.1747
foreach	-13.1747
unhexlify	-13.1747
chronic	-13.1747
milliseconds	-13.1749
']])	-13.175
cpt	-13.1751
Logic	-13.1752
Hint	-13.1752
NETWORK	-13.1754
lifetime	-13.1755
Many	-13.177
gu	-13.1773
dar	-13.1775
Ops	-13.1775
getInfo	-13.1776
appid	-13.1778
trades	-13.1781
Sb	-13.1781
WF	-13.1785
spline	-13.1792
biz	-13.1792
permute	-13.1797
libc	-13.1798
cib	-13.1798
Magic	-13.1798
COOKIE	-13.1799
obtain	-13.18
%04	-13.18
Laplace	-13.1801
Slave	-13.1801
MULTILINE	-13.1801
Serialization	-13.1801
adjustment	-13.1801
italic	-13.1802
cog	-13.1802
stackoverflow	-13.1802
TimeoutException	-13.1803
Mutable	-13.1804
Sink	-13.1805
STYLE	-13.1807
privkey	-13.181
MY	-13.1811
Seek	-13.1816
ConfigFile	-13.1817
optim	-13.1818
exported	-13.1819
decompose	-13.1821
DER	-13.1824
SetData	-13.1827
365	-13.1829
=30)	-13.1832
passing	-13.1834
UM	-13.1835
tiff	-13.1835
)+"	-13.1835
TestMixin	-13.1838
fct	-13.184
framelist	-13.1841
Targets	-13.1841
seeds	-13.1842
Reload	-13.1844
Frames	-13.1847
normalizer	-13.1848
hostgroup	-13.1848
dual	-13.185
finalized	-13.1851
associate	-13.1851
MENT	-13.1854
qui	-13.1855
dynamo	-13.1855
ATTRIBUTE	-13.1855
ratios	-13.1855
aaa	-13.1856
gaupol	-13.1857
CHUNK	-13.1857
REGION	-13.1857
INSTALLED	-13.1858
Micro	-13.1858
Logical	-13.1858
okay	-13.1858
allele	-13.1859
cats	-13.1862
Edges	-13.1864
suffixes	-13.1864
autoescape	-13.1866
lan	-13.1867
255.0	-13.1868
"*"	-13.1868
iz	-13.1868
schemes	-13.187
fulfill	-13.1875
randomize	-13.1876
sns	-13.1882
photos	-13.1885
TreeNode	-13.1886
3}	-13.1887
excinfo	-13.1887
residue	-13.189
alternative	-13.189
24,	-13.189
'1.0'	-13.19
subparsers	-13.19
ifname	-13.1903
(1-	-13.1904
iris	-13.1905
Broadcast	-13.1906
REPORT	-13.1906
getMax	-13.191
EXCEPTION	-13.1911
)+'	-13.1912
querier	-13.1914
Circle	-13.1914
RDFProtoStruct	-13.1914
Pressure	-13.1914
corresponding	-13.1914
Debugger	-13.1914
Compression	-13.1914
spotify	-13.1914
greenlet	-13.1914
dotted	-13.1915
CommandLine	-13.1915
north	-13.1916
Installed	-13.1916
Rating	-13.1916
SU	-13.1917
Undo	-13.1917
{%	-13.1917
ROS	-13.1918
DataSet	-13.192
Csv	-13.192
selectors	-13.192
Credit	-13.192
/1	-13.1921
promote	-13.1922
13(	-13.1922
xform	-13.1929
unchanged	-13.1931
flight	-13.1934
CARD	-13.1936
logpdf	-13.1941
AtIndex	-13.1942
ios	-13.1944
subscribed	-13.1947
2008	-13.1948
suites	-13.1948
GetNum	-13.1951
snd	-13.1952
111	-13.1952
(6,	-13.1952
accessed	-13.1952
[:4]	-13.1955
Saved	-13.1958
breakpoints	-13.1962
+'.	-13.1962
2018	-13.1962
'(\	-13.1964
enroll	-13.197
Mobile	-13.197
Architecture	-13.1971
elevation	-13.1971
illegal	-13.1971
succeeded	-13.1972
Sorted	-13.1973
Submission	-13.1973
phases	-13.1975
ResponsePayload	-13.1978
SECTION	-13.1979
swig	-13.1979
EventHandler	-13.198
separated	-13.1981
▁SPACEcctxt	-13.1982
eigen	-13.1983
sticker	-13.1984
startTime	-13.1987
SerializerV	-13.1988
quotas	-13.1989
msec	-13.1994
tss	-13.1996
devs	-13.1998
xffffffff	-13.1998
BS	-13.1999
='\	-13.2
nodeid	-13.2
ESC	-13.2002
chans	-13.2003
excel	-13.2004
framerate	-13.2011
orb	-13.2012
Positions	-13.2014
OD	-13.2015
(20,	-13.2015
_404_	-13.2017
trac	-13.2018
Rec	-13.2018
tone	-13.2018
fwd	-13.2018
corners	-13.202
lsb	-13.202
ess	-13.2023
drain	-13.2025
▁SPACEcontain	-13.2025
debugging	-13.2028
beacon	-13.2028
contrast	-13.2028
glslc	-13.2029
tech	-13.2029
"{}"'.	-13.203
Triple	-13.203
Large	-13.2031
TERM	-13.2031
placeholders	-13.2032
(''.	-13.2034
jc	-13.2035
ze	-13.2035
Shard	-13.2036
8):	-13.2037
SAVE	-13.2037
pty	-13.2039
▁SPACEgevent	-13.204
">%	-13.204
testfiles	-13.204
Deco	-13.2041
unpause	-13.2042
2.2	-13.2043
mom	-13.2043
pac	-13.2045
qry	-13.2045
PD	-13.2048
tts	-13.205
sens	-13.2051
'{0:	-13.2054
reported	-13.2056
LogFile	-13.2056
FL	-13.2057
indexing	-13.2058
Ljava	-13.2059
occurrence	-13.2061
vmin	-13.2063
soon	-13.2066
>>>	-13.207
003	-13.2071
mg	-13.2072
Widgets	-13.2075
pca	-13.2076
adr	-13.2076
lstm	-13.2078
Tables	-13.2079
UNI	-13.2081
xd	-13.2082
DETAIL	-13.2083
timeseries	-13.2085
CLOUD	-13.2085
coordinator	-13.2085
NOTIFY	-13.2085
exactly	-13.2086
barcode	-13.2087
Accepted	-13.2088
Unary	-13.2088
Discovery	-13.2089
fieldName	-13.2089
unless	-13.209
]",	-13.2091
REDIS	-13.2093
care	-13.2094
\""	-13.2095
normals	-13.2096
]*)	-13.2097
%.3	-13.2097
Tick	-13.2099
tif	-13.21
tenants	-13.2103
=20	-13.2104
userId	-13.2107
fns	-13.211
rmul	-13.2113
[4:]	-13.2115
ics	-13.2116
servicegroup	-13.212
:],	-13.2121
_03(	-13.2122
assertGreater	-13.2122
curves	-13.2123
postprocess	-13.2123
zo	-13.2124
reviewer	-13.2126
rerun	-13.2126
keypress	-13.2126
trials	-13.2126
aq	-13.2131
aside	-13.2131
Into	-13.2131
qq	-13.2133
imul	-13.2133
Inv	-13.2136
deserializer	-13.2136
Give	-13.2138
Maximum	-13.2139
Detector	-13.2141
005	-13.2142
NEXT	-13.2142
PLATFORM	-13.2143
upgradeToVersion	-13.2143
colander	-13.2143
weechat	-13.2143
TRUE	-13.2143
Twisted	-13.2143
Latest	-13.2144
Subset	-13.2144
podcast	-13.2144
explain	-13.2145
DISABLED	-13.2146
##############	-13.2147
macs	-13.2148
3600)	-13.2149
STATES	-13.215
BO	-13.2151
privileged	-13.2151
conda	-13.2152
'/':	-13.2154
=20)	-13.2162
Visit	-13.2165
assertNum	-13.2171
Increment	-13.2172
Terms	-13.2174
ov	-13.2175
Iteration	-13.2177
voc	-13.2178
Cover	-13.2179
▁TABdel	-13.2182
UserRole	-13.2185
SEP	-13.2186
0.1,	-13.2186
spread	-13.2187
302)	-13.2192
vfs	-13.2193
ake	-13.2194
transformations	-13.2195
setParent	-13.2196
ptype	-13.2198
disambiguation	-13.2201
DELAY	-13.2201
renew	-13.2201
Pretty	-13.2201
ascending	-13.2201
BigFloat	-13.2202
REMOVE	-13.2202
flagged	-13.2202
What	-13.2204
nid	-13.2205
Plain	-13.2208
('//	-13.2208
ENT	-13.2209
LI	-13.221
Linked	-13.2211
/\	-13.2212
PACK	-13.2213
offs	-13.2214
01,	-13.2216
1[0]	-13.2225
pole	-13.2231
---------------	-13.2232
warp	-13.2235
RemoteCommand	-13.2236
colormap	-13.2237
waveform	-13.2239
Mu	-13.2239
"{:	-13.2244
Sources	-13.2247
getId	-13.2249
EXIT	-13.225
180.0	-13.2251
SPACE	-13.2255
capital	-13.2256
SDK	-13.2257
CAT	-13.2258
-100	-13.2258
FileType	-13.2258
analog	-13.2259
knowledge	-13.226
HEIGHT	-13.226
organisation	-13.226
summarize	-13.226
deprojected	-13.226
uick	-13.226
silently	-13.2261
coo	-13.2261
IntType	-13.2261
plate	-13.2263
dsa	-13.2263
Steps	-13.2264
(1.0)	-13.2266
Slider	-13.2267
deal	-13.2267
going	-13.2268
ingest	-13.2269
claims	-13.2271
01\	-13.2271
Accessor	-13.2272
[1]])	-13.2275
TV	-13.2278
ous	-13.228
Filtered	-13.2281
ToFile	-13.2286
('=')	-13.2288
DP	-13.2289
outInt	-13.2289
suggestions	-13.2289
scr	-13.2295
tas	-13.2296
Counts	-13.2298
ramp	-13.2299
httpd	-13.23
Ti	-13.23
SPEC	-13.23
SVC	-13.2304
ucr	-13.2305
reach	-13.2313
glyphs	-13.2314
Twitter	-13.2314
4],	-13.2315
ave	-13.2315
[:-2]	-13.2315
ANSI	-13.2316
imgur	-13.2316
HH	-13.2318
purchase	-13.2319
copied	-13.2319
cumulative	-13.2319
cardinality	-13.2319
promise	-13.2319
latency	-13.2319
▁SPACEwhether	-13.2319
PROXY	-13.2319
Injector	-13.2319
outbox	-13.232
Traceback	-13.232
father	-13.2323
emm	-13.2323
talk	-13.2324
booking	-13.2328
FOO	-13.2329
ICON	-13.2332
bump	-13.2333
ScopedCloneable	-13.234
errback	-13.234
FI	-13.2344
EI	-13.2346
bake	-13.2348
poi	-13.2349
STD	-13.2352
saltenv	-13.2353
Par	-13.2355
▁SPACEtypeError	-13.2362
testsuite	-13.2366
persons	-13.2366
Exc	-13.2367
010	-13.2367
lfns	-13.2368
SCI	-13.237
replicate	-13.2373
poke	-13.2374
885	-13.2375
Correct	-13.2377
REGISTER	-13.2378
Software	-13.2378
CLEAR	-13.2378
Individual	-13.2378
integral	-13.2378
Synchronous	-13.2378
TestDiveTxHypo	-13.2378
Skype	-13.2378
ProgressBar	-13.2378
ative	-13.238
temporal	-13.238
vehicles	-13.238
quest	-13.238
[2:])	-13.2381
Downloader	-13.2381
rewind	-13.2382
123)	-13.2382
bdd	-13.2385
numba	-13.2387
qvariant	-13.2388
ergo	-13.2395
-8')).	-13.2396
writes	-13.2404
acls	-13.2405
InvalidFormat	-13.2407
limited	-13.2408
Preset	-13.2408
trait	-13.2411
repair	-13.2414
mes	-13.2414
=60	-13.2415
trail	-13.2416
trap	-13.2418
adc	-13.2418
containerize	-13.2419
('"')	-13.2419
BaseObject	-13.2421
5]	-13.2423
\"%	-13.2426
TMP	-13.2433
IGNORE	-13.2436
Pagination	-13.2437
GRAPH	-13.2437
\1_\2	-13.2437
comparator	-13.2437
wikipedia	-13.2437
debian	-13.2437
Gdk	-13.2437
gandi	-13.2437
TURN	-13.2437
solar	-13.2438
listed	-13.2438
Published	-13.2438
NodeNG	-13.2438
[3]]	-13.2439
Resolution	-13.2439
typedef	-13.244
BYTE	-13.2441
badges	-13.2445
4',	-13.2445
doesnt	-13.2446
graylog	-13.2446
['/	-13.2448
destroyed	-13.2452
asdict	-13.2456
isOpen	-13.2458
6))	-13.2459
excepthook	-13.2459
BaseType	-13.2465
1+	-13.2465
dbsession	-13.2468
older	-13.2474
_05	-13.2475
=(',',	-13.2476
consistent	-13.2476
cz	-13.2476
tour	-13.2477
("{0}	-13.2479
mot	-13.2479
acq	-13.248
Resolve	-13.2481
nq	-13.2485
ncols	-13.2485
TI	-13.249
WA	-13.249
Parts	-13.2491
mtype	-13.2491
ail	-13.2493
kg	-13.2494
INTERFACE	-13.2497
transient	-13.2497
BODY	-13.2497
assumptions	-13.2497
azimuth	-13.2497
computation	-13.2497
Configurable	-13.2497
MENU	-13.2497
DATETIME	-13.2497
diameter	-13.2498
Sigma	-13.2498
keepalive	-13.2499
Bo	-13.2502
dip	-13.2506
coder	-13.2507
wdk	-13.2507
wanted	-13.2507
flattened	-13.2509
DEC	-13.2509
trip	-13.2511
licenses	-13.2513
RV	-13.2514
addWidget	-13.2516
HERE	-13.2517
mocks	-13.2519
getVersion	-13.2521
adv	-13.2529
pnl	-13.2532
BP	-13.2532
▁SPACErunCmd	-13.2534
UnknownField	-13.2537
Computer	-13.2538
[1:]))	-13.2543
'}}	-13.2547
typeName	-13.2549
dbs	-13.255
xb	-13.2551
)/2	-13.2551
Members	-13.2553
plans	-13.2553
initialise	-13.2554
'+',	-13.2554
Sequences	-13.2554
WSGI	-13.2557
RequestFactory	-13.2557
Animation	-13.2557
CATEGORY	-13.2557
amphora	-13.2557
barrier	-13.2557
Yield	-13.2557
iterables	-13.2558
tracing	-13.2558
Never	-13.2559
charts	-13.2559
smoke	-13.2559
86400	-13.256
tray	-13.2562
:3]	-13.2562
ApiCall	-13.2562
32:	-13.2563
errcode	-13.2565
SVG	-13.2567
hal	-13.257
getroot	-13.2572
GetCurrent	-13.2572
ow	-13.2577
Decrypt	-13.2579
curs	-13.258
osv	-13.258
\'%	-13.2581
overflow	-13.2588
Inf	-13.2589
consumed	-13.259
favorite	-13.2594
polygons	-13.2601
emp	-13.2604
elts	-13.2604
VT	-13.2606
=200,	-13.2608
Tax	-13.2612
VaporHTTPError	-13.2618
thrift	-13.2618
Capability	-13.2618
persistence	-13.2618
genshi	-13.2618
serializable	-13.2618
vagrant	-13.2618
stretch	-13.2618
DAVEmptyElement	-13.2618
setCurrentIndex	-13.2619
rcParams	-13.262
ttype	-13.2622
pathsep	-13.2622
Ind	-13.2625
canceled	-13.2626
'<%	-13.2629
swarm	-13.2631
TemplateView	-13.2631
outerr	-13.2632
snippets	-13.2634
tested	-13.2634
References	-13.2635
CORE	-13.2635
CK	-13.2639
planes	-13.2641
-1])	-13.2641
bula	-13.2642
0.0),	-13.2643
getBoundingBox	-13.2644
FTP	-13.2644
postings	-13.2645
ROC	-13.2648
portgroup	-13.265
kernels	-13.2653
clauses	-13.2654
(3):	-13.2655
mxs	-13.2656
wires	-13.2656
Pet	-13.2657
Streaming	-13.2658
parity	-13.266
paired	-13.2662
WM	-13.2665
fillvalue	-13.2668
portNot	-13.2676
MAPPING	-13.2677
LOAD	-13.2678
PROCESS	-13.2679
Negative	-13.2679
Interpolation	-13.2679
patient	-13.2679
ARRAY	-13.2679
Grammar	-13.2679
▁SPACEMAVLink	-13.2679
Pub	-13.2681
]+)',	-13.2682
prototype	-13.2684
RGBA	-13.2689
unlocked	-13.2689
positional	-13.269
acos	-13.2691
getTime	-13.2692
addItem	-13.2693
Scheduled	-13.2693
featured	-13.2694
pal	-13.2696
')}	-13.2699
scenarios	-13.2701
Aws	-13.2701
MR	-13.2705
door	-13.2708
GetName	-13.2708
refcount	-13.2711
gil	-13.2714
playlists	-13.2715
")])	-13.2716
tfa	-13.2732
Filesystem	-13.2735
Calls	-13.2737
VARIABLE	-13.2738
standalone	-13.274
Album	-13.274
monotonic	-13.274
spirit	-13.274
twice	-13.274
minidom	-13.2741
UINT	-13.2742
-15	-13.2743
configparser	-13.2743
PROTO	-13.2748
Signals	-13.2749
PACKAGE	-13.275
DEL	-13.2753
▁fig	-13.2754
Thing	-13.2755
Navigation	-13.2757
+1))	-13.2762
[2]))	-13.2764
symb	-13.2768
8),	-13.2769
152	-13.2769
("/",	-13.2772
sdist	-13.2775
statistic	-13.2778
Projects	-13.2778
triangle	-13.2779
combobox	-13.2779
CERT	-13.278
ide	-13.2783
coresys	-13.2785
5],	-13.2787
dword	-13.2788
dots	-13.2791
TMethodsMixin	-13.2792
stops	-13.2793
integrate	-13.2796
rds	-13.2797
ica	-13.2798
opening	-13.2802
Challenge	-13.2802
TzInfo	-13.2802
bodies	-13.2802
chosen	-13.2802
Observable	-13.2802
Letter	-13.2802
ConnectionLost	-13.2802
nativePointer	-13.2803
xa	-13.2803
<-	-13.2803
Portal	-13.2805
>'.	-13.2806
ListType	-13.2807
absent	-13.2808
night	-13.2809
dropbox	-13.2811
taskid	-13.2811
savefig	-13.2812
localized	-13.2816
-----------	-13.2816
labeled	-13.2821
floats	-13.2821
(1).	-13.2823
Derived	-13.2824
""))	-13.2824
">"	-13.2824
Cat	-13.2829
scaler	-13.2831
-16	-13.2834
PrimitiveCount	-13.284
contributor	-13.284
cdn	-13.2841
INST	-13.2844
Recent	-13.2847
sbin	-13.2847
hashable	-13.2848
ClassName	-13.2851
iden	-13.2851
grow	-13.2852
dbstate	-13.2858
Press	-13.286
=15	-13.2861
may	-13.2861
1'))	-13.2863
naming	-13.2863
jelly	-13.2864
immediate	-13.2864
Thumbnail	-13.2864
trivial	-13.2864
euler	-13.2864
RETURN	-13.2865
BaseAction	-13.2865
preload	-13.2865
OperationalError	-13.2865
Deep	-13.2867
[6]	-13.2867
charges	-13.2867
failIf	-13.2868
tld	-13.2869
SK	-13.2871
nodeType	-13.2872
qid	-13.2876
SEND	-13.2878
12345	-13.2878
objtype	-13.2879
cleaner	-13.2883
hotel	-13.2883
(8)	-13.2887
ada	-13.2889
tank	-13.2889
eidon	-13.2895
rootdir	-13.2901
brand	-13.2903
1*	-13.2905
yt	-13.2905
fab	-13.2906
trained	-13.2907
rts	-13.2911
DOWNLOAD	-13.2923
ACCOUNT	-13.2924
Until	-13.2926
students	-13.2926
SWITCH	-13.2927
SEPARATOR	-13.2927
UNDEFINED	-13.2927
roster	-13.2927
LR	-13.2928
Song	-13.2929
blast	-13.293
MULTI	-13.293
setFocus	-13.2931
threadsafe	-13.2931
multicast	-13.2932
Profiler	-13.2933
vip	-13.2934
Fan	-13.2934
userinfo	-13.2937
Exist	-13.294
("./	-13.294
picker	-13.2942
AndReturn	-13.2943
255))	-13.2944
"},	-13.2946
revoked	-13.2948
insn	-13.2952
102	-13.2952
runas	-13.2962
Hostname	-13.2962
Ba	-13.2962
srid	-13.2963
Coin	-13.2964
exts	-13.2976
Health	-13.2976
-8'),	-13.2978
ihost	-13.2982
overall	-13.2982
apis	-13.2983
nk	-13.2984
xaxis	-13.2985
Membership	-13.2989
Recursive	-13.2989
RELEASE	-13.299
aggregator	-13.299
pylith	-13.299
rabbitmq	-13.299
Updating	-13.299
Firewall	-13.299
COPY	-13.299
SoS	-13.299
opcodes	-13.2992
5])	-13.2992
Formula	-13.2992
synset	-13.2993
InList	-13.2994
fred	-13.2994
▁SPACEclib	-13.2994
xFFFFFFFF	-13.2995
getImage	-13.2999
toolns	-13.2999
bitcoin	-13.2999
Ret	-13.2999
BBox	-13.3
WP	-13.3003
ky	-13.3005
RLock	-13.3005
scraper	-13.3006
Delivery	-13.3007
{2}'	-13.3007
lot	-13.3009
paramMap	-13.3011
traits	-13.3015
utime	-13.3017
mpf	-13.3017
measurements	-13.3019
dofs	-13.3026
cri	-13.3027
panels	-13.3028
qu	-13.3037
Lists	-13.3038
Collect	-13.3038
checkers	-13.3039
ARG	-13.3041
IG	-13.3041
psd	-13.3042
'{%	-13.3042
FileDialog	-13.3044
INSTALL	-13.3053
FORBIDDEN	-13.3053
UserName	-13.3053
▁SPACElibcsound	-13.3053
SMALL	-13.3053
FlowSpec	-13.3054
CoreApplication	-13.3054
3.5	-13.3057
Cpu	-13.3058
INTER	-13.3058
Present	-13.3058
qn	-13.3061
polling	-13.3063
5")	-13.3063
'./	-13.3066
/'+	-13.3071
123456	-13.3073
Uuid	-13.3075
yaxis	-13.3076
analyse	-13.3076
appendChild	-13.3076
Interfaces	-13.3081
ThreadPool	-13.3083
IPV	-13.3086
(".",	-13.3086
weeks	-13.3086
udev	-13.309
Refs	-13.3092
dpid	-13.3095
333	-13.3095
BACK	-13.3098
Logout	-13.3099
[{"	-13.3101
Clip	-13.3104
Subclass	-13.3105
vx	-13.3105
Cpp	-13.3107
ExecutionError	-13.3108
Conditions	-13.3109
TESTS	-13.3109
iri	-13.3111
cant	-13.3112
ure	-13.3112
filesize	-13.3115
Exponential	-13.3117
VIDEO	-13.3117
adjacency	-13.3117
sponsor	-13.3117
Bearer	-13.3117
Saving	-13.3117
Studio	-13.3117
Translator	-13.3117
pyvlx	-13.3117
peaks	-13.3117
runnable	-13.3117
bas	-13.3117
laplace	-13.3117
shallow	-13.3121
headline	-13.3122
Clients	-13.3122
radd	-13.3123
100000	-13.3125
GIS	-13.3129
tsk	-13.3129
progressbar	-13.3129
Cl	-13.313
Requires	-13.3133
allocator	-13.3135
('{0}	-13.3138
inspector	-13.314
tpu	-13.3141
[{}]	-13.3143
workload	-13.3144
ipc	-13.3147
npy	-13.3149
Whitespace	-13.3154
getOutput	-13.316
reraise	-13.3171
Constraints	-13.3178
Front	-13.3178
Vol	-13.3179
OVER	-13.3179
drives	-13.3179
POLICY	-13.3181
decrease	-13.3181
PpTokeniser	-13.3181
LSTM	-13.3181
Unrecognized	-13.3181
▁SPACEtermios	-13.3181
▁SPACESPAN	-13.3181
staging	-13.3181
wrappers	-13.3183
4()	-13.3184
till	-13.3184
roundtrip	-13.3184
Unused	-13.3185
▁SPACEXstar	-13.3187
numa	-13.3189
)-1)	-13.3191
colours	-13.3191
▁TABbreak	-13.3192
Provides	-13.3192
Bitmap	-13.3195
Mid	-13.3196
pods	-13.3198
xlabel	-13.3198
18,	-13.32
ToDict	-13.3202
CONNECT	-13.3204
Outputs	-13.3204
isEmpty	-13.3211
"'%	-13.3212
'{:	-13.3213
abcd	-13.3213
FE	-13.3216
her	-13.3217
OID	-13.3217
millis	-13.322
contig	-13.3221
quantile	-13.3221
deviation	-13.3221
serie	-13.3221
TOOL	-13.3222
Days	-13.3222
logp	-13.323
LM	-13.3231
za	-13.3231
pipes	-13.3232
gn	-13.3238
normalise	-13.3239
chop	-13.324
Detect	-13.3241
moments	-13.3242
Pdf	-13.3243
Shadow	-13.3245
connectionMade	-13.3245
gribble	-13.3245
Sphere	-13.3245
Checked	-13.3245
skirt	-13.3245
10**	-13.3246
ClientSide	-13.3246
tower	-13.3246
[-1:]	-13.3246
Encrypt	-13.3246
Iso	-13.3247
Ca	-13.3247
manually	-13.3247
Working	-13.3248
banned	-13.3249
thisown	-13.3249
loadtxt	-13.3249
construction	-13.3251
IDE	-13.3254
faster	-13.3254
HEADERS	-13.3254
important	-13.3255
rels	-13.3256
lstat	-13.3257
Opts	-13.3259
mas	-13.3262
cfgdb	-13.3262
myfile	-13.3263
verifyObject	-13.3264
numberOf	-13.3266
annotated	-13.3266
gov	-13.3267
=0.5	-13.327
IRC	-13.3271
()[0])	-13.3274
rescale	-13.3274
=1000	-13.3286
wa	-13.3287
crt	-13.3287
setColor	-13.3289
torrents	-13.3292
40,	-13.3294
sal	-13.3301
systemd	-13.3301
See	-13.3303
rna	-13.3303
lz	-13.3305
HANDLE	-13.3308
retrieved	-13.3309
COMPLETE	-13.3309
Sleep	-13.3309
expander	-13.331
anomaly	-13.331
underlying	-13.331
MEDIUM	-13.331
decrement	-13.331
Invoke	-13.331
EXPECTED	-13.331
decoding	-13.3311
hostnames	-13.3311
dateutil	-13.3312
snr	-13.3316
5'	-13.3321
moid	-13.3321
Elem	-13.3322
individuals	-13.3324
alist	-13.3327
"#"	-13.333
Since	-13.3337
comps	-13.3341
Arr	-13.3343
positives	-13.3343
IA	-13.3351
ham	-13.3352
Handlers	-13.3356
userName	-13.3358
BI	-13.3363
▁TABmsg	-13.3363
linker	-13.3364
5',	-13.3367
FailedError	-13.3368
strerror	-13.3372
Slug	-13.3375
convolve	-13.3375
luigi	-13.3375
luminosity	-13.3375
audience	-13.3375
skel	-13.3377
WINDOWS	-13.3379
cython	-13.3379
outbound	-13.3381
Threaded	-13.3381
acceptable	-13.3382
ConversionError	-13.3382
Ms	-13.3383
ParameterError	-13.3383
["-	-13.3384
1024,	-13.3385
Bookmark	-13.3386
savepoint	-13.3386
Existing	-13.339
catalogs	-13.339
ReadFile	-13.339
gaps	-13.3395
msgpack	-13.3397
SN	-13.3399
xlim	-13.3399
64')	-13.3401
addition	-13.3401
currentWidget	-13.3409
Tcp	-13.3409
Border	-13.3411
GenericError	-13.3412
DecodeError	-13.3413
0201	-13.3416
REAL	-13.3417
13)	-13.3417
restriction	-13.3417
Ph	-13.3419
channelId	-13.3419
hsl	-13.342
Chars	-13.3421
ratings	-13.3423
tracked	-13.3425
EL	-13.3427
intro	-13.3429
sgf	-13.343
fip	-13.3431
NotIn	-13.3435
failureException	-13.3436
Notes	-13.3437
wavelet	-13.3438
('12	-13.3441
pile	-13.3441
Strict	-13.3441
Preference	-13.3441
Gamma	-13.3441
Pseudo	-13.3441
MAGIC	-13.3441
Additional	-13.3441
Resume	-13.3441
SpatialReference	-13.3441
Representation	-13.3442
quarter	-13.3442
']})	-13.3443
Spam	-13.3443
CLOSED	-13.3444
0.25	-13.3449
Torrent	-13.345
200"	-13.345
Shot	-13.3451
unc	-13.3452
unable	-13.3453
completions	-13.3457
Look	-13.3458
coors	-13.3459
presets	-13.3463
ope	-13.3466
SoField	-13.3469
vdi	-13.347
notfound	-13.3471
argspec	-13.3472
seds	-13.3475
pml	-13.3476
connecting	-13.3485
SOL	-13.3486
12:	-13.3488
That	-13.3489
Nb	-13.349
osr	-13.3491
yo	-13.3501
supervisor	-13.3501
("_")	-13.3504
CODES	-13.3505
substr	-13.3505
>>=	-13.3505
Distutils	-13.3505
SoMultiTexture	-13.3507
Study	-13.3507
TooMany	-13.3507
Verbose	-13.3507
scoring	-13.3507
pinned	-13.3508
Nav	-13.3508
Inspector	-13.3509
Overlap	-13.351
unauthorized	-13.351
SG	-13.3512
ServiceError	-13.3512
wsdl	-13.3513
DH	-13.3514
hyperparams	-13.3515
")))	-13.352
00',	-13.3521
eo	-13.3522
virus	-13.3522
rtype	-13.3526
sampled	-13.3527
recon	-13.3528
nom	-13.353
Void	-13.3531
excludes	-13.3536
+"/	-13.3538
Wall	-13.3539
latlon	-13.3539
composer	-13.3542
dos	-13.3545
eos	-13.3547
LockError	-13.3549
Green	-13.3549
mainWindow	-13.3549
Lin	-13.3549
sci	-13.3549
probes	-13.355
Shortcut	-13.355
42,	-13.3552
flake	-13.3553
submissions	-13.3553
argin	-13.3554
cnx	-13.3555
Flux	-13.3558
ful	-13.3558
hdl	-13.3559
Hz	-13.3561
speak	-13.3562
Pull	-13.3564
254	-13.3565
fv	-13.3566
Rendering	-13.3569
Bottom	-13.3574
compilation	-13.3574
facility	-13.3574
EPOCH	-13.3574
mako	-13.3574
405	-13.3575
shake	-13.3576
TimeSeries	-13.3577
Colour	-13.3577
getmembers	-13.3578
sure	-13.3578
Mailbox	-13.3578
hess	-13.3579
umount	-13.3582
nbits	-13.3583
ux	-13.3585
cellNumber	-13.3587
cod	-13.3589
TER	-13.3589
Neg	-13.3598
ino	-13.3601
10000)	-13.3604
@%	-13.3609
cpl	-13.3609
eh	-13.3612
prox	-13.3612
Checkpoint	-13.3613
Sc	-13.3616
miss	-13.3618
repeats	-13.3622
bpp	-13.3625
vectorize	-13.3628
floatX	-13.3629
overlaps	-13.3629
UD	-13.363
milestones	-13.3632
smb	-13.3633
ltm	-13.3633
svm	-13.3634
[1]['	-13.3637
WORK	-13.3639
eva	-13.3639
".".	-13.3641
reachable	-13.3641
Flatten	-13.3641
Visual	-13.3641
SPLIT	-13.3641
CASCADE	-13.3641
FONT	-13.3641
proportion	-13.3641
MOCK	-13.3641
growth	-13.3641
IsAuthenticated	-13.3642
Atomic	-13.3642
Paragraph	-13.3642
Subprocess	-13.3643
Buttons	-13.3643
Evaluation	-13.3644
Rotate	-13.3644
eggs	-13.3645
kubeconfig	-13.3646
lights	-13.3646
dropdown	-13.3647
USD	-13.365
Given	-13.3651
fixup	-13.3651
asctime	-13.3651
ITY	-13.3651
prefixed	-13.3652
▁SPACEsublist	-13.3654
.0.0.1'	-13.3656
travel	-13.3658
_4(	-13.3658
(',')]	-13.3659
starttime	-13.3659
obspy	-13.366
0,0,'	-13.3661
sax	-13.3664
occurrences	-13.367
uad	-13.3674
kls	-13.3676
hv	-13.3678
Implemented	-13.3679
Ar	-13.3684
BT	-13.3684
spike	-13.3689
])]	-13.3691
lq	-13.3692
ani	-13.37
]})	-13.37
gethostname	-13.3701
largest	-13.3703
DX	-13.3706
SetValue	-13.3707
utm	-13.3708
Forum	-13.3708
ofp	-13.3708
logistic	-13.3709
ALPHA	-13.3709
Flavor	-13.3709
Snippet	-13.3709
Leave	-13.3709
fleet	-13.3709
Vendor	-13.3709
pauli	-13.3709
cigar	-13.3709
upsert	-13.3709
zookeeper	-13.3709
ToolBar	-13.3709
funev	-13.371
emu	-13.371
Tar	-13.3712
▁SPACEmysuite	-13.3713
predicates	-13.3715
prot	-13.372
IPython	-13.3721
=40	-13.3721
webp	-13.3722
mit	-13.3722
}}'	-13.3725
APPS	-13.3725
ssid	-13.3726
Rm	-13.3726
Minimum	-13.3729
experiments	-13.3732
Yes	-13.3734
papi	-13.3735
contributors	-13.3735
------------	-13.3737
/*.	-13.3737
bitmask	-13.3741
won	-13.3741
openne	-13.3744
OFP	-13.3746
acts	-13.3748
perc	-13.375
Sampler	-13.3753
1":	-13.3756
FORM	-13.3757
3000	-13.3761
zipped	-13.3763
ual	-13.3768
[@	-13.3769
{\	-13.3772
lx	-13.3775
Evaluator	-13.3777
Firefox	-13.3777
VERBOSE	-13.3777
fundamental	-13.3777
deleting	-13.3777
jarvis	-13.3777
ethernet	-13.3777
()["	-13.3779
BasicBlock	-13.3779
Slots	-13.3779
reveal	-13.378
roidb	-13.378
VC	-13.378
spans	-13.3784
IMPORT	-13.3785
'{{	-13.3786
{0},	-13.3789
Fire	-13.3789
[5,	-13.3795
Ring	-13.3795
streamer	-13.3796
512)	-13.3797
monkey	-13.3799
Offer	-13.3801
Inst	-13.3802
)*(	-13.3802
VA	-13.3802
DateField	-13.3802
installation	-13.3805
xsd	-13.3805
Each	-13.3808
recreate	-13.3817
dial	-13.3818
Continuous	-13.3821
CONN	-13.3822
ight	-13.3822
Gene	-13.3824
classifiers	-13.3826
Esx	-13.3826
SchemaError	-13.3827
thermal	-13.3829
3.3	-13.3829
homepage	-13.383
xz	-13.3832
Gr	-13.3839
truediv	-13.3845
ApiException	-13.3845
CRITICAL	-13.3845
STRATEGY	-13.3845
tqdm	-13.3845
MARKUP	-13.3845
UART	-13.3846
Trial	-13.3846
chargeback	-13.3846
usernames	-13.3846
Grant	-13.3847
"""<	-13.3847
Fetcher	-13.3848
Goal	-13.3848
hunt	-13.3851
lldp	-13.3851
Prev	-13.3853
UC	-13.3855
}[	-13.3855
unmount	-13.3856
timegm	-13.3856
Disco	-13.3858
think	-13.386
copyfile	-13.3861
Su	-13.3867
Elastic	-13.3868
along	-13.3868
rlz	-13.3871
analyses	-13.3871
IDS	-13.3874
300,	-13.3875
AG	-13.3878
UIException	-13.3879
hosted	-13.3882
FLOW	-13.3884
=255)	-13.3884
sendline	-13.3886
pton	-13.3886
1)[1]	-13.3888
neuron	-13.389
batched	-13.389
precondition	-13.3894
FieldData	-13.3896
RDD	-13.39
Keywords	-13.3903
Confirm	-13.3913
CONTAINER	-13.3914
EXAMPLE	-13.3914
Wizard	-13.3914
BOOL	-13.3915
Github	-13.3915
SwigP	-13.3915
Notifier	-13.3916
Signup	-13.3916
teamcity	-13.3916
WaitFor	-13.3917
OPERATION	-13.3917
bearing	-13.3917
trading	-13.3917
getParent	-13.3918
These	-13.392
distributed	-13.392
capsys	-13.3922
TXT	-13.3925
DNA	-13.3926
HTTPS	-13.3926
FN	-13.3927
mps	-13.3927
converters	-13.3928
deselect	-13.3929
lis	-13.3933
"<%	-13.3935
infinite	-13.3937
GlobalData	-13.3938
[:,0]	-13.3941
Mon	-13.3942
dac	-13.3943
IDLE	-13.3944
watched	-13.3945
Acl	-13.3946
16:	-13.3947
evals	-13.3947
pexpect	-13.3949
dia	-13.3951
2"]	-13.3958
ParseException	-13.3958
'\0'	-13.3958
fed	-13.396
keyspace	-13.3966
Heading	-13.3971
Hooks	-13.3974
picks	-13.3975
Translate	-13.3978
Calling	-13.3979
PAR	-13.3981
Student	-13.3981
ico	-13.3983
Lattice	-13.3984
Poisson	-13.3984
BATCH	-13.3984
Mutation	-13.3984
Collision	-13.3984
IDENTIFIER	-13.3984
Palette	-13.3984
gravity	-13.3984
spherical	-13.3984
har	-13.3984
bulb	-13.3984
ckan	-13.3984
money	-13.3984
sklearn	-13.3984
explicitly	-13.3985
Advanced	-13.3986
acquired	-13.3988
equiv	-13.3989
broad	-13.3989
LLVM	-13.3993
▁SPACEjms	-13.3993
"1")	-13.3993
EOFError	-13.3999
mut	-13.4004
103	-13.4005
contracts	-13.4007
ortho	-13.4009
Precondition	-13.4009
GUID	-13.4009
REC	-13.4011
yIterator	-13.4011
estimated	-13.4013
Vals	-13.4015
getNext	-13.4015
sIn	-13.4017
▁TABfrappe	-13.4017
skew	-13.4019
[]}	-13.4019
mentions	-13.402
Th	-13.4023
pypi	-13.4027
())[0]	-13.4028
[8]	-13.4029
Cr	-13.4032
testcases	-13.4037
ez	-13.404
insensitive	-13.4041
assertFilter	-13.4043
CUSTOM	-13.4047
Plug	-13.405
getslice	-13.4052
ACE	-13.4053
AVAILABLE	-13.4054
conference	-13.4054
Histogram	-13.4054
brief	-13.4054
supplied	-13.4054
SIMPLE	-13.4054
deterministic	-13.4054
sbi	-13.4054
Motor	-13.4054
explode	-13.4055
Will	-13.4055
concurrency	-13.4055
valve	-13.4057
filer	-13.406
DEVICES	-13.4062
WARN	-13.4062
%.2	-13.4064
folds	-13.4069
Ko	-13.4069
mov	-13.4069
contest	-13.407
Rot	-13.4073
cj	-13.4075
RPM	-13.4078
\00	-13.4078
paid	-13.4081
]],	-13.4082
jp	-13.4083
Tk	-13.4083
Na	-13.4085
incident	-13.4089
Dst	-13.409
versioned	-13.409
TTL	-13.4091
nms	-13.4091
(6)	-13.4094
[0][	-13.4095
Exceeded	-13.4101
scons	-13.4102
kms	-13.4106
FileHeader	-13.4107
encodings	-13.4111
rcode	-13.4115
rod	-13.4115
ward	-13.4116
triplet	-13.4116
Terminate	-13.4117
FIXME	-13.4119
234	-13.412
11_	-13.4122
Opaque	-13.4124
having	-13.4124
raising	-13.4124
AccessDenied	-13.4124
GraphKeys	-13.4125
movement	-13.4125
omit	-13.4127
Documents	-13.4128
14,	-13.4129
cxx	-13.4129
pylab	-13.413
freeit	-13.4131
meshes	-13.4131
TimeStep	-13.4134
tlv	-13.4136
ROUTE	-13.4138
MK	-13.4139
NR	-13.4144
burn	-13.4145
oh	-13.4146
VI	-13.4148
__)),	-13.4148
favorites	-13.4152
tun	-13.4154
ACC	-13.416
2'])	-13.416
lie	-13.4162
childs	-13.4162
templ	-13.4164
456	-13.4165
lyr	-13.4172
Sym	-13.4174
cloned	-13.4178
Symbols	-13.418
NTP	-13.4184
umb	-13.4187
extern	-13.4188
PLAY	-13.4195
Percent	-13.4195
bottleneck	-13.4195
campus	-13.4195
chromosome	-13.4195
Degree	-13.4195
UOTE	-13.4195
Maybe	-13.4195
cdata	-13.4195
Footer	-13.4195
Something	-13.4195
baudrate	-13.4196
86_64	-13.4196
borrow	-13.4196
Have	-13.4197
untagged	-13.4197
OverflowError	-13.4198
[:8]	-13.4198
removing	-13.4198
ugettext	-13.4201
pset	-13.4201
BOOT	-13.4206
=120	-13.4206
xlsx	-13.4206
setuptools	-13.421
kinds	-13.4212
knots	-13.4212
SCALE	-13.4213
wakeup	-13.4213
:02	-13.4214
successors	-13.4217
HT	-13.4217
ACTIONS	-13.4217
writeable	-13.422
moveTo	-13.422
cameras	-13.4221
GW	-13.4224
(400,	-13.4226
octets	-13.4228
[:2])	-13.4228
'2',	-13.4229
algorithms	-13.4233
4-	-13.4237
Best	-13.4239
nlp	-13.4239
2_0	-13.4242
matchers	-13.4243
DESC	-13.4246
Managed	-13.4247
(1)))	-13.4255
Timezone	-13.4265
slc	-13.4265
Blue	-13.4265
Compress	-13.4265
Attach	-13.4266
--------	-13.4266
Manual	-13.4266
COLLECTION	-13.4266
Principal	-13.4266
polynomial	-13.4266
DESCRIPTION	-13.4266
Executing	-13.4266
ribInternalError	-13.4266
warehouse	-13.4266
Regular	-13.4266
promotion	-13.4267
mqtt	-13.4267
TESTING	-13.4269
xF	-13.427
BITS	-13.427
Exiting	-13.4271
Logged	-13.4272
marketing	-13.4273
▁TABactivate	-13.4274
ldif	-13.4274
leap	-13.4275
loopback	-13.4275
Drag	-13.4276
(0.	-13.4276
RX	-13.4277
sps	-13.4277
albums	-13.4281
buildProtocol	-13.4282
Building	-13.4283
maas	-13.4285
RL	-13.4288
Regression	-13.4288
terminals	-13.4289
OIN	-13.429
filler	-13.4293
STAT	-13.4294
addProduct	-13.4298
gce	-13.43
ADC	-13.43
qml	-13.4305
smi	-13.4307
globs	-13.4307
Sitemap	-13.4308
Bindings	-13.4311
500,	-13.4314
ingredient	-13.4314
2.4	-13.4314
buffered	-13.4315
Fore	-13.4319
▁c	-13.4321
CY	-13.4321
StreamError	-13.4325
iou	-13.4325
ubyte	-13.4327
isclass	-13.4329
REDIRECT	-13.4329
SINGLE	-13.4338
univention	-13.4338
Acquire	-13.4338
ambiguous	-13.4338
inclusive	-13.4338
gethostbyname	-13.4338
exceeded	-13.4339
unhandled	-13.4339
timespan	-13.434
across	-13.4341
Where	-13.4341
collide	-13.4341
FileHandler	-13.4341
addfinalizer	-13.4341
duty	-13.4342
Preprocessor	-13.4343
exploit	-13.4343
DBusException	-13.4345
ParsingError	-13.4345
Maps	-13.4346
unnamed	-13.4346
Busy	-13.4348
Pan	-13.4349
''}	-13.435
GEO	-13.4352
ruleset	-13.4355
Ka	-13.436
smiles	-13.4361
chunked	-13.4362
mounted	-13.4365
openssl	-13.4366
>".	-13.4367
'[%	-13.4367
ker	-13.4369
60.0	-13.437
8'))	-13.4372
ctor	-13.4377
brackets	-13.4378
fnc	-13.4379
dB	-13.438
composition	-13.4383
aud	-13.4385
stand	-13.4388
IVE	-13.4389
smt	-13.439
Outline	-13.4391
([('	-13.4392
▁SPACEtestenv	-13.4393
patt	-13.4398
#===========	-13.4402
Paper	-13.4402
itemsize	-13.4404
443	-13.4404
Air	-13.4407
spectra	-13.441
ard	-13.441
subcommands	-13.4411
InaSAFE	-13.4411
LOGGING	-13.4411
Picture	-13.4411
Simulator	-13.4411
Sampling	-13.4411
ffmpeg	-13.4411
CUDA	-13.4411
operating	-13.4411
existence	-13.4411
Slip	-13.4412
Ldap	-13.4412
constrained	-13.4412
indicators	-13.4413
HANDLERS	-13.4413
ingError	-13.4413
OpCode	-13.4414
eu	-13.4414
(['-	-13.4414
tickets	-13.4414
likely	-13.4415
-12	-13.4417
qasm	-13.4417
rsync	-13.4421
taxa	-13.4422
BER	-13.4423
ResourceNotFound	-13.4424
bat	-13.4425
Bars	-13.4425
icmp	-13.4426
assertFailure	-13.4429
tns	-13.4429
1000.0)	-13.4432
synced	-13.4435
eve	-13.4436
xffff	-13.4437
netaddr	-13.444
indi	-13.444
(255,	-13.4441
500)	-13.4441
Flip	-13.4442
Deriv	-13.4443
II	-13.4443
UnicodeEncode	-13.4447
Statistic	-13.445
OM	-13.4452
(3))	-13.4453
fcn	-13.4456
BNGet	-13.4457
semantic	-13.446
REL	-13.4461
getSize	-13.4462
squares	-13.4469
GetProperty	-13.447
userAgent	-13.4472
anno	-13.4476
sorter	-13.4478
','')	-13.4478
1"]	-13.4479
ification	-13.4479
/3	-13.4483
OW	-13.4483
Presence	-13.4484
visualization	-13.4484
EXTRA	-13.4484
Splitter	-13.4484
ledger	-13.4485
discord	-13.4485
structured	-13.4486
POOL	-13.4487
"../	-13.4488
("-",	-13.4488
yz	-13.4488
filtering	-13.449
Geom	-13.4491
TaskError	-13.4493
TOKENS	-13.4494
Inc	-13.4494
133	-13.4494
'-'.	-13.4494
law	-13.4495
COMMANDS	-13.4496
donor	-13.4498
sidebar	-13.4499
segs	-13.4501
HW	-13.4501
readlink	-13.4504
registerProducer	-13.4505
dialogs	-13.4509
Modes	-13.4509
Pane	-13.451
HDF	-13.451
Equality	-13.451
yuno	-13.4511
fval	-13.4512
Rt	-13.4513
})".	-13.4513
[-1]]	-13.4514
sanitized	-13.4519
openapi	-13.4519
Vel	-13.452
makefile	-13.4526
isbn	-13.4532
"-")	-13.4533
{0}\	-13.4537
UCS	-13.4538
="1.0"	-13.4539
(16)	-13.4542
avi	-13.4544
issubset	-13.4547
Slide	-13.4549
STACK	-13.455
animate	-13.4551
Ganga	-13.4553
WHITE	-13.4555
SoSFBox	-13.4557
administrator	-13.4557
retention	-13.4557
cinder	-13.4557
lbaas	-13.4557
Wildcard	-13.4557
automatic	-13.4558
totals	-13.4558
Dropdown	-13.4558
nvim	-13.4559
EXTENSIONS	-13.456
__).	-13.4561
'{0}'	-13.4563
('.')[-1]	-13.4566
Incompatible	-13.4566
minval	-13.4567
backtrace	-13.4569
Ast	-13.457
idevice	-13.457
filehandle	-13.4572
_05(	-13.4576
john	-13.4576
whois	-13.4578
renderers	-13.4579
bots	-13.4583
minima	-13.4588
Tabs	-13.4592
asin	-13.4597
GEOS	-13.4599
Eq	-13.46
GetOutput	-13.46
[:-1],	-13.4601
nsmap	-13.4602
fName	-13.4602
colnames	-13.4604
ChoiceField	-13.4604
octave	-13.4607
heatmap	-13.4608
Learning	-13.461
psk	-13.4611
MPL	-13.4612
"").	-13.4612
xmlnode	-13.4615
kin	-13.4615
ori	-13.4616
filepaths	-13.4619
unserialize	-13.462
Docstring	-13.4622
Consume	-13.4623
requeue	-13.4625
MARK	-13.4628
2.6	-13.463
acceleration	-13.4631
Heartbeat	-13.4631
planning	-13.4631
Handshake	-13.4631
PKCS	-13.4632
SbBox	-13.4632
affected	-13.4632
dropped	-13.4632
RuntimeWarning	-13.4632
amqp	-13.4632
manufacturer	-13.4632
slashes	-13.4632
1)])	-13.4633
ether	-13.4633
mnist	-13.4633
goods	-13.4633
▁SPACEclibui	-13.4633
CMS	-13.4634
480	-13.4636
401)	-13.4636
ljust	-13.4637
0":	-13.4637
StateError	-13.4638
fabs	-13.4638
301	-13.4639
}-{	-13.4641
instead	-13.4641
refine	-13.4643
DEFAULTS	-13.4645
aj	-13.4647
6),	-13.4651
testapp	-13.4652
punct	-13.4654
kpts	-13.4656
PError	-13.4658
SCAN	-13.4661
vk	-13.4662
UPLOAD	-13.4662
ParamError	-13.4663
Reports	-13.4664
Does	-13.4667
((1,),	-13.4669
'/',	-13.467
Uid	-13.4672
Hat	-13.4673
Calc	-13.4674
([[1,	-13.468
Social	-13.4681
observable	-13.4682
RTC	-13.4684
Periodic	-13.4685
=1024	-13.4692
xFFFF	-13.4694
getObject	-13.4695
tdl	-13.4695
')[0].	-13.4696
Known	-13.4698
"1",	-13.4701
OLD	-13.4703
/'))	-13.4706
Explicit	-13.4706
nominal	-13.4706
STOPPED	-13.4706
tangent	-13.4706
updating	-13.4706
USAGE	-13.4706
einsum	-13.4706
getLocal	-13.4706
Beam	-13.4707
Rev	-13.4707
Popup	-13.4707
ComboBox	-13.4709
visualizer	-13.471
king	-13.471
Dns	-13.4711
shorten	-13.4712
resized	-13.4715
paginated	-13.4718
BM	-13.472
collapsed	-13.4721
lar	-13.4721
dbName	-13.4722
Unimplemented	-13.4722
announcements	-13.4723
prefer	-13.4723
Ask	-13.4724
forwarding	-13.4724
downtime	-13.4725
::-1]	-13.4725
conns	-13.4728
ToText	-13.4729
Buddy	-13.4733
literals	-13.4736
nts	-13.4739
Br	-13.474
WD	-13.474
Ack	-13.4743
mapreduce	-13.4743
eat	-13.4743
cname	-13.4746
gca	-13.4748
diffuse	-13.4749
pha	-13.475
14(	-13.4755
equation	-13.4757
ROW	-13.4766
blink	-13.4767
Elf	-13.4767
'"')	-13.4768
moduleName	-13.4772
Fx	-13.4774
Take	-13.4776
slicer	-13.4777
BaseCommand	-13.4781
Cuckoo	-13.4781
actuator	-13.4781
unevolved	-13.4781
telegram	-13.4781
weekly	-13.4783
orgs	-13.4783
Holder	-13.4783
Profiles	-13.4783
+=1	-13.4786
Travel	-13.4786
Syn	-13.4786
layouts	-13.4787
ents	-13.4788
SORT	-13.4789
3.1	-13.4789
decide	-13.4789
ruby	-13.479
setChecked	-13.4793
▁SPACEmne	-13.4793
fetched	-13.4793
STARTED	-13.4794
▁TABm	-13.4798
forwarded	-13.4798
mse	-13.4799
realtime	-13.4804
datacenter	-13.4804
unbound	-13.4812
"][0]	-13.4813
listbox	-13.4814
getSub	-13.4815
Candidate	-13.4817
verbs	-13.4818
menus	-13.4819
south	-13.4819
plat	-13.4822
boo	-13.4822
closeEvent	-13.4822
datagram	-13.4822
Initialized	-13.4823
Swap	-13.4824
GroupName	-13.4824
(100	-13.4824
SecurityGroup	-13.4825
ERRORS	-13.4826
vir	-13.4828
amo	-13.4829
stacked	-13.4832
Blocked	-13.4833
brick	-13.4835
rit	-13.4836
tally	-13.4837
dms	-13.4837
+)',	-13.484
36,	-13.4842
assertTemplate	-13.4845
mil	-13.4846
140	-13.4846
_06	-13.4846
Tok	-13.4848
0.2,	-13.4849
deliver	-13.4851
dap	-13.4852
jdf	-13.4855
DEFINE	-13.4856
wild	-13.4856
Si	-13.4856
Walk	-13.4856
getPage	-13.4856
BLUE	-13.4857
Participant	-13.4857
Circuit	-13.4857
SEEK	-13.4857
PUSH	-13.4857
noisy	-13.4858
ProgrammingError	-13.4858
emitted	-13.4858
Elasticsearch	-13.4858
THIS	-13.486
lexicon	-13.486
:///	-13.486
DistutilsError	-13.4862
splitted	-13.4862
nuv	-13.4862
TG	-13.4863
Ray	-13.4863
">'	-13.4865
je	-13.4868
nlmsg	-13.4868
Bl	-13.487
asynchronous	-13.487
zim	-13.4872
geoip	-13.4873
gae	-13.4874
8'	-13.4874
restored	-13.4875
sinh	-13.4876
AK	-13.4876
phoneme	-13.4877
belongs	-13.4877
Guide	-13.4877
wfile	-13.4887
todos	-13.4887
univ	-13.489
ables	-13.489
[1.0,	-13.4896
PluginError	-13.4897
findAll	-13.4898
sma	-13.49
gv	-13.4901
:-1]	-13.4906
=300)	-13.4911
isupper	-13.4911
optparse	-13.4911
displayName	-13.4911
RST	-13.4911
▁TABlogging	-13.4913
Fact	-13.4915
SV	-13.4918
sur	-13.492
ado	-13.4921
cgroup	-13.4922
outlet	-13.4923
spl	-13.4923
Then	-13.4926
Authenticate	-13.4927
getChildren	-13.493
Mul	-13.4931
GOOGLE	-13.4933
binaries	-13.4933
dictionaries	-13.4933
hazard	-13.4933
satisfied	-13.4933
entitlement	-13.4933
integrator	-13.4933
assessment	-13.4933
iplineError	-13.4934
SoGLTexture	-13.4934
Plotting	-13.4934
difficulty	-13.4934
Covariance	-13.4934
BG	-13.4934
VPN	-13.4935
lltk	-13.4935
trytes	-13.4935
urlconf	-13.4937
atime	-13.4938
Hdr	-13.4939
serialise	-13.4939
vh	-13.494
mech	-13.4942
fprop	-13.4943
shifted	-13.4945
Intent	-13.4946
ObjectId	-13.4946
%08	-13.4948
backing	-13.4949
MAN	-13.4954
=0.5,	-13.4958
Apple	-13.4963
MEM	-13.4963
Throw	-13.4972
=0.1)	-13.4973
)[::-1]	-13.4975
Entropy	-13.4976
Idle	-13.4976
oS	-13.4976
ngrams	-13.4978
mother	-13.498
()],	-13.4981
512,	-13.4987
(1.5)	-13.4988
PressEvent	-13.4989
('#')	-13.4989
][2]	-13.499
neo	-13.4995
getsize	-13.4996
siblings	-13.4996
gates	-13.4997
west	-13.4999
Unsigned	-13.5002
oai	-13.5003
LoggedIn	-13.5003
react	-13.5003
SECONDS	-13.5004
kube	-13.5005
seat	-13.5006
▁TABnew	-13.5006
"/".	-13.5006
Follow	-13.5009
sqs	-13.501
Actual	-13.501
LIBRARY	-13.501
Eeprom	-13.501
sensitivity	-13.501
MASTER	-13.501
provenance	-13.501
Discrete	-13.501
TabularInline	-13.501
Yaml	-13.501
Embed	-13.501
Performance	-13.501
Utilities	-13.501
Motion	-13.501
displacement	-13.501
whatever	-13.501
getTypeURI	-13.5011
arith	-13.5011
DGRAM	-13.5011
22)	-13.5012
[0.,	-13.5012
Once	-13.5012
Positive	-13.5012
-5,	-13.5013
5}	-13.5015
AndCheck	-13.5015
FG	-13.5016
Meter	-13.5017
GetItem	-13.5018
'.',	-13.5021
4000	-13.5022
xmlstream	-13.5022
GetData	-13.5026
commandline	-13.5028
oem	-13.503
2_2.	-13.5031
Cal	-13.5033
subpath	-13.5033
nop	-13.5035
tie	-13.5036
18(	-13.5036
sFrom	-13.5036
getActive	-13.5037
TREE	-13.5038
BL	-13.5039
(**{	-13.5039
ImageField	-13.504
subkey	-13.504
transformers	-13.5041
RCS	-13.5045
minibatch	-13.5047
getargspec	-13.5049
Xs	-13.5052
Workers	-13.5054
getState	-13.5055
fromkeys	-13.5055
bell	-13.5055
EventLoop	-13.5056
setX	-13.5058
labs	-13.5059
xhtml	-13.5061
predictor	-13.5062
nw	-13.5062
blockdev	-13.5065
[3:]	-13.5066
dateTime	-13.5067
outp	-13.5069
0.1)	-13.5069
=50)	-13.507
Lu	-13.5072
Perform	-13.5072
ROM	-13.5075
########	-13.5076
tro	-13.5077
ofile	-13.5077
PCA	-13.5082
reps	-13.5083
Unpack	-13.5083
sniff	-13.5084
credits	-13.5086
"%02	-13.5087
bounce	-13.5087
xmlUCSIs	-13.5088
▁SPACEuCSIs	-13.5088
kaldi	-13.5088
consensus	-13.5088
FALSE	-13.5088
instantiation	-13.5088
Adjust	-13.5088
jurisdiction	-13.5088
regularization	-13.5088
Chord	-13.5088
starred	-13.5089
sums	-13.509
NoSelf	-13.509
maxcol	-13.5091
rbac	-13.5091
yet	-13.5094
fly	-13.5094
Segments	-13.5097
ueued	-13.5098
ions	-13.5098
Forms	-13.5098
men	-13.5101
Spot	-13.5101
Expect	-13.5103
200(	-13.5107
Apps	-13.5108
erf	-13.5108
basepath	-13.5111
'>'	-13.5115
'../	-13.5117
unpacker	-13.5118
ReadError	-13.5121
ira	-13.5127
VarType	-13.5127
BoundingBox	-13.5128
WORDS	-13.5129
omero	-13.5131
pyplot	-13.5133
mj	-13.5135
14)	-13.5135
gentInfo	-13.5138
srs	-13.5144
healthcheck	-13.5148
8.0	-13.515
Warnings	-13.5151
Lab	-13.5154
Al	-13.5155
scalars	-13.5155
waitFor	-13.5157
=30,	-13.5162
2010	-13.5163
Dead	-13.5163
Round	-13.5164
arcs	-13.5165
503	-13.5166
Categorical	-13.5166
Vega	-13.5166
Bootstrap	-13.5166
Chrome	-13.5166
adjacent	-13.5166
supriya	-13.5166
emulator	-13.5166
Stock	-13.5166
CourseEnrollment	-13.5166
TestDiveTx	-13.5166
Slack	-13.5166
Classification	-13.5167
01')	-13.5167
Vlan	-13.5167
glance	-13.5168
Resp	-13.5168
[[0,	-13.5169
0000000	-13.5169
CXX	-13.5169
Reject	-13.517
HMAC	-13.517
importance	-13.5171
65536	-13.5172
plone	-13.5173
Replica	-13.5175
spool	-13.5177
higher	-13.5178
spreadsheet	-13.5179
"{0:	-13.518
{:02	-13.518
}%	-13.5181
pri	-13.5183
rcv	-13.5183
Phi	-13.5188
instantiated	-13.519
bitrate	-13.5191
▁VERSION	-13.5195
acs	-13.5198
meas	-13.5201
CONST	-13.5202
=0.01	-13.5206
waiters	-13.5208
XCall	-13.521
tear	-13.5212
propname	-13.5213
PKey	-13.5213
ANT	-13.5214
viewpoint	-13.5216
Receipt	-13.5218
Prediction	-13.522
successor	-13.5221
developer	-13.5221
LV	-13.5221
"'")	-13.5221
isation	-13.5222
expectation	-13.5222
cursors	-13.5223
Obs	-13.5226
toxml	-13.5229
paren	-13.5235
()[2]	-13.524
PAYLOAD	-13.5245
People	-13.5245
coupling	-13.5245
mnemonic	-13.5245
transparency	-13.5245
ueueFlowToDisk	-13.5245
vacuum	-13.5245
PRIMARY	-13.5245
▁SPACEdprint	-13.5245
trimmed	-13.5245
truncation	-13.5245
MainLoop	-13.5245
maze	-13.5245
backbone	-13.5245
smallest	-13.5245
Inverse	-13.5245
CIMElement	-13.5246
rectify	-13.5247
discoverer	-13.5248
(0,0)	-13.5248
READY	-13.5249
sticky	-13.5249
Arc	-13.5252
TemplateResponse	-13.5255
odlc	-13.5256
disassemble	-13.5256
produced	-13.5257
attrgetter	-13.5257
GROUPS	-13.5258
isspace	-13.5258
004	-13.5259
vz	-13.5259
0103	-13.526
neighbours	-13.5262
ley	-13.5264
concurrent	-13.5264
[:,:,	-13.5265
psf	-13.5267
convex	-13.5269
parens	-13.5269
restrictions	-13.5274
AI	-13.5274
skipif	-13.5275
("'%	-13.5276
+'/	-13.5276
440	-13.5277
rowcount	-13.5279
parseOptions	-13.5281
grades	-13.5281
Arrow	-13.5282
Generated	-13.5282
arena	-13.5283
EDGE	-13.5283
Kickstart	-13.5285
.0.0.1:	-13.5286
sentry	-13.5286
hsm	-13.5287
fieldnames	-13.5289
realms	-13.5289
measures	-13.529
SIDE	-13.529
4",	-13.5294
TestHelper	-13.5294
Dirs	-13.5294
raiseNot	-13.5295
Implicit	-13.5296
"./	-13.5297
ium	-13.5297
['<	-13.53
holding	-13.5305
genotype	-13.5305
levelname	-13.5308
Glob	-13.5312
explore	-13.5313
Blank	-13.5317
assume	-13.5318
OO	-13.5318
Atoms	-13.5319
Gauge	-13.5321
MINION	-13.5322
OPTION	-13.5322
ALIAS	-13.5324
messenger	-13.5324
hamming	-13.5324
psycopg	-13.5324
Ascii	-13.5324
regularizer	-13.5324
TOPIC	-13.5324
alitrip	-13.5324
juju	-13.5324
MUST	-13.5325
infra	-13.5325
recommended	-13.5325
Reserved	-13.5326
qisrc	-13.5327
blok	-13.5327
ByteField	-13.5327
coil	-13.5329
Browse	-13.5333
Redraw	-13.5334
nopython	-13.5335
INV	-13.5338
FB	-13.5339
Car	-13.5339
100))	-13.5344
errorhandler	-13.5346
calib	-13.5347
▁TABresponse	-13.535
userdata	-13.5354
jam	-13.5357
samplerate	-13.5364
Agg	-13.5369
getboolean	-13.5373
'_',	-13.5375
your	-13.5376
yl	-13.5377
exiting	-13.5378
"(%	-13.5379
negatives	-13.538
Functional	-13.5381
ignores	-13.5381
Relay	-13.5382
03\	-13.5383
IB	-13.5385
srcdir	-13.5385
mate	-13.5388
deltas	-13.5388
estimators	-13.5389
Ac	-13.5395
EF	-13.5397
Notifications	-13.5399
qua	-13.54
BaseEvent	-13.54
Clicked	-13.54
105	-13.5401
nao	-13.5401
EXTENSION	-13.5402
pooling	-13.5402
PV	-13.5402
'{}:	-13.5404
mozilla	-13.5404
official	-13.5404
Availability	-13.5404
Authority	-13.5404
inches	-13.5404
Unhandled	-13.5404
crossover	-13.5406
munge	-13.5407
grey	-13.5407
xmlrpclib	-13.5408
Skin	-13.5411
UNK	-13.5413
[0,0]	-13.5415
==0:	-13.5415
srt	-13.5416
Connecting	-13.542
superset	-13.5422
memoized	-13.5422
ain	-13.5422
()[-1]	-13.5427
2)])	-13.5428
lift	-13.5429
Dest	-13.5432
/{0}'	-13.5434
BRM	-13.5435
FormatString	-13.5437
Hand	-13.5438
sinks	-13.5439
_04(	-13.5441
PARSER	-13.5441
remain	-13.5444
selections	-13.5446
vary	-13.5446
Xt	-13.5447
formatters	-13.5447
InvalidParameter	-13.5453
npm	-13.5453
oDeco	-13.5456
(.+)	-13.5458
SoNode	-13.5465
messageId	-13.5473
lemmatize	-13.5479
genres	-13.5481
Cancelled	-13.5481
corpora	-13.5483
Orient	-13.5485
Avro	-13.5485
Calibration	-13.5485
Naming	-13.5485
PROGRAM	-13.5485
(10))	-13.5485
COMMON	-13.5485
Hunt	-13.5485
charm	-13.5488
DETAILS	-13.5488
Recovery	-13.5488
shortest	-13.5489
{2}".	-13.5491
kids	-13.5492
\033[0	-13.5492
querystring	-13.5493
[(0,	-13.5493
.0")	-13.5496
0.02	-13.5497
normcase	-13.5499
motors	-13.5499
locking	-13.5501
blockdevice	-13.5501
▁SPACEshouldn	-13.5502
(403,	-13.5502
customize	-13.5508
newest	-13.5509
kmer	-13.5511
optimized	-13.5511
DIRECT	-13.5514
'*')	-13.5515
writerow	-13.5518
Suppress	-13.5519
Newline	-13.5522
grouper	-13.5523
10]	-13.5526
gar	-13.5527
cite	-13.5528
mainwindow	-13.5535
2.1	-13.5536
Indexes	-13.5538
dex	-13.5538
xls	-13.5538
DAVTextElement	-13.554
ClientFactory	-13.554
getConfig	-13.554
assertNot	-13.5541
expansion	-13.5542
ByID	-13.5545
"]),	-13.5545
[...]	-13.5546
award	-13.5551
qe	-13.5555
1_5	-13.5556
decr	-13.556
=1000,	-13.5561
isActive	-13.5563
phrases	-13.5565
While	-13.5566
Community	-13.5566
traversal	-13.5566
waffle	-13.5566
Insufficient	-13.5566
bdist	-13.5566
symmetry	-13.5567
favicon	-13.5567
collation	-13.5567
historical	-13.5568
chem	-13.5571
qualname	-13.5571
adjusted	-13.5572
Kcross	-13.5573
getField	-13.5576
profit	-13.5577
'}]	-13.5577
Bank	-13.5577
▁SPACEseems	-13.5579
255),	-13.5581
rjust	-13.5581
Props	-13.5582
les	-13.5592
scorer	-13.5592
spc	-13.5595
failing	-13.5595
RadiusAttr	-13.5596
[1]*	-13.5597
centered	-13.5597
"\\"	-13.5599
awk	-13.5599
timeit	-13.56
PATHS	-13.5604
desk	-13.5605
MIME	-13.5607
checkpoints	-13.5607
obo	-13.5608
ATOR	-13.5612
overridden	-13.5616
6',	-13.5617
ByteArray	-13.5619
UIRE	-13.562
/>')	-13.5621
mos	-13.5621
conflicts	-13.5622
RNG	-13.5622
substitution	-13.5624
cer	-13.5624
SMS	-13.5626
ndar	-13.563
INF	-13.5631
FFT	-13.5632
destinations	-13.5632
CRC	-13.5636
}.{	-13.5638
3']	-13.5641
era	-13.5645
Prob	-13.5647
8080	-13.5647
Transcript	-13.5647
"{}/	-13.5648
federation	-13.5648
CONFIGURATION	-13.5648
YEAR	-13.5648
friction	-13.5648
Detection	-13.5648
overlapping	-13.5649
unspecified	-13.5649
Packer	-13.5649
Currently	-13.5651
CREATED	-13.5653
picking	-13.5654
monthly	-13.5654
zeta	-13.5656
OpenID	-13.5658
ipsec	-13.5658
getMessage	-13.5663
HK	-13.5664
AttributeNames	-13.5665
'_'.	-13.5667
Lst	-13.5669
StorageError	-13.5672
methodName	-13.5673
drv	-13.5674
dirac	-13.5675
CUR	-13.5678
Seg	-13.5679
[10,	-13.568
tarinfo	-13.568
3)]	-13.5681
TRA	-13.5683
nbar	-13.5685
qp	-13.5688
2.3	-13.5688
entered	-13.569
aka	-13.5694
ChildNode	-13.5696
nano	-13.5696
facecolor	-13.5696
makeConnection	-13.5696
Wheel	-13.5696
(4))	-13.5696
motif	-13.5698
pie	-13.5706
minions	-13.5706
Hot	-13.5706
resid	-13.571
succeeds	-13.5711
sen	-13.5711
aggregated	-13.5712
tape	-13.5712
((3,	-13.5712
hdrs	-13.5713
ecs	-13.5721
Vis	-13.5728
]+\	-13.5729
Concat	-13.573
Cauchy	-13.5731
PyCdlib	-13.5731
SBDebugger	-13.5731
DOTALL	-13.5731
Restricted	-13.5731
cosine	-13.5731
workaround	-13.5731
providedBy	-13.5731
fhandle	-13.5731
SerialNumber	-13.5731
ownership	-13.5732
OTHER	-13.5732
chown	-13.5733
suggested	-13.5733
mylist	-13.5733
matlab	-13.5733
▁SPACEYt	-13.5733
standby	-13.5733
ListAPIView	-13.5734
('/'))	-13.5734
Pandas	-13.5734
4'	-13.5735
RandomState	-13.5735
fidel	-13.5736
▁SPACEexpects	-13.5737
lexpos	-13.5738
setContent	-13.5743
DLOG	-13.5745
fnames	-13.5745
expecting	-13.5746
uwsgi	-13.5746
Fa	-13.5746
chained	-13.575
locally	-13.5751
Spaces	-13.5751
>/<	-13.5751
RM	-13.5752
NotDefined	-13.5753
NodeList	-13.5753
coins	-13.5754
cdef	-13.5756
screens	-13.5757
strat	-13.5757
DOT	-13.576
AFF	-13.576
'][1]	-13.5761
PluginManager	-13.5763
BlockDevice	-13.5766
pkgName	-13.5771
sPer	-13.5772
0*	-13.5772
"+"	-13.5773
Elt	-13.5773
tobytes	-13.5777
gis	-13.5779
addChild	-13.5779
3.0)	-13.5779
Sessions	-13.578
▁SPACEierr	-13.578
FromDict	-13.5783
buffering	-13.5785
typecode	-13.5785
ilo	-13.5787
FileWriter	-13.5787
".")	-13.5791
rrup	-13.5792
gist	-13.5793
006	-13.5794
Subscribe	-13.5795
diagram	-13.5795
4/	-13.5797
).\	-13.5798
lation	-13.5799
intersects	-13.5799
Views	-13.58
gin	-13.5803
▁SPACEnewstate	-13.5804
ranking	-13.5805
RNN	-13.5806
822	-13.5808
hms	-13.5809
214	-13.5811
FU	-13.5811
dsc	-13.5811
eight	-13.5811
Crash	-13.5811
EST	-13.5812
{}}	-13.5813
4")	-13.5813
Evaluate	-13.5814
semaphore	-13.5814
Currency	-13.5814
witness	-13.5814
decoration	-13.5814
Timing	-13.5814
drift	-13.5814
simulator	-13.5814
MEAN	-13.5814
2.0*	-13.5814
genetic	-13.5814
unichr	-13.5815
pango	-13.5815
HO	-13.5815
BaseConfig	-13.5817
carry	-13.5818
masses	-13.5819
▁SPACEidc	-13.5819
Domains	-13.582
sizeHint	-13.582
bing	-13.5821
Art	-13.5823
viewlet	-13.5824
-*-	-13.5825
SAME	-13.5826
covers	-13.5827
shiftwidth	-13.5828
▁SPACEcbData	-13.5831
PKG	-13.5832
lcd	-13.5832
([(1,	-13.5833
evaluated	-13.5834
[0:3]	-13.5834
bigquery	-13.5835
atk	-13.5835
/2,	-13.5836
devops	-13.5837
PUB	-13.5839
='#	-13.5842
downstream	-13.5843
essid	-13.5846
Roll	-13.5848
{4}	-13.5849
sessionID	-13.5849
RAD	-13.5851
oa	-13.5852
Ranges	-13.5854
(12,	-13.5855
HP	-13.5855
reconstruct	-13.5855
Fold	-13.5857
stringfilter	-13.5859
15(	-13.5859
XMLRPC	-13.5864
wants	-13.5864
getPeer	-13.5866
reservations	-13.5868
zi	-13.5868
primer	-13.5872
IOC	-13.5873
signalName	-13.5875
aaaa	-13.5876
"*")	-13.588
recommend	-13.5882
HeaderError	-13.5882
OperationError	-13.5885
('=',	-13.5888
hls	-13.5888
32()	-13.5892
independent	-13.5894
ByIndex	-13.5894
1_3	-13.5896
Nt	-13.5897
road	-13.5897
followed	-13.5898
Music	-13.5898
Writable	-13.5898
kelvin	-13.5898
APPLICATION	-13.5898
precedence	-13.5898
Attack	-13.5898
Postgres	-13.5898
parallelization	-13.5898
functionality	-13.5899
Dense	-13.5899
auc	-13.59
wk	-13.5902
systemctl	-13.5902
funcinfo	-13.5902
("\\",	-13.5904
▁SPACEtarg	-13.5904
storm	-13.5904
qpart	-13.5908
subnode	-13.5908
OWN	-13.5911
ENC	-13.5912
sse	-13.5914
changelist	-13.5915
reqId	-13.5921
RTS	-13.5922
frmt	-13.5923
>[	-13.5925
Completer	-13.5927
Leo	-13.5928
008	-13.5931
geocode	-13.5937
ey	-13.5939
})))	-13.594
abcdef	-13.5941
trying	-13.5941
aps	-13.5941
ahead	-13.5942
dbh	-13.5948
FileIO	-13.5948
osx	-13.595
ants	-13.5951
BF	-13.5952
aria	-13.5958
rdtype	-13.5959
pfx	-13.5959
fst	-13.596
invisible	-13.5961
aton	-13.5962
indirect	-13.5962
Online	-13.5964
/>"	-13.5969
Discover	-13.5969
+",	-13.5971
**2))	-13.5975
410	-13.5976
isolate	-13.5976
104	-13.598
Deploy	-13.5982
Procedure	-13.5983
SLEEP	-13.5983
Scenario	-13.5983
Trajectory	-13.5983
YELLOW	-13.5983
httpretty	-13.5983
Daily	-13.5983
isalnum	-13.5983
squash	-13.5983
GitHub	-13.5983
PACKET	-13.5983
tagging	-13.5983
VirtualMachine	-13.5983
Smoke	-13.5983
bay	-13.5983
permanently	-13.5983
BlockDev	-13.5984
Dual	-13.5984
Composition	-13.5986
MIB	-13.5986
seekable	-13.599
currentText	-13.599
much	-13.5992
AGE	-13.5992
Serialized	-13.5993
Startup	-13.5995
SETTING	-13.5996
distribute	-13.5997
lineage	-13.5997
CLS	-13.6
ego	-13.6
dvd	-13.6
UserSerializer	-13.6002
AnonymousUser	-13.6002
argc	-13.6003
FieldError	-13.6006
transparent	-13.601
ListField	-13.6016
SwitchException	-13.6017
4.5	-13.6018
BatchNorm	-13.6019
autostart	-13.6019
Dr	-13.6021
FunctionType	-13.6022
Grade	-13.6022
printf	-13.6022
LTI	-13.6023
UserInfo	-13.6023
TST	-13.6024
suppliers	-13.6025
Arn	-13.6035
GF	-13.6035
uploads	-13.6036
Unset	-13.6036
triples	-13.6038
bboxes	-13.6038
DAYS	-13.604
▁TABeq	-13.6042
defn	-13.6042
contentType	-13.6042
PU	-13.6043
Cls	-13.6046
divmod	-13.6047
Runs	-13.6048
likes	-13.6049
dlconfig	-13.6049
getP	-13.6056
ListItem	-13.6058
CW	-13.6061
TopLevel	-13.6061
Unlock	-13.6065
▁TABbuffer	-13.6065
Endpoints	-13.6066
venue	-13.6066
holes	-13.6068
drucker	-13.6068
DUMMY	-13.6068
FAMILY	-13.6068
SHELL	-13.6068
Tunnel	-13.6068
flaky	-13.6068
Protein	-13.6068
Dialect	-13.6068
HIGHEST	-13.6068
isolation	-13.6068
nal	-13.6068
ALLOW	-13.6068
gyro	-13.6068
happy	-13.6069
gitlab	-13.6071
flocker	-13.6072
Sandbox	-13.6072
AttrDict	-13.6073
ipy	-13.6074
toarray	-13.6074
had	-13.6078
ged	-13.6081
uu	-13.6083
28,	-13.6083
timings	-13.6085
zfile	-13.6085
forums	-13.6086
inherits	-13.6087
treeiter	-13.6089
ufunc	-13.609
"***	-13.609
exitCode	-13.6091
Protected	-13.6093
rankings	-13.6093
heating	-13.6095
swing	-13.6095
LimitExceeded	-13.6096
fence	-13.6097
menuitem	-13.6098
Xi	-13.6099
keypoints	-13.6101
dflt	-13.6101
fromfile	-13.6102
GetString	-13.611
({})'	-13.6111
RateLimit	-13.6112
nnz	-13.6113
"{%	-13.6114
muc	-13.6114
"{0}"	-13.6115
depend	-13.6119
numer	-13.6122
-3,	-13.6124
become	-13.613
getN	-13.6136
ampl	-13.6139
TextCursor	-13.614
mols	-13.614
gcode	-13.6141
-3)	-13.6143
SDL	-13.6146
NodeType	-13.6147
margins	-13.6148
pyobj	-13.615
han	-13.6151
YES	-13.6154
BOOLEAN	-13.6154
MANIFEST	-13.6154
proxied	-13.6154
Supervisor	-13.6154
Instantiation	-13.6154
Routing	-13.6154
automatically	-13.6154
toks	-13.6154
NGAEast	-13.6154
warmup	-13.6155
shut	-13.6155
damping	-13.6155
CSRF	-13.6155
mh	-13.6156
[:-3]	-13.6157
sasl	-13.6157
transcription	-13.6157
Packed	-13.6157
nbsp	-13.6159
doctree	-13.616
cleared	-13.616
2>	-13.6161
Terminated	-13.6163
MultiDict	-13.6163
ylim	-13.6165
PathError	-13.617
isfinite	-13.617
assertItems	-13.617
UF	-13.6171
cmdId	-13.6171
Uninstall	-13.6171
columnCount	-13.6172
Tap	-13.6173
sheets	-13.6176
principals	-13.6176
getColor	-13.6177
startService	-13.6181
trig	-13.6181
readfile	-13.6185
('.'))	-13.6189
passwords	-13.619
callers	-13.6191
AccessError	-13.6191
pxe	-13.6192
returning	-13.6192
KO	-13.6193
seqid	-13.6194
pads	-13.6195
_01_	-13.6197
clustering	-13.6197
flu	-13.6198
(1000)	-13.6202
[...]
